<unk>	0
<s>	0
</s>	0
▁a	-2.5382
.	-2.70116
▁A	-3.15354
▁in	-3.29468
▁the	-3.63979
▁on	-3.92001
▁is	-4.00448
▁man	-4.02266
▁and	-4.02544
▁of	-4.0953
▁with	-4.19434
s	-4.34237
ing	-4.34483
▁	-4.59578
,	-4.64361
▁woman	-4.68252
▁are	-4.70899
▁to	-4.8646
▁Two	-4.8848
▁at	-4.9713
▁wearing	-5.05971
▁people	-5.08689
▁white	-5.22705
▁shirt	-5.25847
▁young	-5.29171
▁black	-5.33544
▁his	-5.34564
▁while	-5.36333
▁an	-5.37809
▁blue	-5.39435
▁red	-5.46485
▁sitting	-5.46807
▁girl	-5.50126
▁dog	-5.51017
▁boy	-5.52439
▁men	-5.54319
▁standing	-5.54725
▁playing	-5.56514
▁group	-5.61044
▁street	-5.65302
▁down	-5.69078
▁walking	-5.7051
-	-5.72274
e	-5.72476
▁her	-5.77398
▁front	-5.78226
▁holding	-5.81298
ed	-5.83375
▁water	-5.94288
▁The	-5.95394
▁by	-5.97895
▁up	-6.08117
▁for	-6.10298
▁women	-6.1077
▁green	-6.10793
▁An	-6.14323
▁one	-6.15078
▁look	-6.15189
▁outside	-6.16149
▁child	-6.16258
▁little	-6.19297
▁large	-6.21249
▁Thre	-6.21308
y	-6.21484
▁through	-6.229
ir	-6.25518
▁brown	-6.27327
▁yellow	-6.27589
▁two	-6.28491
▁ball	-6.33097
▁hat	-6.33134
▁from	-6.34242
▁person	-6.38043
looking	-6.4096
▁over	-6.41252
▁children	-6.42581
▁other	-6.42726
▁next	-6.43326
▁small	-6.44855
d	-6.45728
▁dressed	-6.4798
▁out	-6.49226
▁building	-6.52175
▁riding	-6.56224
▁running	-6.56724
▁near	-6.57225
▁People	-6.57234
▁as	-6.58337
▁jacket	-6.5852
▁another	-6.6012
▁around	-6.60458
to	-6.61469
▁be	-6.62014
▁some	-6.63689
▁field	-6.64654
▁sidewalk	-6.65015
▁Man	-6.66897
▁orange	-6.67021
▁beach	-6.67876
▁crowd	-6.68775
▁pink	-6.72574
▁snow	-6.72664
▁stands	-6.73176
'	-6.73713
▁jumping	-6.73729
▁behind	-6.73798
▁sits	-6.73897
▁table	-6.74469
ly	-6.75423
▁grass	-6.77379
▁background	-6.79923
▁stand	-6.8052
▁bike	-6.82614
▁city	-6.86202
▁player	-6.86629
▁wall	-6.90005
▁top	-6.90586
▁off	-6.91961
▁girls	-6.92189
▁that	-6.92763
▁camera	-6.94985
▁dress	-6.95415
▁park	-6.95605
▁air	-6.9615
▁play	-6.97966
▁hold	-6.98232
▁talking	-6.98657
▁something	-6.99065
▁dogs	-6.99081
▁older	-7.00961
▁hand	-7.01051
▁along	-7.02068
▁guitar	-7.02105
▁hair	-7.0281
▁walks	-7.02934
▁lady	-7.03905
▁together	-7.04183
▁soccer	-7.04185
▁blond	-7.04963
▁working	-7.05265
▁t	-7.05448
▁car	-7.05866
▁food	-7.05901
▁gray	-7.06698
▁smiling	-7.09026
▁picture	-7.09737
▁game	-7.09862
▁has	-7.10794
▁boys	-7.11553
▁Asian	-7.1357
▁plays	-7.142
▁walk	-7.16214
▁Four	-7.17827
▁sit	-7.18568
▁him	-7.18791
▁road	-7.18832
▁bench	-7.19349
▁pants	-7.20772
▁glasses	-7.20806
▁carry	-7.21673
▁stage	-7.2175
▁it	-7.21802
▁shorts	-7.22426
▁dirt	-7.23069
▁head	-7.23079
▁couple	-7.25177
▁bicycle	-7.25481
▁face	-7.25492
▁them	-7.2568
▁tree	-7.25788
▁baby	-7.26113
▁side	-7.27821
into	-7.27825
▁rock	-7.28394
▁pool	-7.30742
▁old	-7.30986
▁long	-7.31227
▁race	-7.31481
each	-7.31618
▁back	-7.34405
st	-7.3457
▁doing	-7.34763
▁dark	-7.37085
▁watching	-7.37519
▁jeans	-7.37553
▁male	-7.37663
▁middle	-7.38606
▁boat	-7.39272
▁who	-7.40255
▁area	-7.41609
▁jumps	-7.4211
n	-7.42116
▁sand	-7.42591
veral	-7.4271
▁hands	-7.42973
▁ground	-7.43986
▁room	-7.44307
▁day	-7.44737
▁performing	-7.45638
▁female	-7.46583
▁eating	-7.46976
▁guy	-7.47869
▁coat	-7.48369
▁baseball	-7.48908
▁tak	-7.48934
▁suit	-7.49288
es	-7.50332
▁horse	-7.50569
▁using	-7.50731
▁under	-7.51075
▁watch	-7.51131
▁sign	-7.5148
▁football	-7.51491
▁mouth	-7.51524
▁striped	-7.52571
▁purple	-7.53338
▁store	-7.54255
▁he	-7.54359
er	-7.54461
▁band	-7.54877
haired	-7.55968
▁uniform	-7.57416
▁enjoy	-7.57503
▁runs	-7.58129
▁Young	-7.58455
▁mountain	-7.5883
shirt	-7.59338
▁toward	-7.59448
▁line	-7.59602
▁tennis	-7.59902
al	-7.60038
t	-7.60347
▁sunglasses	-7.60389
▁reading	-7.60519
▁microphone	-7.61341
▁go	-7.61578
▁three	-7.61956
▁clothing	-7.62028
▁There	-7.63524
ral	-7.6399
▁players	-7.646
▁ocean	-7.65369
▁S	-7.65845
▁basketball	-7.66038
▁toy	-7.66366
▁helmet	-7.66411
▁watches	-7.6651
▁past	-7.66518
▁its	-7.67569
▁work	-7.67974
cross	-7.68026
▁On	-7.68205
▁climbing	-7.68216
▁kids	-7.68567
is	-7.68651
▁restaurant	-7.68714
▁train	-7.69049
▁again	-7.6985
▁window	-7.70664
▁get	-7.70917
▁elder	-7.71168
▁dancing	-7.72275
▁team	-7.7233
▁chair	-7.73512
▁show	-7.74085
▁rides	-7.74212
▁throw	-7.7491
▁wooden	-7.7732
▁outdoor	-7.7743
▁posing	-7.77432
▁about	-7.78118
▁trees	-7.78927
▁covered	-7.79581
▁floor	-7.79888
▁waiting	-7.8061
▁Seve	-7.80744
▁swimming	-7.80835
▁jump	-7.81127
▁skateboard	-7.8174
▁hav	-7.81761
▁or	-7.82056
▁bag	-7.82988
▁construction	-7.83249
▁sun	-7.84476
▁very	-7.8452
▁catch	-7.84537
▁workers	-7.84655
▁all	-7.85301
▁ice	-7.85373
▁colorful	-7.85624
▁fence	-7.85856
▁busy	-7.85893
▁singing	-7.86511
▁Woman	-7.8762
▁high	-7.8835
▁hill	-7.88685
▁pull	-7.88902
▁cap	-7.89369
▁Th	-7.91095
▁cart	-7.9133
▁bus	-7.92072
▁d	-7.92206
▁book	-7.9257
▁truck	-7.93268
▁open	-7.93298
▁Se	-7.93349
▁tan	-7.934
▁laying	-7.93801
▁ride	-7.93883
▁bright	-7.94135
▁Men	-7.94232
▁cellphone	-7.95284
▁path	-7.95594
▁kitchen	-7.95598
▁market	-7.95605
▁light	-7.95738
▁beard	-7.95851
"	-7.96137
a	-7.96448
▁inside	-7.96587
▁making	-7.97099
▁grassy	-7.9764
▁track	-7.98105
▁brick	-7.98114
▁try	-7.98241
▁stick	-7.98366
▁clothes	-7.98426
uring	-7.98609
▁lean	-7.9877
▁umbrella	-7.988
▁outfit	-7.98806
▁metal	-7.99112
▁perform	-7.99513
▁motorcycle	-7.99535
▁body	-8.00024
▁hats	-8.00038
▁big	-8.00283
▁others	-8.00373
▁takes	-8.00696
▁full	-8.00718
▁swing	-8.00923
▁night	-8.01343
▁shirts	-8.01561
▁"	-8.02087
▁paper	-8.02508
▁river	-8.02803
▁ready	-8.02841
▁she	-8.05058
colored	-8.0519
▁tank	-8.058
▁T	-8.06512
ve	-8.07332
▁hard	-8.08164
▁sweater	-8.0869
▁lot	-8.08756
▁piece	-8.08778
▁shop	-8.09421
▁trick	-8.09489
▁lake	-8.09876
▁painting	-8.10243
▁se	-8.10921
▁surround	-8.11158
▁run	-8.11303
▁above	-8.11312
▁stone	-8.13172
▁dance	-8.13482
▁bar	-8.144
▁wave	-8.14426
▁vest	-8.14431
▁push	-8.14535
▁board	-8.15164
▁snowy	-8.15378
▁shopping	-8.15455
▁music	-8.16129
▁backpack	-8.16177
▁worker	-8.16233
▁beside	-8.16346
▁uniforms	-8.18163
▁photo	-8.18657
▁smiles	-8.19459
▁crowded	-8.1994
▁pole	-8.20576
▁toddler	-8.20636
▁gear	-8.20654
▁house	-8.20716
▁outdoors	-8.21345
▁F	-8.21407
▁arm	-8.21904
▁adults	-8.22047
▁kid	-8.22171
▁g	-8.22209
▁drinking	-8.22303
▁phone	-8.22793
▁2	-8.23609
▁short	-8.24161
▁kick	-8.24401
▁gathered	-8.25309
▁event	-8.26122
on	-8.26189
hair	-8.26302
▁many	-8.26376
▁set	-8.26376
▁hanging	-8.26437
▁costume	-8.26958
▁subway	-8.27049
▁bridge	-8.27053
▁African	-8.27077
▁family	-8.28004
▁L	-8.28682
▁flowers	-8.28875
▁object	-8.28895
▁fire	-8.29003
▁arms	-8.29013
▁preparing	-8.29182
▁rope	-8.29993
▁away	-8.30773
▁attempt	-8.30931
▁hockey	-8.30945
▁sleeping	-8.31001
▁forest	-8.31038
▁take	-8.31202
▁steps	-8.31215
▁like	-8.31612
▁machine	-8.31851
▁fountain	-8.31861
▁graffiti	-8.31909
▁does	-8.3199
▁after	-8.32186
▁fishing	-8.32743
ch	-8.32895
▁Children	-8.32907
▁clean	-8.33379
ting	-8.33442
▁beautiful	-8.33811
▁adult	-8.3391
▁guys	-8.34314
across	-8.35007
▁prepare	-8.35231
▁asian	-8.35273
▁four	-8.36025
▁appear	-8.36061
▁pose	-8.36221
▁police	-8.36924
▁stairs	-8.37139
id	-8.37471
▁pass	-8.37489
▁f	-8.37877
ive	-8.37904
▁shoes	-8.38481
▁shirtless	-8.39276
▁selling	-8.39561
▁setting	-8.40385
▁glass	-8.41265
▁Some	-8.41274
▁racing	-8.42462
▁American	-8.42547
▁whi	-8.4311
in	-8.43464
▁corner	-8.43541
▁someone	-8.43575
▁drink	-8.43704
▁slide	-8.43943
▁rocks	-8.44437
▁both	-8.44658
▁bet	-8.4472
▁tall	-8.44742
ring	-8.44931
▁chairs	-8.45586
▁p	-8.45692
ween	-8.45724
▁public	-8.45754
▁volleyball	-8.45758
▁parade	-8.45759
▁party	-8.45872
▁flower	-8.45934
▁view	-8.46017
▁have	-8.46301
▁ladies	-8.46904
▁equipment	-8.46907
▁couch	-8.46909
▁computer	-8.47021
▁flag	-8.47038
▁laughing	-8.4721
▁putt	-8.47385
▁trail	-8.47913
▁match	-8.48153
▁instruments	-8.48945
aged	-8.49002
▁fish	-8.4934
▁bath	-8.49377
▁ramp	-8.49431
▁wood	-8.49436
etting	-8.4984
▁s	-8.50429
▁plastic	-8.50438
▁sweatshirt	-8.50595
▁woods	-8.51529
▁concrete	-8.51639
▁playground	-8.51663
▁statue	-8.51813
▁hit	-8.51822
ny	-8.52088
▁rain	-8.52377
▁reach	-8.52503
▁poses	-8.52819
▁winter	-8.52858
▁dock	-8.52881
▁pictures	-8.53758
▁midair	-8.54095
▁yard	-8.54235
▁number	-8.55293
▁attire	-8.5536
▁cowboy	-8.55558
▁skirt	-8.55566
▁cross	-8.56881
▁b	-8.57185
an	-8.5792
▁what	-8.59262
▁seated	-8.59269
▁Fi	-8.59596
▁reads	-8.59614
just	-8.60486
▁left	-8.60499
▁cream	-8.60518
▁sky	-8.60546
▁distance	-8.60584
▁grill	-8.60891
▁beer	-8.61141
▁cooking	-8.62114
▁kneel	-8.62173
▁home	-8.62225
▁wear	-8.62572
▁bikes	-8.62655
o	-8.62823
▁cliff	-8.63185
▁works	-8.63308
▁where	-8.63349
▁rider	-8.63658
▁tent	-8.63685
▁vests	-8.64911
▁school	-8.6495
▁bags	-8.65415
▁court	-8.65943
▁Boy	-8.6597
▁edge	-8.66038
▁instrument	-8.66305
▁bed	-8.66397
▁make	-8.66666
▁cutt	-8.67715
▁crossing	-8.68536
▁scarf	-8.68797
▁jersey	-8.6918
▁right	-8.69243
▁cup	-8.69653
▁Women	-8.7023
▁station	-8.70245
▁nearby	-8.70293
▁place	-8.70417
▁mountains	-8.70449
▁filled	-8.70565
▁apron	-8.70642
▁pick	-8.71394
▁Frisbee	-8.71702
▁buildings	-8.71775
▁driving	-8.71828
▁pile	-8.72118
▁Group	-8.73192
▁leaves	-8.73242
▁mother	-8.73251
▁shore	-8.73363
▁display	-8.73474
ng	-8.73507
▁structure	-8.73632
▁cigarette	-8.73645
▁fruit	-8.73657
▁bottle	-8.73664
▁smile	-8.73703
▁door	-8.73792
▁friends	-8.73818
▁bowling	-8.74085
▁fix	-8.7411
▁boots	-8.7473
▁horses	-8.75107
▁snowboarder	-8.75186
▁vendor	-8.7519
▁shovel	-8.75192
▁art	-8.75233
▁B	-8.7547
▁parked	-8.76074
▁star	-8.76213
▁Person	-8.76246
▁goggles	-8.76262
▁net	-8.76328
▁stop	-8.76752
▁vehicle	-8.76756
▁skateboarder	-8.76868
▁carrie	-8.77013
▁concert	-8.7781
▁no	-8.78092
▁painted	-8.78139
▁du	-8.78339
▁drums	-8.78423
▁talks	-8.78707
▁coffee	-8.79396
▁smoking	-8.79469
▁break	-8.79596
▁flying	-8.79829
▁shot	-8.7988
▁eyes	-8.79903
▁newspaper	-8.79951
▁paint	-8.79995
▁time	-8.80085
▁dresses	-8.80133
▁gather	-8.80256
▁rocky	-8.80263
▁com	-8.80722
▁bowl	-8.80772
▁cars	-8.80902
▁safety	-8.81008
▁conversation	-8.81012
▁roof	-8.81021
▁bunch	-8.81049
ittle	-8.81558
▁box	-8.81582
▁bucket	-8.81601
▁bull	-8.8176
▁M	-8.82059
▁flags	-8.82468
▁gentleman	-8.8265
▁spectators	-8.82684
▁meal	-8.82685
▁arts	-8.82715
▁practicing	-8.82722
▁can	-8.8285
▁bicyclist	-8.82942
▁gloves	-8.82974
▁younger	-8.83016
▁waves	-8.83031
▁swinging	-8.8313
rying	-8.83193
▁ladder	-8.83227
w	-8.83234
▁wait	-8.83745
▁Old	-8.84038
▁empty	-8.84315
▁competition	-8.84317
▁different	-8.84319
▁costumes	-8.8448
▁listening	-8.84517
man	-8.84649
▁blanket	-8.84949
▁opposi	-8.85271
▁turn	-8.85476
▁m	-8.8555
▁check	-8.85755
r	-8.85963
▁ski	-8.86082
▁scene	-8.86096
▁giv	-8.8611
▁cake	-8.86189
▁items	-8.86308
▁sort	-8.8664
▁bikini	-8.8665
▁desk	-8.8666
▁surfer	-8.86671
▁balloon	-8.86685
▁mask	-8.86749
▁th	-8.87276
his	-8.8743
▁audience	-8.87734
▁lawn	-8.87735
▁put	-8.8813
▁chas	-8.88593
▁skateboarding	-8.888
▁parking	-8.88965
▁railing	-8.89392
▁rodeo	-8.8949
▁Someone	-8.89507
▁Indian	-8.89515
▁onlookers	-8.89559
ers	-8.89672
▁among	-8.89689
▁Girl	-8.90211
▁leaps	-8.9029
▁C	-8.90318
▁jackets	-8.9067
fore	-8.90735
▁drinks	-8.91172
out	-8.91185
▁vegetables	-8.91575
▁pointing	-8.91586
▁hot	-8.91659
▁class	-8.91682
▁slid	-8.91822
▁cut	-8.91915
▁basket	-8.91953
▁surfboard	-8.92005
▁tattoo	-8.92034
▁flip	-8.92152
m	-8.92224
▁do	-8.92296
▁gathering	-8.92382
lying	-8.92495
▁rail	-8.92947
▁bicycles	-8.93036
▁feet	-8.93119
▁collar	-8.93203
▁facing	-8.93238
▁wet	-8.9325
▁help	-8.9328
▁cement	-8.93411
▁platform	-8.93804
▁sports	-8.93833
▁bird	-8.93941
▁biker	-8.9444
▁there	-8.94479
▁silver	-8.9494
▁wedding	-8.94955
▁competing	-8.95004
▁gold	-8.95007
▁speaking	-8.9559
▁tie	-8.95599
▁new	-8.95737
▁purse	-8.95826
▁P	-8.95855
▁pla	-8.95871
▁tradition	-8.96831
▁classroom	-8.96832
▁counter	-8.96848
▁huge	-8.9693
▁business	-8.9699
ment	-8.97215
▁base	-8.97431
▁suits	-8.97519
aking	-8.98156
se	-8.98248
le	-8.98307
l	-8.98598
▁helmets	-8.98712
▁lift	-8.98925
▁students	-8.99199
▁sings	-8.99306
▁surfing	-8.99389
▁climbs	-8.99656
▁animal	-8.99657
ix	-8.99784
▁lap	-9.00363
▁teams	-9.00463
▁mirror	-9.0071
▁military	-9.00717
▁bride	-9.00765
▁wash	-9.00916
▁alley	-9.00926
▁kissing	-9.01272
▁roll	-9.01618
▁stroller	-9.01657
tting	-9.02162
▁leap	-9.02555
▁screen	-9.02612
▁violin	-9.02704
▁walkway	-9.02752
▁writing	-9.02821
▁same	-9.02846
▁fighting	-9.03434
uses	-9.03613
▁shoulder	-9.037
▁skier	-9.04012
▁artist	-9.0406
▁fe	-9.04166
▁v	-9.04374
▁talk	-9.04621
▁sunset	-9.04756
▁electric	-9.0476
▁country	-9.05179
▁plai	-9.05375
▁runner	-9.05785
▁c	-9.05798
arious	-9.0598
▁waits	-9.06236
en	-9.06391
▁barefoot	-9.06836
▁waving	-9.06969
▁spray	-9.0716
▁wheel	-9.07939
▁close	-9.08589
▁row	-9.08863
king	-9.0895
▁marathon	-9.08966
▁lit	-9.09036
▁seen	-9.09338
▁females	-9.09851
▁officer	-9.10143
▁scooter	-9.10196
▁leg	-9.10197
▁foot	-9.11029
▁father	-9.11167
▁course	-9.11198
▁says	-9.11307
▁bubbles	-9.11662
▁blowing	-9.11816
tries	-9.11898
▁outfits	-9.12105
▁give	-9.12248
▁bald	-9.12465
top	-9.12954
▁hole	-9.12998
urban	-9.13077
▁sell	-9.13157
▁ma	-9.13187
▁son	-9.13267
▁life	-9.13334
▁leather	-9.13363
▁happy	-9.13369
▁meat	-9.13435
▁skating	-9.13778
▁signs	-9.13987
▁skate	-9.1431
▁swim	-9.14541
▁makes	-9.14685
▁balloons	-9.1473
▁end	-9.15059
▁Construction	-9.15632
▁foreground	-9.15634
▁alone	-9.15903
▁brightly	-9.15949
ous	-9.15954
▁five	-9.1599
▁musicians	-9.1621
▁helping	-9.16779
▁In	-9.1678
▁fun	-9.16877
▁canoe	-9.16879
▁clown	-9.16882
▁lights	-9.16921
▁plate	-9.16993
▁drive	-9.17248
▁hang	-9.17686
▁mud	-9.17793
▁desert	-9.17962
▁headphones	-9.17977
▁float	-9.17977
▁gym	-9.18054
▁asleep	-9.18099
▁goal	-9.18276
▁made	-9.1886
▁umbrellas	-9.19012
▁legs	-9.19053
▁sport	-9.19843
▁bat	-9.19969
▁brush	-9.20275
▁leash	-9.2029
▁office	-9.20297
▁video	-9.20331
▁stadium	-9.20334
▁doorway	-9.20344
▁diving	-9.20419
▁sandals	-9.20439
▁well	-9.20505
▁streets	-9.20562
▁site	-9.20635
▁musical	-9.20742
▁tire	-9.2125
▁w	-9.21565
▁roller	-9.21698
ty	-9.21739
▁faces	-9.22624
▁tables	-9.22701
▁photograph	-9.22731
▁accordion	-9.22774
▁stuff	-9.22782
▁multicolored	-9.22813
▁golf	-9.2282
▁speak	-9.23081
▁cat	-9.23334
▁falling	-9.23552
▁swings	-9.23765
▁sticks	-9.23922
▁officers	-9.23973
▁photographer	-9.24198
▁laptop	-9.24214
▁drawing	-9.24475
▁way	-9.24679
▁sh	-9.25161
▁un	-9.25181
▁teenage	-9.25203
▁church	-9.25272
▁shallow	-9.25272
▁traffic	-9.25275
▁performance	-9.25284
▁Worker	-9.25609
re	-9.25625
▁climb	-9.25647
▁van	-9.26315
▁kayak	-9.26738
▁skiing	-9.26856
▁project	-9.27815
▁digging	-9.27837
▁below	-9.27874
▁pond	-9.2802
▁toys	-9.28171
▁sled	-9.28287
▁hammer	-9.28293
up	-9.28354
te	-9.28805
▁microscope	-9.29369
▁garden	-9.29462
▁heads	-9.29508
▁friend	-9.29648
▁tunnel	-9.30467
▁hoodie	-9.30484
▁hugging	-9.30508
▁upside	-9.30701
▁passes	-9.30717
▁relaxing	-9.30973
▁block	-9.31279
▁drum	-9.316
▁stunt	-9.32079
ying	-9.32137
▁cloud	-9.3222
▁Christmas	-9.3317
▁beige	-9.3317
▁Chinese	-9.3317
▁brunette	-9.3318
▁sleeps	-9.33424
▁move	-9.33533
▁sweeping	-9.33566
▁su	-9.33648
▁includ	-9.3394
▁dancers	-9.33995
▁sculpture	-9.34854
▁singer	-9.34855
▁hose	-9.34877
▁males	-9.3493
ding	-9.35014
▁daughter	-9.35069
▁blow	-9.35166
ew	-9.35452
▁O	-9.35574
▁Guy	-9.35944
▁Black	-9.35946
▁telescope	-9.35947
▁teeth	-9.3595
▁flies	-9.35991
▁conversing	-9.35999
▁cafe	-9.36012
▁lone	-9.36222
▁trunks	-9.36353
▁G	-9.36868
▁resting	-9.36876
g	-9.37081
▁pour	-9.37717
▁chef	-9.37822
▁mat	-9.37899
▁eat	-9.38216
▁shoe	-9.38295
▁use	-9.38304
▁inspect	-9.38549
▁pier	-9.38642
▁karate	-9.38801
▁jogging	-9.38802
▁racket	-9.38807
▁underneath	-9.38817
▁mural	-9.38832
▁wrestling	-9.38865
▁cold	-9.38874
▁start	-9.38987
▁splashing	-9.39174
▁shav	-9.39194
nny	-9.3923
▁held	-9.39232
▁town	-9.39245
▁points	-9.39349
▁st	-9.39627
▁plants	-9.39681
▁mid	-9.39718
▁gun	-9.39771
▁o	-9.39794
▁stack	-9.40151
▁how	-9.40412
▁seem	-9.40808
▁balance	-9.4109
▁cane	-9.41233
▁plant	-9.41321
board	-9.41435
▁straw	-9.41488
▁stroll	-9.41675
▁hula	-9.4174
▁themselves	-9.41744
▁image	-9.41745
▁curly	-9.41766
▁cloth	-9.41772
ids	-9.41843
▁D	-9.41912
▁string	-9.41945
ant	-9.42561
▁coats	-9.4271
▁card	-9.42887
▁h	-9.42919
▁shoulders	-9.43289
ign	-9.43602
▁hiker	-9.4375
▁cyclist	-9.43819
▁mov	-9.44646
▁stream	-9.44647
▁picnic	-9.44771
▁dinner	-9.44772
▁carnival	-9.44773
▁trampoline	-9.44774
▁wetsuit	-9.44778
▁crosswalk	-9.4478
▁produce	-9.44782
▁kind	-9.44789
▁heavy	-9.44801
▁makeup	-9.44811
▁deck	-9.44985
▁crying	-9.45021
th	-9.45088
▁deep	-9.45133
▁wooded	-9.4541
▁individuals	-9.45451
▁taken	-9.45494
▁knee	-9.45851
▁gate	-9.45933
ish	-9.46244
mall	-9.46389
▁infant	-9.4675
▁surf	-9.46837
▁nose	-9.4684
▁fall	-9.46967
▁performer	-9.47082
▁print	-9.47087
▁kiss	-9.47202
▁finish	-9.47301
▁slope	-9.47309
or	-9.47743
▁lab	-9.47817
▁trash	-9.47896
▁surface	-9.47897
▁professional	-9.47899
▁center	-9.47899
▁nice	-9.47904
▁Dog	-9.47914
▁sewing	-9.48005
▁driver	-9.48196
▁formal	-9.48263
▁closed	-9.48287
▁practice	-9.48402
▁members	-9.48432
▁covering	-9.48681
▁tricks	-9.48845
▁ge	-9.49074
▁mix	-9.49826
▁button	-9.49909
▁cow	-9.49916
▁fight	-9.49955
▁square	-9.49998
▁booth	-9.50083
▁chase	-9.50097
▁nap	-9.50099
▁circle	-9.50156
less	-9.50685
▁lead	-9.50859
▁blouse	-9.5112
▁balcony	-9.51121
▁himself	-9.51122
▁softball	-9.51123
▁third	-9.51128
▁lunch	-9.51179
▁speed	-9.51246
▁dances	-9.52015
▁sea	-9.52172
k	-9.52456
i	-9.52526
▁device	-9.53348
▁athlete	-9.53389
▁log	-9.53412
▁neck	-9.53507
▁eye	-9.5374
▁pot	-9.53762
▁robe	-9.53825
▁indoor	-9.53924
▁balls	-9.54147
hiking	-9.54236
▁opening	-9.54449
▁staircase	-9.54455
▁festival	-9.54456
▁steep	-9.54515
▁load	-9.54579
▁boxes	-9.54632
▁balanc	-9.55254
▁see	-9.55682
▁most	-9.55703
▁gi	-9.55764
▁lay	-9.56343
▁skis	-9.56762
▁repair	-9.56832
▁rest	-9.56877
ical	-9.57279
▁frame	-9.57712
▁gymnast	-9.57897
▁grocery	-9.57901
▁puddle	-9.57904
▁fresh	-9.57908
▁fallen	-9.5792
▁garb	-9.5795
covered	-9.58094
▁overalls	-9.58304
▁not	-9.58335
▁round	-9.58437
A	-9.58541
ic	-9.58591
▁paved	-9.5875
▁swims	-9.59562
▁travel	-9.60095
▁waterfall	-9.60241
▁pitcher	-9.60385
▁jean	-9.60389
▁guard	-9.60403
▁sheet	-9.60421
▁dancer	-9.60705
▁chain	-9.60938
▁H	-9.61231
▁curb	-9.61468
▁laundry	-9.61471
▁porch	-9.61472
▁gentlemen	-9.61473
▁airplane	-9.61477
▁ledge	-9.61537
▁flight	-9.61548
▁figure	-9.61675
▁stool	-9.61685
▁marching	-9.61819
▁customers	-9.61973
▁fingers	-9.6212
▁fan	-9.62228
▁climber	-9.62279
▁fair	-9.62474
▁grind	-9.62484
▁teenagers	-9.6252
at	-9.62596
▁robes	-9.62598
▁l	-9.6265
▁hikers	-9.62739
ight	-9.63142
▁books	-9.63494
▁birds	-9.63532
and	-9.63548
▁hoop	-9.63637
▁laugh	-9.63815
▁podium	-9.63924
▁sale	-9.64025
▁khaki	-9.64092
▁clear	-9.64186
▁teenager	-9.6421
▁present	-9.64246
▁snowboard	-9.645
ping	-9.6469
▁E	-9.64925
▁I	-9.65135
▁piano	-9.65173
▁backyard	-9.65187
▁polo	-9.65192
▁kicks	-9.65207
▁golden	-9.65212
▁Here	-9.65215
▁attached	-9.65221
▁paddling	-9.65246
▁evening	-9.65582
▁arena	-9.65768
men	-9.65936
▁shooting	-9.65984
▁colors	-9.66313
▁pitch	-9.66604
▁blocks	-9.66637
▁tracks	-9.6681
▁bend	-9.66897
▁raft	-9.66929
▁ship	-9.66941
▁pair	-9.6696
▁part	-9.66985
▁R	-9.6702
▁crouche	-9.67443
▁tongue	-9.67764
▁mound	-9.67796
▁saxophone	-9.67835
▁keyboard	-9.67838
▁wheelchair	-9.6791
▁poster	-9.67953
▁re	-9.6796
▁windows	-9.68709
▁New	-9.68887
S	-9.6892
▁denim	-9.69017
▁fabric	-9.69019
▁Child	-9.6902
▁position	-9.6902
▁luggage	-9.6902
▁pavement	-9.6902
▁camouflage	-9.69021
▁inflatable	-9.69021
▁warm	-9.69046
artial	-9.69102
▁wine	-9.6941
side	-9.69611
▁poles	-9.69639
▁tile	-9.69729
▁cones	-9.69777
▁W	-9.70025
▁fenced	-9.70196
▁shade	-9.7022
▁fore	-9.70264
▁cook	-9.70449
▁ear	-9.70654
ree	-9.7089
▁seat	-9.70924
▁ne	-9.71231
▁hurdle	-9.71834
▁feed	-9.71901
▁bottom	-9.71908
▁swimsuit	-9.71941
ian	-9.72036
▁tractor	-9.73018
▁married	-9.73021
▁courtyard	-9.73023
▁railroad	-9.73023
▁referee	-9.73025
▁goalie	-9.73027
▁juggling	-9.73148
▁chest	-9.73219
▁compete	-9.73257
▁landscape	-9.73278
▁post	-9.73365
like	-9.73704
▁buying	-9.73725
▁examin	-9.73769
▁waters	-9.73974
▁laughs	-9.742
▁dust	-9.74334
▁discuss	-9.74395
merican	-9.74417
▁fill	-9.74869
▁name	-9.75134
ge	-9.75175
▁low	-9.75297
▁eats	-9.75331
▁tub	-9.75727
▁bandanna	-9.759
it	-9.75972
▁towel	-9.76063
▁soldier	-9.76102
▁musician	-9.76147
▁skirts	-9.76559
▁type	-9.7672
▁record	-9.77095
lays	-9.77115
▁casual	-9.77167
▁happily	-9.77167
▁carriage	-9.7717
▁garbage	-9.77173
▁Santa	-9.77174
▁marketplace	-9.77188
▁carpet	-9.77189
▁club	-9.77191
▁adjust	-9.772
▁Male	-9.77213
▁pajamas	-9.77241
▁socks	-9.77292
▁suspende	-9.7734
▁bucking	-9.77346
▁backwards	-9.77417
▁bread	-9.77447
▁wind	-9.77517
▁scaffolding	-9.77675
▁you	-9.77741
▁cheering	-9.77853
▁goods	-9.78
▁touching	-9.78038
▁tools	-9.78169
▁soldiers	-9.78243
▁step	-9.783
▁pin	-9.78426
▁shown	-9.78622
skinn	-9.78813
▁moves	-9.78916
▁shoot	-9.78927
▁motorcycles	-9.79031
▁mustache	-9.79422
▁i	-9.79758
▁escalator	-9.80243
▁flo	-9.80269
▁jerseys	-9.80294
▁advertisement	-9.80408
▁magazine	-9.80431
▁groom	-9.80452
▁direction	-9.80455
▁bubble	-9.80479
▁riders	-9.80496
rient	-9.80538
ent	-9.80579
▁dry	-9.80588
▁touch	-9.80976
▁sheep	-9.81464
▁plane	-9.81472
▁live	-9.81495
▁athletic	-9.81514
▁frisbee	-9.81514
▁obstacle	-9.81514
▁model	-9.81515
▁German	-9.81515
▁plaza	-9.81517
▁rugby	-9.81518
▁caught	-9.81519
▁airport	-9.8152
▁White	-9.81521
▁fly	-9.81533
▁stove	-9.81534
▁dining	-9.81549
ll	-9.81559
▁underwater	-9.81572
▁living	-9.81573
▁serving	-9.81612
▁welding	-9.81613
sleeved	-9.81636
▁teacher	-9.81637
▁peace	-9.81652
▁coach	-9.81784
▁six	-9.81884
▁harness	-9.81931
▁raised	-9.82065
▁fans	-9.82408
ustic	-9.82431
▁de	-9.82571
▁decorat	-9.82576
▁hay	-9.82601
lies	-9.82754
▁peer	-9.83606
ion	-9.83681
▁animals	-9.83918
▁so	-9.84275
▁map	-9.84438
▁participat	-9.84648
▁paints	-9.84714
▁pipe	-9.84988
▁student	-9.84997
▁pack	-9.85102
▁tube	-9.85399
▁shape	-9.85475
age	-9.85652
▁wi	-9.85676
▁polka	-9.8606
▁York	-9.8606
▁jockey	-9.8606
▁native	-9.86062
▁haircut	-9.86063
▁gravel	-9.86065
▁moto	-9.86108
▁hood	-9.86252
▁operating	-9.86323
▁direct	-9.8637
▁hooded	-9.86429
▁observe	-9.86434
▁backpacks	-9.87074
▁motor	-9.871
▁barbecue	-9.87356
▁thrown	-9.87554
way	-9.87659
▁fl	-9.87878
▁cover	-9.87951
▁runners	-9.88428
▁boats	-9.88517
fully	-9.88817
line	-9.8912
▁hi	-9.89221
▁shin	-9.89364
▁grilling	-9.89439
▁wagon	-9.89547
▁come	-9.89562
▁opponent	-9.89689
▁individual	-9.89757
▁overlook	-9.89791
▁farm	-9.90004
▁wire	-9.90106
▁bare	-9.90281
▁cone	-9.90289
x	-9.90352
▁we	-9.90535
▁walls	-9.90594
▁jungle	-9.90822
▁studio	-9.90822
▁garage	-9.90824
▁orchestra	-9.90824
▁presentation	-9.90825
▁hallway	-9.90826
▁bathroom	-9.90827
▁headscarf	-9.90828
▁ru	-9.90848
▁candy	-9.90854
▁youth	-9.90863
▁wide	-9.90904
▁sink	-9.90907
▁heels	-9.90969
▁money	-9.90971
▁mom	-9.90973
▁checkered	-9.90988
▁spread	-9.9101
▁approach	-9.91044
▁things	-9.91049
▁pedestrians	-9.91077
▁redhead	-9.91098
▁raise	-9.91168
▁pro	-9.91173
▁pit	-9.91275
▁fast	-9.91602
▁mudd	-9.91774
▁sleeve	-9.91947
▁benches	-9.92169
▁kite	-9.92323
▁seve	-9.92351
▁grab	-9.92791
▁cyclists	-9.92815
▁wa	-9.92848
▁photographs	-9.92997
et	-9.93021
▁shak	-9.93193
▁ba	-9.93281
shirts	-9.93378
amp	-9.93933
▁saw	-9.94042
▁vehicles	-9.94156
▁ring	-9.94209
down	-9.9423
▁interact	-9.94292
2	-9.94333
▁amuse	-9.9453
▁drummer	-9.94539
▁jumpsuit	-9.9473
arrow	-9.95046
▁pushe	-9.95173
▁tool	-9.95304
▁action	-9.9547
▁but	-9.95539
▁racer	-9.95702
▁entrance	-9.95822
▁ceiling	-9.95822
▁patio	-9.95823
▁speech	-9.95824
▁Brown	-9.95826
▁racetrack	-9.9583
▁machinery	-9.95844
▁leaf	-9.95861
▁puck	-9.95926
▁container	-9.95959
▁pattern	-9.95966
▁summer	-9.95988
▁r	-9.96027
▁ropes	-9.96037
▁land	-9.96075
▁policeman	-9.9613
▁co	-9.96399
▁passengers	-9.96574
▁point	-9.96593
▁sword	-9.96604
▁sets	-9.96609
▁sha	-9.96799
cuba	-9.96964
▁n	-9.97217
▁snowboarding	-9.97252
▁protecti	-9.97278
▁color	-9.97512
rtial	-9.97647
▁rests	-9.97802
▁ears	-9.98078
▁sack	-9.98143
ked	-9.98204
▁design	-9.98491
▁read	-9.986
▁al	-9.99052
▁dive	-9.99177
ful	-9.99245
▁fruits	-9.9943
ill	-9.99629
▁routine	-9.99797
▁trumpet	-9.99884
▁beverage	-10.0001
▁bow	-10.0004
▁glove	-10.0005
▁good	-10.0008
▁smoke	-10.0009
▁examine	-10.0013
▁beam	-10.0014
▁craft	-10.0019
▁aco	-10.0019
▁lane	-10.0023
▁bear	-10.0056
▁buy	-10.006
▁rowing	-10.006
▁cleans	-10.009
ned	-10.0094
▁tag	-10.0097
▁sandwich	-10.0098
▁museum	-10.0108
▁donkey	-10.0109
▁intersection	-10.0109
▁ornate	-10.0109
▁Blond	-10.0109
▁Crowd	-10.0109
▁herself	-10.0109
▁hospital	-10.0109
▁boardwalk	-10.011
▁possibly	-10.011
▁horseback	-10.0111
▁discussion	-10.0112
▁heart	-10.0112
▁stopped	-10.0112
▁hillside	-10.0117
▁bushes	-10.0117
▁half	-10.0119
▁flipp	-10.0123
▁drill	-10.0124
▁relax	-10.0125
▁enter	-10.0128
▁african	-10.0131
▁batter	-10.0141
▁hall	-10.0141
▁song	-10.0143
▁keep	-10.015
▁wrestler	-10.016
▁spinn	-10.0187
▁tops	-10.021
ies	-10.0214
ped	-10.0287
▁participate	-10.0335
▁cheer	-10.0404
▁bikers	-10.044
▁rough	-10.0448
▁baskets	-10.0449
▁stra	-10.0453
▁catche	-10.0486
u	-10.0496
▁medic	-10.0508
▁form	-10.0508
▁free	-10.0516
▁AT	-10.0521
▁skateboards	-10.0524
▁marti	-10.0532
▁slides	-10.0554
▁protest	-10.0555
▁motorcyclist	-10.0556
▁dune	-10.0574
nd	-10.0651
▁duck	-10.0659
▁silhouette	-10.0664
▁maroon	-10.0664
▁village	-10.0664
▁neighborhood	-10.0664
▁cobble	-10.0664
▁taxi	-10.0665
▁puppy	-10.0665
▁patient	-10.0666
▁firetruck	-10.0667
▁celebrating	-10.0667
▁outstretched	-10.0667
▁film	-10.0669
▁squatting	-10.067
▁great	-10.067
▁dishes	-10.0672
▁leav	-10.0676
▁fencing	-10.0676
▁clay	-10.068
▁dig	-10.068
rubber	-10.0689
▁handstand	-10.0699
C	-10.0701
apan	-10.0705
▁wrappe	-10.0725
▁farmer	-10.0769
▁engage	-10.0775
▁ha	-10.0797
▁bro	-10.0816
▁attend	-10.0817
▁vari	-10.0823
▁seats	-10.0831
▁multi	-10.0847
chases	-10.0905
▁sta	-10.0916
▁indoors	-10.0922
▁involv	-10.0938
▁pan	-10.0954
▁mall	-10.0977
▁skates	-10.0981
ither	-10.1023
▁buckets	-10.1036
▁bottles	-10.1066
iant	-10.1071
p	-10.1073
▁protect	-10.1093
▁nav	-10.11
arge	-10.1134
▁doctor	-10.114
▁pen	-10.1141
▁guitarist	-10.1143
▁swimmer	-10.1145
▁belt	-10.1146
▁finger	-10.1147
▁storefront	-10.1148
▁item	-10.1149
▁broom	-10.1152
alm	-10.1181
▁order	-10.1191
born	-10.1196
▁sing	-10.1208
ity	-10.1213
▁wrestle	-10.1224
▁si	-10.1251
▁chalk	-10.1251
▁ballerina	-10.1252
▁cricket	-10.1252
▁calf	-10.1253
▁wife	-10.1253
▁choir	-10.1253
▁Street	-10.1253
▁sofa	-10.1253
▁scenery	-10.1254
flops	-10.1254
▁moment	-10.1255
▁St	-10.1255
▁dreadlocks	-10.1256
▁crew	-10.1269
ple	-10.1269
▁iron	-10.1277
▁stretching	-10.1282
▁newly	-10.1283
▁per	-10.1283
▁carving	-10.1287
▁first	-10.1289
▁odd	-10.1291
▁cheerleaders	-10.1296
▁stripes	-10.1314
▁crouching	-10.1318
▁dish	-10.1319
lly	-10.132
▁stares	-10.1326
▁ahead	-10.1338
rs	-10.1342
▁hugs	-10.1346
▁rink	-10.1354
▁Lad	-10.1363
leans	-10.1363
▁crafts	-10.1367
▁smokes	-10.1371
▁gas	-10.1387
▁amid	-10.1397
▁ta	-10.1403
▁stones	-10.1403
▁coloring	-10.1429
▁bite	-10.1429
▁receiv	-10.1457
cy	-10.1465
▁bu	-10.1481
▁knit	-10.1558
▁guitars	-10.1591
▁splashe	-10.1591
▁wrap	-10.16
▁paddle	-10.1601
▁tattoos	-10.161
▁boxing	-10.1625
▁doll	-10.1629
stone	-10.163
▁pet	-10.1636
▁bowls	-10.1654
▁apartment	-10.1668
▁style	-10.1693
ist	-10.1712
▁bit	-10.1722
▁mop	-10.1753
▁lamp	-10.1759
▁motorbike	-10.1764
▁banner	-10.1767
▁barrel	-10.1768
▁snack	-10.1768
▁draw	-10.1768
▁vegetable	-10.177
▁lo	-10.1788
▁member	-10.1789
▁sweep	-10.1789
▁gymnasium	-10.1877
▁liquid	-10.1877
▁material	-10.1877
▁library	-10.1877
▁conference	-10.1877
▁derby	-10.1877
▁Middle	-10.1877
▁unicycle	-10.1877
▁furniture	-10.1877
▁partially	-10.1878
▁similar	-10.1878
▁BM	-10.1878
▁branch	-10.1878
▁stairway	-10.1878
▁crane	-10.1878
▁greyhound	-10.1878
▁dimly	-10.1878
▁nighttime	-10.1878
▁intently	-10.1879
▁angel	-10.1879
▁castle	-10.188
▁dead	-10.188
▁calm	-10.1881
▁barber	-10.1883
▁moped	-10.1894
▁tower	-10.1902
▁microphones	-10.1907
▁pigeons	-10.1916
▁space	-10.192
om	-10.1923
irthday	-10.193
▁rais	-10.1941
▁la	-10.1942
ning	-10.1943
ar	-10.1943
▁candles	-10.1944
▁tied	-10.1954
ken	-10.1954
▁listens	-10.1964
▁following	-10.1967
▁trailer	-10.197
▁muzzle	-10.1984
b	-10.1999
▁tackle	-10.2023
ling	-10.2043
▁bars	-10.2044
▁lounge	-10.2054
uff	-10.207
▁pieces	-10.209
ggy	-10.2108
pped	-10.2117
▁cast	-10.2123
▁share	-10.2142
▁control	-10.2148
gets	-10.215
▁balding	-10.2177
nding	-10.2213
▁wheels	-10.2219
▁admir	-10.2242
▁Girls	-10.2265
▁bass	-10.2272
stern	-10.2316
▁loung	-10.2361
▁fa	-10.2362
▁act	-10.2379
▁spoon	-10.2417
▁electronic	-10.2427
▁headband	-10.243
▁elephant	-10.243
▁ribbon	-10.2432
▁necklace	-10.2433
▁teammate	-10.2434
one	-10.2438
▁doors	-10.2449
red	-10.2457
▁horn	-10.2463
▁computers	-10.2475
▁cla	-10.2484
▁viewing	-10.2487
f	-10.2503
▁colle	-10.2531
▁surrounding	-10.2535
▁advertising	-10.2544
▁stomach	-10.2544
▁jewelry	-10.2544
▁billboard	-10.2544
▁rainbow	-10.2544
▁television	-10.2545
▁modern	-10.2545
▁flute	-10.2546
▁return	-10.2546
▁bundle	-10.2547
▁mobile	-10.2551
▁lines	-10.2551
▁forward	-10.2551
ttle	-10.2551
▁called	-10.2554
▁observing	-10.2557
▁corn	-10.2565
▁converse	-10.2566
▁learn	-10.257
▁tee	-10.2588
▁fireman	-10.2588
▁visit	-10.2592
▁chew	-10.2592
▁objects	-10.2594
▁crosses	-10.2595
▁exit	-10.2599
▁catcher	-10.2605
▁wild	-10.2621
▁follows	-10.2647
▁pine	-10.266
aring	-10.2682
▁cape	-10.2686
led	-10.2687
▁serve	-10.2689
▁directions	-10.2713
▁theater	-10.2723
▁shades	-10.2727
ial	-10.2754
sleeve	-10.2761
▁cop	-10.2769
▁got	-10.2774
▁peek	-10.2781
neath	-10.2792
▁hoops	-10.28
▁N	-10.2806
▁plates	-10.2846
ted	-10.286
go	-10.2877
▁na	-10.2904
▁shake	-10.292
ries	-10.2944
ts	-10.2953
the	-10.2959
▁turns	-10.2973
▁nets	-10.2995
▁shovels	-10.3027
▁follow	-10.3048
▁lick	-10.3065
▁thin	-10.3083
▁ben	-10.3099
of	-10.3129
▁gift	-10.3139
tered	-10.3146
▁sprinkler	-10.315
▁pillow	-10.3151
▁passenger	-10.3151
▁trunk	-10.3152
▁camel	-10.3157
ious	-10.3162
▁apple	-10.3188
▁whil	-10.3196
▁tug	-10.3242
▁Caucasian	-10.3258
▁Cheerleaders	-10.3258
▁London	-10.3258
▁wheelbarrow	-10.3258
▁Multip	-10.3258
▁engine	-10.3258
▁job	-10.3259
▁consist	-10.3259
▁airborne	-10.3259
▁steel	-10.3259
▁ponytail	-10.3259
▁terrain	-10.3259
▁formation	-10.3259
▁slightly	-10.3259
▁fisherman	-10.3259
▁downtown	-10.326
▁contain	-10.326
▁pottery	-10.3261
▁pizza	-10.3261
▁aisle	-10.3263
▁binoculars	-10.3263
▁weaving	-10.3263
▁scoop	-10.3267
▁excited	-10.3267
▁closeup	-10.3268
▁dough	-10.3269
▁kilt	-10.3272
▁loca	-10.3272
▁cool	-10.3276
▁Students	-10.3279
▁nature	-10.328
▁patch	-10.3282
▁flu	-10.3283
▁poor	-10.3284
▁plac	-10.3292
▁complete	-10.3297
▁feather	-10.3298
▁reflecti	-10.331
occer	-10.3313
▁far	-10.3326
▁photographed	-10.3332
▁size	-10.3348
▁tourists	-10.3351
nt	-10.338
▁protesting	-10.339
▁guns	-10.3399
ard	-10.3426
▁photos	-10.3429
▁hike	-10.3429
▁me	-10.3431
▁teen	-10.3442
pping	-10.3451
▁repairs	-10.3488
able	-10.3507
▁po	-10.351
▁chefs	-10.3534
▁Li	-10.3538
ally	-10.3543
▁ho	-10.355
▁ethnic	-10.3566
▁papers	-10.3568
▁funn	-10.361
▁fur	-10.3642
▁pe	-10.3658
▁tea	-10.3702
weight	-10.3719
▁camp	-10.3726
▁lin	-10.3732
ary	-10.3749
▁tend	-10.3755
▁City	-10.3765
▁pa	-10.3773
▁bi	-10.3809
▁hug	-10.3812
▁teach	-10.382
▁backs	-10.3827
▁training	-10.3828
▁tents	-10.3846
so	-10.3846
folding	-10.3849
▁fetch	-10.3861
▁bounc	-10.3877
▁barrier	-10.3915
▁customer	-10.3921
▁shadow	-10.3921
il	-10.3923
ure	-10.393
▁official	-10.3938
▁entertain	-10.3947
onto	-10.3995
▁tape	-10.4023
▁jet	-10.4024
▁exhibit	-10.4027
▁burgundy	-10.4027
▁debris	-10.4027
▁groceries	-10.4027
▁rickshaw	-10.4027
▁sniff	-10.4027
▁Europe	-10.4028
▁chainsaw	-10.4028
▁Elder	-10.4028
▁crawl	-10.4028
▁dusk	-10.4028
▁attention	-10.4029
▁spotted	-10.4031
▁coaster	-10.4032
▁bleachers	-10.4033
▁sneakers	-10.4033
▁trop	-10.4034
▁lecture	-10.4034
▁ceremony	-10.4036
▁messy	-10.404
▁was	-10.4041
▁overhead	-10.4045
▁studying	-10.4048
▁telephone	-10.4048
▁We	-10.4048
▁score	-10.4048
▁factory	-10.4048
▁mug	-10.4049
ate	-10.4051
▁loom	-10.4054
▁machines	-10.4068
science	-10.4069
▁oven	-10.4075
▁wings	-10.4076
▁waterway	-10.4077
▁waterfront	-10.4089
▁dunk	-10.4092
▁gestures	-10.4093
▁movie	-10.4106
▁meeting	-10.4106
▁eggs	-10.4109
aving	-10.4112
▁firefighters	-10.4122
ky	-10.4143
▁praying	-10.4155
▁swimmers	-10.4171
▁landing	-10.4178
ke	-10.4181
ance	-10.4186
▁operate	-10.42
▁houses	-10.4202
▁observes	-10.421
▁bin	-10.4219
▁tur	-10.4225
▁create	-10.4238
▁pu	-10.4291
▁shops	-10.4307
cular	-10.4317
▁careful	-10.4324
▁strap	-10.4327
▁tires	-10.4329
ie	-10.4346
▁stor	-10.4371
▁laptops	-10.4373
anie	-10.4385
▁bik	-10.4394
ake	-10.4398
▁pret	-10.4414
ese	-10.4424
D	-10.4434
cal	-10.4445
▁cr	-10.4471
▁caps	-10.4474
▁flips	-10.4526
▁dis	-10.4536
made	-10.4547
▁pl	-10.4556
▁bound	-10.4578
▁brows	-10.4595
▁lower	-10.4602
▁cups	-10.4604
▁listen	-10.4643
lit	-10.4657
ite	-10.4664
wood	-10.4725
▁exercise	-10.4728
▁target	-10.4729
▁snowsuit	-10.4735
▁boulder	-10.4742
▁chicken	-10.4744
▁suitcase	-10.4747
▁tourist	-10.4753
▁scaffold	-10.4762
▁begin	-10.4764
▁meet	-10.4791
▁focus	-10.4795
▁wrapp	-10.4823
more	-10.4854
▁process	-10.486
▁bamboo	-10.4861
▁experiment	-10.4861
▁knife	-10.4861
▁merchandise	-10.4861
▁monument	-10.4861
▁second	-10.4861
▁umpire	-10.4861
▁banjo	-10.4861
▁unique	-10.4861
▁yoga	-10.4861
▁celebration	-10.4861
▁Female	-10.4861
▁China	-10.4861
▁trolley	-10.4861
▁lacrosse	-10.4861
▁emergency	-10.4861
▁sailboat	-10.4862
▁juice	-10.4862
▁clapping	-10.4862
▁forehead	-10.4862
▁location	-10.4862
▁semi	-10.4862
▁hotel	-10.4862
▁blood	-10.4862
▁wheelie	-10.4863
▁paperwork	-10.4863
▁alleyway	-10.4863
▁motion	-10.4864
▁soap	-10.4865
▁countryside	-10.4865
▁stoop	-10.4866
▁pigtails	-10.4867
▁brother	-10.4867
▁wares	-10.4868
▁chess	-10.487
▁poodle	-10.4872
▁strange	-10.4874
▁bystanders	-10.4876
▁mower	-10.4876
▁firemen	-10.4878
▁teal	-10.488
▁descend	-10.4881
▁world	-10.4881
▁Police	-10.4883
▁label	-10.4888
quoi	-10.4895
▁gymnastics	-10.4895
▁bagpipes	-10.4904
▁eight	-10.4916
▁Red	-10.4928
el	-10.493
op	-10.4941
▁stare	-10.4942
▁It	-10.496
▁shadows	-10.4979
▁link	-10.4984
▁pillows	-10.4989
▁case	-10.4994
▁paddles	-10.5021
▁wires	-10.5022
▁spin	-10.5027
▁beverages	-10.5037
▁incline	-10.5043
▁backdrop	-10.5051
▁fell	-10.5052
▁ex	-10.5052
▁rust	-10.507
ation	-10.5078
▁pay	-10.5097
ture	-10.5105
▁appl	-10.5108
▁featur	-10.5124
ur	-10.5132
▁juggle	-10.5136
▁performers	-10.5185
us	-10.521
▁fashion	-10.5215
▁knees	-10.5218
▁scooters	-10.5295
▁Mi	-10.5301
▁sp	-10.5307
ily	-10.5315
tical	-10.5335
▁burn	-10.5376
▁war	-10.5394
ated	-10.5413
▁blankets	-10.5418
American	-10.5428
▁bra	-10.5434
ter	-10.5436
style	-10.5444
▁newspapers	-10.5447
▁vendors	-10.5476
▁spike	-10.5482
▁tackl	-10.5493
▁rollerskat	-10.5502
ce	-10.5503
▁races	-10.5523
▁diver	-10.5533
com	-10.5547
▁decorate	-10.5585
T	-10.5617
▁soda	-10.564
▁ca	-10.5645
▁tricycle	-10.5648
▁rod	-10.5648
▁parachute	-10.5657
▁hut	-10.5659
▁firefighter	-10.5661
▁pre	-10.5668
lar	-10.567
▁cheek	-10.5673
▁Bear	-10.5675
ohn	-10.5684
▁shower	-10.5702
▁chopp	-10.5703
▁tray	-10.5713
▁celebrate	-10.5718
ma	-10.5728
▁trip	-10.5729
ched	-10.5744
▁weather	-10.5746
▁hid	-10.5756
▁grand	-10.5764
▁coast	-10.5767
▁auditorium	-10.577
▁christmas	-10.577
▁laundromat	-10.577
▁rapids	-10.577
▁separate	-10.577
▁unusual	-10.577
▁arcade	-10.577
▁butcher	-10.577
▁medium	-10.577
▁surgery	-10.577
▁puppies	-10.577
▁expression	-10.577
▁supplies	-10.577
▁yarn	-10.5771
▁cheese	-10.5771
▁aqua	-10.5771
▁underwear	-10.5771
▁salon	-10.5771
▁suspenders	-10.5772
▁chalkboard	-10.5772
▁shoreline	-10.5773
▁sunlight	-10.5774
▁rice	-10.5774
▁descent	-10.5774
▁homeless	-10.5775
▁rollerblading	-10.5775
▁Runners	-10.5776
▁handrail	-10.5777
▁guide	-10.5777
▁chatting	-10.5777
▁highway	-10.5778
▁cello	-10.5779
▁folded	-10.5782
▁lens	-10.5784
▁single	-10.5787
▁visible	-10.5793
▁screaming	-10.5794
▁snowshoes	-10.5799
▁bank	-10.5813
▁closely	-10.5814
▁bush	-10.5829
▁creat	-10.5837
▁stall	-10.5841
▁ballet	-10.5851
round	-10.5856
▁tights	-10.5856
▁ador	-10.587
E	-10.5875
▁camping	-10.5881
▁ea	-10.5882
▁joy	-10.5884
▁skaters	-10.5892
▁lifted	-10.5898
h	-10.5908
▁thumbs	-10.592
rimmed	-10.5931
▁tri	-10.5933
as	-10.5933
▁comfort	-10.5947
▁motorcyclists	-10.5954
▁crossed	-10.5962
▁magazines	-10.6006
▁swimsuits	-10.6027
▁ja	-10.6034
▁khakis	-10.6048
▁logs	-10.6058
cial	-10.6073
▁splash	-10.6089
▁lighted	-10.6092
▁fo	-10.61
▁floats	-10.6114
▁handle	-10.6166
▁athletes	-10.6167
ro	-10.6188
▁bricks	-10.6195
▁e	-10.6195
▁picks	-10.6231
▁Arm	-10.6236
▁skiers	-10.6289
▁news	-10.6293
▁stepp	-10.6312
▁arch	-10.6313
▁typ	-10.6313
c	-10.6316
▁menu	-10.6321
▁watched	-10.6334
▁stir	-10.6366
▁huddle	-10.6393
▁cameras	-10.6412
▁carts	-10.6419
▁dad	-10.6429
▁cans	-10.6429
▁larger	-10.6445
▁gathers	-10.6472
▁cab	-10.6479
▁range	-10.6555
▁Blu	-10.6558
▁cowboys	-10.6592
ear	-10.6599
▁mo	-10.6606
▁squat	-10.6634
▁mus	-10.6637
war	-10.6645
▁portrait	-10.6647
▁leotard	-10.6647
▁ticket	-10.665
▁hotdog	-10.6662
▁march	-10.6663
▁candle	-10.6663
▁egg	-10.6664
▁thumb	-10.6665
▁vacuum	-10.6667
▁upward	-10.6669
▁service	-10.6673
▁cage	-10.6673
▁monitor	-10.6683
▁treat	-10.6683
▁secur	-10.6692
▁gaze	-10.6696
wards	-10.6706
▁skater	-10.6707
ther	-10.6735
ton	-10.6751
▁goat	-10.6754
▁shar	-10.6761
pectators	-10.6764
▁Asia	-10.6766
▁even	-10.6769
▁sculpt	-10.677
▁headdress	-10.677
▁Couple	-10.677
▁Square	-10.677
▁activity	-10.677
▁bouquet	-10.677
▁canvas	-10.677
▁contraption	-10.677
▁gallery	-10.677
▁senior	-10.677
▁quarterback	-10.677
▁leggings	-10.677
▁earphones	-10.677
▁tutu	-10.677
▁frozen	-10.677
▁valley	-10.677
▁transportation	-10.677
▁tripod	-10.677
▁trashcan	-10.677
▁lobby	-10.677
▁blazer	-10.677
▁passersby	-10.677
▁monkey	-10.677
▁dumpster	-10.677
▁workshop	-10.6771
▁sideways	-10.6771
▁facility	-10.6771
▁spotlight	-10.6771
▁stilts	-10.6772
loseup	-10.6772
▁driveway	-10.6772
▁staff	-10.6773
▁Canad	-10.6774
▁quickly	-10.6774
▁injured	-10.6774
▁embracing	-10.6774
▁snap	-10.6776
▁rooftop	-10.6776
▁highchair	-10.6778
▁pedal	-10.6779
▁rally	-10.678
land	-10.6786
▁branches	-10.6787
▁maneuver	-10.6796
▁approaches	-10.6797
▁section	-10.6803
▁roadside	-10.6803
▁workout	-10.6805
▁scarves	-10.6807
▁interesting	-10.6808
▁artwork	-10.6818
▁Ma	-10.6819
▁Band	-10.682
▁venue	-10.6827
▁torch	-10.6834
▁apart	-10.6836
▁support	-10.6836
▁Easter	-10.684
▁done	-10.6841
▁Olympics	-10.6858
▁Player	-10.686
▁products	-10.686
▁sprayed	-10.6873
im	-10.6886
▁gazes	-10.6887
▁mess	-10.6889
ded	-10.6892
▁flor	-10.6896
▁washer	-10.6903
▁heavi	-10.6913
▁strike	-10.6916
▁punch	-10.6937
leading	-10.6943
▁padd	-10.6948
▁painter	-10.6959
▁belts	-10.696
▁va	-10.697
▁autumn	-10.6987
tti	-10.6996
▁racers	-10.7018
▁cute	-10.705
▁tr	-10.7055
▁divers	-10.7055
if	-10.7067
▁shave	-10.7071
ried	-10.7084
▁rafting	-10.7092
▁pots	-10.7098
ize	-10.7107
▁pins	-10.713
▁navigate	-10.7134
▁Lot	-10.7157
hepherd	-10.717
▁kayaking	-10.7185
partment	-10.7192
▁cards	-10.7236
▁en	-10.7253
me	-10.7284
▁sail	-10.7298
ds	-10.731
▁He	-10.7319
ne	-10.7324
fashioned	-10.7356
▁gra	-10.7377
▁tail	-10.738
▁securi	-10.7382
by	-10.7393
▁fla	-10.7395
▁test	-10.7452
▁pale	-10.7453
▁fold	-10.7479
▁rag	-10.748
striped	-10.7489
body	-10.7496
▁displays	-10.7512
F	-10.7583
▁beat	-10.7601
most	-10.761
de	-10.7637
hree	-10.7659
▁Mar	-10.7679
▁numbers	-10.7685
▁classic	-10.7703
mic	-10.7709
sailing	-10.773
▁drop	-10.7732
▁rifle	-10.7748
▁pumpkin	-10.7758
▁reflection	-10.7762
▁bicycl	-10.7773
▁task	-10.778
▁carve	-10.7798
▁crash	-10.7805
nel	-10.7817
▁curve	-10.782
▁cree	-10.7823
▁product	-10.7828
▁da	-10.7828
▁tight	-10.7835
ender	-10.7841
▁gaz	-10.7844
▁scen	-10.7844
▁turban	-10.7856
▁contest	-10.7877
▁horizon	-10.788
▁illuminat	-10.7881
▁afternoon	-10.7881
▁caucasian	-10.7881
▁chocolate	-10.7881
▁chopsticks	-10.7881
▁foliage	-10.7881
▁mechanic	-10.7881
▁shawl	-10.7881
▁squeez	-10.7881
▁synchroniz	-10.7881
▁Skateboarder	-10.7881
▁gesturing	-10.7881
▁bathtub	-10.7881
▁smooth	-10.7881
▁industr	-10.7881
▁pinata	-10.7881
▁unhappy	-10.7881
▁School	-10.7881
▁helicopter	-10.7881
▁unload	-10.7881
▁Hockey	-10.7881
▁lasso	-10.7881
▁sparring	-10.7881
▁pencil	-10.7881
▁cherry	-10.7881
▁morning	-10.7882
▁butterfly	-10.7882
▁raincoat	-10.7882
▁riot	-10.7882
▁every	-10.7882
▁beret	-10.7883
▁bedroom	-10.7883
▁stump	-10.7883
▁cannon	-10.7883
▁Shepherd	-10.7885
▁letter	-10.7885
▁trench	-10.7887
▁built	-10.7889
▁belongings	-10.7889
▁decorations	-10.7889
▁pretend	-10.789
▁breakdancing	-10.789
▁pathway	-10.7891
▁rollerblades	-10.7891
▁monk	-10.7891
▁braid	-10.7898
▁content	-10.79
▁checkers	-10.7905
▁pilot	-10.7907
▁Ba	-10.7907
▁parasailing	-10.7912
▁border	-10.7912
▁wig	-10.7919
▁brushes	-10.7924
▁scouts	-10.7927
▁collect	-10.7928
▁drag	-10.7932
▁writes	-10.7934
▁acrobatic	-10.794
▁jogs	-10.7944
ron	-10.7947
▁crates	-10.7952
▁parents	-10.7968
▁fishes	-10.7977
▁sad	-10.7978
▁str	-10.798
▁pads	-10.7983
▁ra	-10.8013
▁begins	-10.8026
▁jumper	-10.8026
▁package	-10.803
panes	-10.8035
other	-10.8043
ered	-10.8044
▁displayed	-10.8062
▁games	-10.8071
▁mur	-10.808
▁designs	-10.8083
▁waiter	-10.8087
all	-10.8088
▁rings	-10.8094
▁ducks	-10.8096
▁grasp	-10.8104
miling	-10.812
▁Whi	-10.8127
▁comm	-10.8134
ital	-10.8138
▁than	-10.8146
ack	-10.8147
▁want	-10.8169
green	-10.817
▁congregate	-10.8191
ohawk	-10.8195
▁types	-10.8196
▁played	-10.8199
▁int	-10.8206
▁boards	-10.8228
wed	-10.8229
▁La	-10.823
dults	-10.8237
ry	-10.8241
▁scale	-10.8251
▁spot	-10.8257
▁booths	-10.8263
▁icy	-10.8269
▁lighting	-10.8307
ick	-10.833
size	-10.8337
▁clouds	-10.8338
erous	-10.834
▁power	-10.8373
P	-10.8396
▁aim	-10.8427
lad	-10.8432
▁hook	-10.8435
▁waist	-10.8444
uck	-10.8468
▁trucks	-10.8486
ular	-10.8489
▁my	-10.8492
▁think	-10.8507
he	-10.8534
▁ro	-10.8541
▁cu	-10.8558
▁goe	-10.856
ung	-10.8569
▁toss	-10.8575
house	-10.8576
▁locat	-10.8586
dress	-10.8656
ncy	-10.8664
ex	-10.8668
B	-10.8676
rd	-10.8696
▁receive	-10.8703
▁sil	-10.8714
light	-10.8715
▁numer	-10.8718
ence	-10.8726
▁us	-10.8759
▁sweat	-10.876
▁aprons	-10.8762
cause	-10.8768
ster	-10.8777
rench	-10.8806
awaii	-10.8811
mount	-10.8819
▁win	-10.8853
ls	-10.8871
▁say	-10.8926
▁sleep	-10.8928
paved	-10.8955
▁bo	-10.8956
ened	-10.897
cking	-10.8973
its	-10.8973
▁offer	-10.8984
▁lea	-10.8987
▁late	-10.8993
▁diner	-10.8997
▁wakeboard	-10.8998
▁measur	-10.9005
▁notebook	-10.9008
▁human	-10.9008
▁pocket	-10.9009
lot	-10.9012
▁column	-10.902
▁Olympic	-10.9021
▁gesture	-10.9023
▁speaker	-10.9037
▁rug	-10.9042
▁nail	-10.905
▁gown	-10.9054
▁k	-10.9073
▁plain	-10.9089
▁harvest	-10.9101
▁India	-10.9109
▁clut	-10.911
▁Mexic	-10.912
▁potato	-10.9121
hind	-10.9122
serves	-10.9122
▁call	-10.9127
▁aquarium	-10.9131
▁cycling	-10.9131
▁destination	-10.9131
▁dinosaur	-10.9131
▁elaborate	-10.9131
▁mannequin	-10.9131
▁toothbrush	-10.9131
▁treadmill	-10.9131
▁vibrant	-10.9131
▁victory	-10.9131
▁warehouse	-10.9131
▁xylophone	-10.9131
▁hammock	-10.9131
▁harmonica	-10.9131
▁laboratory	-10.9131
▁register	-10.9131
▁accident	-10.9131
▁tuxedo	-10.9131
▁powder	-10.9131
▁establishment	-10.9131
▁marble	-10.9131
▁chisel	-10.9131
▁complex	-10.9131
▁scrubs	-10.9131
▁campfire	-10.9131
▁easel	-10.9131
▁religious	-10.9131
▁Yellow	-10.9131
▁hydrant	-10.9131
▁babies	-10.9131
▁sample	-10.9131
▁jeep	-10.9131
▁NY	-10.9131
▁turtle	-10.9131
▁ATM	-10.9131
▁cigar	-10.9131
▁conductor	-10.9132
▁maintenance	-10.9132
▁tarp	-10.9132
▁surg	-10.9132
▁tournament	-10.9132
▁turkey	-10.9132
▁Spanish	-10.9133
▁abandoned	-10.9133
▁bowtie	-10.9134
▁daytime	-10.9135
league	-10.9135
▁mohawk	-10.9136
▁State	-10.9137
▁stretches	-10.9137
▁projector	-10.9139
▁America	-10.9139
▁pony	-10.9139
▁tracksuit	-10.9141
▁Musician	-10.9142
▁envi	-10.9142
▁company	-10.9145
▁underground	-10.9145
▁shoppers	-10.9145
▁cries	-10.9146
▁sledding	-10.9147
▁Car	-10.9152
▁indian	-10.9152
▁bib	-10.9155
▁mixer	-10.9155
▁upset	-10.9159
▁cheerlead	-10.9159
▁Elmo	-10.9161
den	-10.9163
▁flock	-10.9165
▁plank	-10.9167
▁find	-10.9168
▁beads	-10.9168
▁circu	-10.9168
▁judges	-10.9169
▁dump	-10.9169
▁Texas	-10.917
▁cave	-10.917
▁canal	-10.9171
▁real	-10.9171
▁split	-10.9173
▁logo	-10.9181
▁waterskiing	-10.9183
▁crayons	-10.9183
▁owner	-10.9184
▁carrier	-10.9186
nnel	-10.9187
▁Brit	-10.9189
▁year	-10.9191
dy	-10.9193
▁yell	-10.9198
▁tow	-10.9201
▁tackled	-10.9205
▁purchase	-10.9207
▁skies	-10.9212
▁notes	-10.9213
▁stance	-10.9216
▁skills	-10.922
▁nurses	-10.9224
▁lion	-10.9227
▁focuse	-10.9232
▁crashing	-10.9239
▁columns	-10.9243
▁lips	-10.9245
▁cott	-10.9248
▁rush	-10.9285
▁flat	-10.9292
▁scrap	-10.9299
▁She	-10.9299
▁flame	-10.9306
▁rake	-10.9309
ugging	-10.9314
ress	-10.933
sh	-10.9343
▁dot	-10.9343
▁await	-10.9347
▁teammates	-10.9349
▁tour	-10.935
▁peers	-10.9353
▁tags	-10.936
▁banners	-10.9362
▁camper	-10.9374
▁sides	-10.9406
▁Time	-10.9413
ctors	-10.9427
v	-10.944
▁Nat	-10.9459
▁vend	-10.9485
iz	-10.9502
▁lad	-10.9528
▁crouch	-10.9528
hinese	-10.9542
▁pal	-10.9564
set	-10.958
edestrians	-10.9604
▁drape	-10.9615
▁furr	-10.9624
head	-10.9634
▁gardening	-10.9648
▁mow	-10.9663
▁gr	-10.9677
▁sw	-10.969
▁pause	-10.9734
▁cellphones	-10.9758
▁clowns	-10.9759
▁hills	-10.9764
▁canoes	-10.9767
▁launch	-10.982
tan	-10.9846
▁port	-10.9889
▁purses	-10.9914
▁connect	-10.9916
▁Bo	-10.994
▁masks	-10.9967
▁trib	-10.9979
I	-11.0002
▁sunbath	-11.0051
▁wh	-11.0064
▁lie	-11.0103
O	-11.011
▁feature	-11.0145
gie	-11.0158
▁sari	-11.0166
▁couples	-11.0167
ten	-11.0169
Bo	-11.0196
▁organiz	-11.0214
country	-11.0215
▁mini	-11.0235
▁arrow	-11.0238
▁Num	-11.0241
▁shout	-11.0252
day	-11.0275
otted	-11.0277
▁remove	-11.0284
ap	-11.0291
▁squa	-11.0293
▁compan	-11.0322
▁writ	-11.0323
▁Look	-11.0335
▁capture	-11.0335
▁le	-11.0343
▁fr	-11.0353
ator	-11.0393
girl	-11.04
▁rid	-11.0402
▁fog	-11.0413
▁Si	-11.0415
▁season	-11.0432
▁reflect	-11.0434
▁battl	-11.0436
▁twirl	-11.0437
▁complet	-11.0438
▁pirate	-11.0442
▁defender	-11.0444
▁character	-11.0447
▁employee	-11.0447
turn	-11.0448
▁stripe	-11.0449
▁nurse	-11.0454
▁mark	-11.0454
▁cheerleader	-11.0458
▁parent	-11.0466
right	-11.0495
ude	-11.0497
▁Re	-11.0503
▁boxer	-11.0507
als	-11.0531
▁weigh	-11.0542
▁disc	-11.0545
▁skill	-11.0547
▁quiet	-11.0547
▁though	-11.0549
ustomers	-11.0555
▁equ	-11.0555
▁double	-11.056
▁Muslim	-11.056
▁Walmart	-11.056
▁activities	-11.056
▁bulldozer	-11.056
▁cathedral	-11.056
▁dessert	-11.056
▁exercising	-11.056
▁harbor	-11.056
▁mascot	-11.056
▁puppet	-11.056
▁pyramid	-11.056
▁reception	-11.056
▁snorkel	-11.056
▁wilderness	-11.056
▁meadow	-11.056
▁parallel	-11.056
▁extreme	-11.056
▁fedora	-11.056
▁terminal	-11.056
▁trophy	-11.056
▁videotap	-11.056
▁bongo	-11.056
▁supermarket	-11.056
▁major	-11.056
▁miniature	-11.056
▁tiger	-11.056
▁expans	-11.056
▁temple	-11.056
▁Sooner	-11.056
▁mattress	-11.056
▁casino	-11.056
▁visor	-11.056
▁maybe	-11.056
▁resort	-11.056
▁Coca	-11.056
▁citizen	-11.056
▁buffet	-11.056
▁slacks	-11.056
▁seafood	-11.056
▁Dark	-11.056
▁trotting	-11.056
▁transport	-11.056
▁mitt	-11.056
▁backseat	-11.0561
▁scientist	-11.0561
▁arrangement	-11.0561
▁special	-11.0561
▁demonstration	-11.0561
▁woodland	-11.0561
▁damage	-11.0562
▁tablecloth	-11.0562
▁our	-11.0563
N	-11.0563
enga	-11.0564
▁crops	-11.0564
▁rustic	-11.0565
▁skyline	-11.0565
▁install	-11.0566
▁elevat	-11.0567
▁skydiving	-11.0569
▁somewhere	-11.0569
vil	-11.057
▁Food	-11.057
▁Star	-11.057
endors	-11.0571
▁bodysuit	-11.0572
▁starring	-11.0573
▁historic	-11.0573
▁mounted	-11.0574
▁marker	-11.0575
▁embrace	-11.0579
▁dryer	-11.0579
▁downhill	-11.0581
▁zip	-11.0582
air	-11.0584
▁nun	-11.0587
▁sidelines	-11.0587
▁lush	-11.0587
▁mule	-11.0588
▁sold	-11.0591
▁level	-11.0593
▁Cafe	-11.0594
▁crown	-11.0594
▁clutch	-11.0595
▁transit	-11.0595
▁rollerskates	-11.0597
▁broad	-11.0597
▁topless	-11.0601
▁conducting	-11.0601
▁ver	-11.0602
▁hour	-11.061
▁search	-11.0625
▁fountains	-11.063
▁oil	-11.0632
▁confe	-11.0632
▁mountaintop	-11.0632
▁press	-11.0636
▁bananas	-11.0638
▁Tourists	-11.0638
▁watermelons	-11.0638
▁sl	-11.0638
▁select	-11.0642
runette	-11.0654
▁lanterns	-11.0656
▁instruct	-11.0657
▁sunhat	-11.0665
▁Pe	-11.067
▁employees	-11.0673
▁characters	-11.0673
▁flee	-11.0692
▁punching	-11.0693
▁colli	-11.0703
range	-11.0707
▁shack	-11.0708
▁vacuuming	-11.0712
W	-11.0714
itting	-11.0715
Cola	-11.0724
avor	-11.0725
▁monitors	-11.0725
▁hotdogs	-11.0726
▁chin	-11.0731
▁greet	-11.0737
▁explor	-11.0743
▁attracti	-11.0747
▁rack	-11.0766
aseball	-11.0775
rows	-11.0777
▁camels	-11.0777
▁upwards	-11.0778
▁dolls	-11.0782
▁need	-11.0786
▁wade	-11.0792
▁fat	-11.0792
▁drawn	-11.0801
▁colorfully	-11.081
▁necklaces	-11.0812
ving	-11.0814
▁inter	-11.0824
▁snacks	-11.0825
are	-11.0826
▁barrels	-11.0828
▁ordering	-11.0833
▁remov	-11.0848
▁bounce	-11.0851
rest	-11.0882
▁peaks	-11.0887
embers	-11.0891
▁flash	-11.0892
▁own	-11.0895
▁jar	-11.09
▁prepared	-11.0905
▁skim	-11.0916
ab	-11.0939
▁dropp	-11.0941
▁paw	-11.0946
▁advertisements	-11.0952
▁musta	-11.0973
▁cameraman	-11.0991
ff	-11.0996
▁flow	-11.0996
▁pans	-11.1012
▁miss	-11.1016
▁armor	-11.1019
▁strings	-11.1023
▁drying	-11.1056
▁weight	-11.1057
val	-11.1074
▁seating	-11.1078
uzz	-11.1079
▁hun	-11.1084
ade	-11.1091
▁care	-11.1105
hile	-11.1105
▁dribble	-11.1138
▁shi	-11.1153
▁Ra	-11.1164
▁scal	-11.1171
▁sculptures	-11.1178
ose	-11.1188
skier	-11.1199
▁angle	-11.1208
▁guards	-11.1212
camera	-11.123
agged	-11.1261
▁litter	-11.1263
▁sip	-11.1266
▁vocal	-11.1281
dressed	-11.1293
irefighters	-11.1299
▁award	-11.1303
ine	-11.1313
▁crack	-11.1319
▁ei	-11.1329
▁panel	-11.1355
▁build	-11.1378
▁Protest	-11.1404
▁bad	-11.1411
▁artists	-11.1411
ri	-11.1415
ather	-11.1438
▁cha	-11.1446
▁pops	-11.1459
▁skinn	-11.1467
ig	-11.148
▁spik	-11.1484
▁recline	-11.1514
ucking	-11.1524
bbing	-11.1526
▁railings	-11.1542
hole	-11.1547
▁Loca	-11.155
▁desks	-11.1557
▁accompanie	-11.1562
▁concentrate	-11.1568
▁wo	-11.1571
een	-11.1584
cart	-11.1607
▁polish	-11.1609
lic	-11.1614
▁medi	-11.1625
▁love	-11.1629
zz	-11.1647
gging	-11.1651
▁blurr	-11.1658
▁cigarettes	-11.17
▁yo	-11.1725
unk	-11.1763
tter	-11.1793
▁pr	-11.1795
hand	-11.1822
▁bras	-11.1822
filled	-11.1855
▁di	-11.1867
uch	-11.1869
ssing	-11.1875
hoe	-11.1881
storm	-11.1888
cement	-11.1893
▁trains	-11.1913
per	-11.1921
▁soar	-11.1937
ul	-11.1949
▁sc	-11.1969
ok	-11.1971
high	-11.1976
▁engag	-11.1986
held	-11.1997
▁text	-11.2071
▁briefcase	-11.2091
nder	-11.2091
▁plow	-11.2092
▁skull	-11.2092
▁ascend	-11.2095
▁handbag	-11.2096
▁Bu	-11.2108
▁lemon	-11.2108
▁pillar	-11.2109
▁McDonald	-11.2111
▁weapon	-11.2111
▁pigeon	-11.2118
▁kn	-11.2123
▁crate	-11.2124
ches	-11.213
▁cable	-11.2134
▁poli	-11.2137
▁beers	-11.2139
▁social	-11.2143
▁fork	-11.2164
▁force	-11.2191
▁signing	-11.2193
robe	-11.22
▁interview	-11.2203
▁ceremon	-11.2206
oddler	-11.2208
ennis	-11.2211
cient	-11.2217
▁tomato	-11.2217
ami	-11.2222
▁marsh	-11.2225
▁alcohol	-11.2226
▁ornament	-11.2226
▁Cowboy	-11.2226
▁Legos	-11.2226
▁Surfer	-11.2226
▁brindle	-11.2226
▁bronco	-11.2226
▁clarinet	-11.2226
▁glacier	-11.2226
▁kiosk	-11.2226
▁liquor	-11.2226
▁professor	-11.2226
▁progress	-11.2226
▁scissors	-11.2226
▁submerge	-11.2226
▁symbol	-11.2226
▁system	-11.2226
▁sunshine	-11.2226
▁information	-11.2226
▁ravine	-11.2226
▁razor	-11.2226
▁recreat	-11.2226
▁civil	-11.2226
▁spatula	-11.2226
▁lipstick	-11.2226
▁Subway	-11.2226
▁cardigan	-11.2226
▁nightclub	-11.2226
▁accept	-11.2226
▁husband	-11.2226
▁Claus	-11.2226
▁seesaw	-11.2227
▁talent	-11.2227
▁tunic	-11.2227
▁radio	-11.2227
▁riverbank	-11.2227
▁breath	-11.2227
▁spr	-11.2227
▁badge	-11.2227
▁goatee	-11.2227
▁operation	-11.2227
▁archway	-11.2228
▁assistant	-11.2228
▁plush	-11.2228
▁saddle	-11.2228
▁curious	-11.2228
▁chunk	-11.2229
▁haul	-11.2229
▁wineglasses	-11.223
▁milk	-11.223
▁magnif	-11.223
▁sailor	-11.2231
▁sharp	-11.2231
▁clap	-11.2231
▁wonder	-11.2231
▁assembled	-11.2231
▁Dirt	-11.2231
ha	-11.2232
▁relay	-11.2233
▁frown	-11.2235
▁tomatoes	-11.2235
▁crab	-11.2236
▁socializing	-11.2237
▁dragon	-11.2237
▁cash	-11.2238
▁mittens	-11.2238
▁pub	-11.2239
▁Bikers	-11.2239
▁fireworks	-11.2239
▁constructed	-11.224
▁Gray	-11.2242
▁puff	-11.2242
SA	-11.2244
▁hairstyle	-11.2244
▁glider	-11.2244
med	-11.2248
▁enclos	-11.2248
▁flaming	-11.2248
▁cowgirl	-11.2249
▁completely	-11.2251
▁excitedly	-11.2251
▁quad	-11.2253
▁antique	-11.2253
five	-11.2254
▁knitting	-11.2257
eautiful	-11.2258
▁eager	-11.2258
▁bridesmaids	-11.226
▁slip	-11.2262
▁policemen	-11.2263
▁steer	-11.2267
▁Green	-11.2268
▁drain	-11.2268
▁occup	-11.2269
▁soup	-11.227
▁zone	-11.2271
amily	-11.2272
ball	-11.2273
▁swan	-11.2273
▁suburb	-11.2277
▁words	-11.228
▁Skier	-11.2281
▁belly	-11.2289
▁fu	-11.2294
▁stair	-11.2296
▁patrons	-11.2297
▁snowball	-11.2298
▁tips	-11.2306
▁attack	-11.2306
▁blower	-11.2307
▁assisting	-11.2315
▁piercing	-11.2316
▁texting	-11.2317
▁decide	-11.232
opcorn	-11.2321
▁Y	-11.2329
escent	-11.2329
▁utili	-11.2334
▁cell	-11.2335
ored	-11.2344
ore	-11.235
tery	-11.2359
▁boo	-11.236
▁gowns	-11.2361
▁framed	-11.2369
▁cl	-11.2376
tation	-11.2381
▁nails	-11.2381
▁dots	-11.2382
▁boxers	-11.2382
▁flood	-11.2388
▁spots	-11.2391
▁scratch	-11.2407
▁rugs	-11.2408
▁loc	-11.2408
▁clothed	-11.2414
▁trim	-11.2422
▁rise	-11.2422
ement	-11.2428
▁girlfriend	-11.243
▁dra	-11.244
▁waterside	-11.2444
niversity	-11.2456
shape	-11.2462
ootball	-11.2467
▁bea	-11.2469
▁pray	-11.2476
▁strip	-11.2476
▁barriers	-11.2486
▁checked	-11.249
▁vi	-11.2498
ging	-11.2502
▁sprinklers	-11.2508
▁sound	-11.251
▁Walk	-11.2514
▁ribbons	-11.2528
yo	-11.2538
▁slic	-11.2544
▁brooms	-11.255
▁lands	-11.2555
▁shad	-11.2563
▁slam	-11.2568
▁doctors	-11.2571
▁lanes	-11.2586
▁stay	-11.2587
▁main	-11.2588
▁beams	-11.259
▁Nin	-11.2597
▁hearts	-11.2602
▁strik	-11.2603
do	-11.2605
▁swords	-11.2613
▁li	-11.2623
▁bump	-11.2623
▁jumpsuits	-11.2633
▁Fire	-11.2636
cept	-11.264
ver	-11.2645
▁mic	-11.2654
▁pipes	-11.2674
▁release	-11.2676
▁sleeves	-11.2684
▁chat	-11.2689
▁bows	-11.2701
▁tubes	-11.271
▁prepar	-11.2723
ut	-11.2731
▁bottoms	-11.2735
▁presents	-11.275
▁ar	-11.2755
▁wheelchairs	-11.2758
▁Work	-11.2765
ddy	-11.2788
wearing	-11.279
▁washe	-11.2805
▁brow	-11.2805
▁oranges	-11.2808
ents	-11.2826
▁devices	-11.284
▁rafts	-11.2842
opping	-11.2875
▁slopes	-11.2881
▁noses	-11.2888
▁prom	-11.2888
ica	-11.2915
▁emerge	-11.2922
ot	-11.2928
▁blocking	-11.2937
▁stars	-11.2953
os	-11.2955
owing	-11.2968
haps	-11.2977
▁stunts	-11.2977
▁peak	-11.298
ood	-11.2991
for	-11.2993
▁microscopes	-11.3008
rious	-11.301
▁Pa	-11.3013
▁stretch	-11.3022
▁tap	-11.3071
▁hear	-11.3089
▁tell	-11.3112
ome	-11.3117
tted	-11.3151
la	-11.3164
▁arriv	-11.3166
tic	-11.3173
▁secure	-11.3195
try	-11.3199
ilitary	-11.3228
▁involve	-11.3232
▁Lo	-11.3232
ppy	-11.3232
▁chip	-11.324
stretched	-11.3247
▁hik	-11.3269
▁strollers	-11.3278
▁cro	-11.3292
tch	-11.3298
anyon	-11.3299
▁glid	-11.3302
ice	-11.3334
▁con	-11.3337
▁stre	-11.334
mo	-11.3344
tage	-11.3345
▁ga	-11.3354
erry	-11.3355
ef	-11.3381
white	-11.3399
▁cats	-11.3414
ven	-11.3418
▁jo	-11.3418
ac	-11.3428
▁bikinis	-11.3438
▁varie	-11.344
▁rails	-11.3471
▁gri	-11.3484
▁cont	-11.3536
rry	-11.3539
work	-11.3589
▁te	-11.3589
▁fit	-11.359
ft	-11.3592
▁tumbl	-11.3603
piece	-11.3607
woman	-11.3611
hoop	-11.3624
bing	-11.3629
Y	-11.3631
▁barbecu	-11.3632
▁spi	-11.3633
cting	-11.3638
ward	-11.3658
ortable	-11.3685
co	-11.3693
ell	-11.3711
▁may	-11.3713
skating	-11.3729
sing	-11.3735
hat	-11.3743
ngry	-11.375
▁conveni	-11.3759
▁shine	-11.3775
redi	-11.3779
▁raining	-11.378
G	-11.3808
ellow	-11.3808
▁ties	-11.3818
ssed	-11.3818
M	-11.3823
▁deli	-11.383
wheeler	-11.3845
▁axe	-11.3881
break	-11.3884
imate	-11.3902
▁Asians	-11.3919
ler	-11.3921
ay	-11.3924
io	-11.3935
ham	-11.3964
des	-11.3996
ctively	-11.4027
erie	-11.4071
bout	-11.4074
▁fro	-11.408
▁explore	-11.4081
▁hung	-11.4082
▁Mo	-11.4091
▁message	-11.4092
▁sister	-11.4097
▁toilet	-11.4103
eep	-11.4104
▁Bicyclist	-11.4108
▁jog	-11.4112
▁watermelon	-11.4114
▁Tourist	-11.4114
▁banana	-11.4114
▁bagpipe	-11.4117
▁pedestrian	-11.4117
stand	-11.4118
▁backward	-11.4124
▁cooler	-11.4127
▁pig	-11.4141
▁too	-11.415
▁assist	-11.4154
▁suck	-11.4155
der	-11.4165
mber	-11.4177
ional	-11.4181
▁baton	-11.4194
em	-11.4203
▁multicolor	-11.4203
▁brid	-11.4204
▁East	-11.4206
▁depart	-11.4207
▁know	-11.4213
▁competitive	-11.4214
▁soft	-11.4216
▁struggl	-11.4225
estrian	-11.4226
▁tambourine	-11.4226
▁Concert	-11.4226
▁Dancers	-11.4226
▁Halloween	-11.4226
▁Photographer	-11.4226
▁Speedo	-11.4226
▁apparatus	-11.4226
▁asphalt	-11.4226
▁automobile	-11.4226
▁bookshelf	-11.4226
▁bronze	-11.4226
▁champagne	-11.4226
▁community	-11.4226
▁depict	-11.4226
▁dolphin	-11.4226
▁excitement	-11.4226
▁merchant	-11.4226
▁monopoly	-11.4226
▁pacifier	-11.4226
▁passionate	-11.4226
▁peacock	-11.4226
▁possession	-11.4226
▁remote	-11.4226
▁robot	-11.4226
▁unidentifi	-11.4226
▁unknown	-11.4226
▁watercraft	-11.4226
▁zebra	-11.4226
Obama	-11.4226
▁blossom	-11.4226
▁cockpit	-11.4226
▁elbow	-11.4226
▁rehears	-11.4226
▁respond	-11.4226
▁tiara	-11.4226
▁vegetation	-11.4226
▁bracelet	-11.4226
▁cruis	-11.4226
▁Rodeo	-11.4226
▁Gentlem	-11.4226
▁carousel	-11.4226
▁exciting	-11.4226
▁javelin	-11.4226
▁contemplat	-11.4226
▁Soldier	-11.4226
▁fingernail	-11.4226
▁tightrope	-11.4226
▁priest	-11.4226
▁refresh	-11.4226
▁dramatic	-11.4226
▁impress	-11.4226
▁volunteer	-11.4226
▁consult	-11.4226
▁curtain	-11.4226
▁vacation	-11.4227
▁campsite	-11.4227
▁High	-11.4227
quaint	-11.4227
▁escape	-11.4227
▁kitten	-11.4227
▁passerby	-11.4227
▁quilt	-11.4227
▁sweatsuit	-11.4227
▁Mouse	-11.4227
▁cinder	-11.4227
▁shoeshine	-11.4227
▁drunk	-11.4227
▁fireplace	-11.4227
▁stylish	-11.4227
▁salad	-11.4227
▁rowboat	-11.4227
▁iPod	-11.4227
▁identical	-11.4227
▁Colle	-11.4227
▁shelves	-11.4227
▁exhibition	-11.4228
▁overhang	-11.4228
▁swamp	-11.4228
▁canopy	-11.4228
▁cartoon	-11.4228
▁scantily	-11.4228
▁cartwheel	-11.4228
▁rubble	-11.4228
▁attendant	-11.4228
▁bathrobe	-11.4229
▁husky	-11.4229
▁clock	-11.4229
▁eyeglasses	-11.4229
▁whistle	-11.4229
▁backstroke	-11.4229
▁garment	-11.4229
▁blindfolded	-11.4229
▁confused	-11.4229
▁attentively	-11.423
▁slab	-11.423
▁combat	-11.423
▁delic	-11.423
▁Orient	-11.4231
▁assort	-11.4231
ashing	-11.4231
▁terrier	-11.4232
▁answer	-11.4233
▁selection	-11.4233
▁bakery	-11.4233
▁earth	-11.4233
▁ruins	-11.4233
▁flour	-11.4234
▁Cyclist	-11.4234
▁nibbl	-11.4235
▁parachuting	-11.4236
▁pride	-11.4236
▁lovely	-11.4238
▁intense	-11.4238
▁curl	-11.4238
▁nine	-11.4239
▁cattle	-11.4239
▁represent	-11.424
▁competitors	-11.4241
▁daylight	-11.4242
▁deliver	-11.4242
▁gum	-11.4243
▁clothesline	-11.4243
▁Long	-11.4243
▁solo	-11.4243
▁Apple	-11.4244
▁attraction	-11.4244
▁Wall	-11.4244
▁gallop	-11.4244
▁floaties	-11.4245
▁greenery	-11.4246
▁steam	-11.4246
▁para	-11.4247
▁marches	-11.4247
▁hol	-11.4249
▁snake	-11.4249
▁torches	-11.4249
▁Ice	-11.425
▁headset	-11.4252
▁cargo	-11.4252
▁web	-11.4253
▁interviewed	-11.4257
▁oversize	-11.4259
▁upper	-11.4261
▁early	-11.4263
▁conditions	-11.4266
▁kimonos	-11.4266
▁Rollerblades	-11.4266
ature	-11.4268
▁ref	-11.4271
▁convention	-11.4272
▁bones	-11.4273
▁struggles	-11.4273
▁Seattle	-11.4276
▁pursu	-11.4277
▁South	-11.4277
▁Park	-11.4278
▁weave	-11.4281
her	-11.4283
▁taste	-11.4286
▁You	-11.429
▁earrings	-11.4291
▁collide	-11.4292
▁decorati	-11.4292
▁cutout	-11.4296
▁keys	-11.4298
▁solid	-11.43
▁served	-11.4302
▁recent	-11.4311
▁shingles	-11.4313
▁cookies	-11.4315
▁chips	-11.4316
▁defens	-11.4317
▁seagulls	-11.4318
▁leashes	-11.4321
▁solder	-11.4321
▁breast	-11.4324
▁squirt	-11.4325
▁crowns	-11.4328
front	-11.4331
▁wool	-11.4342
▁medal	-11.4343
▁fairy	-11.4344
▁tribe	-11.4346
▁legged	-11.4348
▁coolers	-11.4349
▁safe	-11.4357
▁mouths	-11.4364
▁weapons	-11.4368
▁entertainer	-11.4369
▁McDonalds	-11.4369
▁spend	-11.4373
▁tongs	-11.4383
▁stock	-11.4389
▁slop	-11.439
▁given	-11.4392
elve	-11.4392
live	-11.4394
▁mind	-11.4402
▁Nik	-11.4404
▁oar	-11.4409
asketball	-11.4421
▁foam	-11.4422
bs	-11.4424
▁strawberr	-11.4425
▁barking	-11.4426
▁sight	-11.4429
▁fashionabl	-11.4429
hirtless	-11.4431
▁lost	-11.4435
neck	-11.4438
ari	-11.4438
blade	-11.445
▁Deer	-11.4462
rge	-11.4468
▁goats	-11.4469
▁trays	-11.4471
▁informal	-11.4472
▁feathers	-11.4478
▁No	-11.4488
▁construct	-11.4494
▁marking	-11.4496
harp	-11.4497
▁cheeks	-11.4497
▁parachutes	-11.4497
ze	-11.4507
▁completed	-11.451
▁handles	-11.4512
▁stores	-11.4516
▁pump	-11.4523
▁suitcases	-11.4524
▁flier	-11.4527
▁'	-11.4527
long	-11.4528
▁demonstrat	-11.4533
rowing	-11.4542
let	-11.4546
▁patrol	-11.4549
▁carried	-11.4549
lk	-11.4578
▁apples	-11.4589
▁elephants	-11.4602
▁motorbikes	-11.4628
gle	-11.4629
▁poke	-11.4643
▁storefronts	-11.4653
▁trimm	-11.4669
apid	-11.4677
▁En	-11.468
▁Hol	-11.4681
▁storm	-11.4688
▁saying	-11.47
▁br	-11.47
▁file	-11.4718
ponge	-11.4729
▁peel	-11.4732
ied	-11.4735
ks	-11.4739
▁opponents	-11.4757
▁Be	-11.477
▁pie	-11.478
▁gar	-11.4794
pplies	-11.4796
▁retriev	-11.4803
▁chains	-11.4816
▁towels	-11.4826
ble	-11.483
▁sprinkl	-11.4837
▁wipe	-11.4861
lling	-11.4869
▁posts	-11.4878
▁posters	-11.4897
▁dri	-11.4897
superman	-11.491
▁clearing	-11.4915
▁fine	-11.4923
▁ri	-11.4927
▁sheets	-11.493
R	-11.4944
▁arti	-11.4947
▁curren	-11.4949
▁rollerskater	-11.4954
▁cause	-11.4962
son	-11.4974
▁sn	-11.4979
stle	-11.4983
▁sca	-11.4984
▁starts	-11.4992
ges	-11.5017
nake	-11.5021
aby	-11.5033
od	-11.504
un	-11.5063
▁mu	-11.509
▁faci	-11.5104
▁cows	-11.5113
muff	-11.5114
▁snowman	-11.5129
▁Race	-11.5129
▁parts	-11.514
▁barre	-11.5146
arents	-11.5152
▁wheeler	-11.5158
wish	-11.5161
▁accompani	-11.5174
▁singers	-11.5187
sses	-11.5196
▁count	-11.5222
▁trap	-11.5223
▁Do	-11.524
ci	-11.5256
▁butt	-11.5268
▁cord	-11.5277
▁bake	-11.528
▁photographing	-11.5282
ift	-11.5283
▁prob	-11.5297
▁pout	-11.5297
▁comb	-11.5299
▁Am	-11.5314
ota	-11.5356
lender	-11.5368
dur	-11.5374
▁fighter	-11.539
tle	-11.5393
litary	-11.5407
▁east	-11.5416
▁char	-11.5424
▁scra	-11.543
antly	-11.5457
▁cloths	-11.5493
▁holes	-11.5534
ultim	-11.5536
▁bung	-11.5537
▁wor	-11.5551
▁page	-11.5556
▁admire	-11.5566
▁Bi	-11.5577
▁bring	-11.5591
▁write	-11.5599
ility	-11.561
z	-11.5626
▁limb	-11.5663
▁floors	-11.572
▁amaz	-11.5723
▁emerg	-11.5728
▁dribbl	-11.5747
▁surfers	-11.5755
▁shirted	-11.5778
ocal	-11.5821
L	-11.5824
risk	-11.5842
▁mats	-11.5855
homa	-11.5856
▁bl	-11.5881
ol	-11.5882
▁ka	-11.5885
▁vin	-11.5918
ith	-11.5931
fter	-11.5947
postal	-11.5949
mer	-11.5952
▁bee	-11.5963
finish	-11.5984
lin	-11.599
▁skateboarders	-11.5992
ssive	-11.5993
hawk	-11.5997
back	-11.6005
▁sprinkle	-11.6007
no	-11.6015
ns	-11.6019
▁Su	-11.6033
▁barb	-11.6035
▁bark	-11.6074
coal	-11.6074
▁via	-11.6101
pool	-11.6103
▁cra	-11.6104
jo	-11.6114
py	-11.6116
rubs	-11.6134
▁tip	-11.6152
our	-11.6154
prints	-11.6193
▁Har	-11.6195
▁toast	-11.6209
▁arrange	-11.6218
raz	-11.6226
▁unpa	-11.6227
▁buck	-11.6236
bucks	-11.6253
▁dil	-11.6262
ever	-11.6289
where	-11.6306
▁super	-11.6309
cast	-11.6329
pane	-11.6333
time	-11.6338
guards	-11.6349
▁pop	-11.636
bab	-11.6372
▁sweatshirts	-11.6373
▁thought	-11.6389
type	-11.6394
drawn	-11.6396
blue	-11.6397
▁Con	-11.6406
deep	-11.6408
come	-11.6419
ad	-11.6437
▁Ne	-11.6453
▁let	-11.648
▁El	-11.6496
handed	-11.6514
▁demonstrate	-11.6514
▁communicat	-11.6527
▁Co	-11.6535
▁pad	-11.6545
▁graduati	-11.6545
ump	-11.6551
dish	-11.6559
▁purchas	-11.6568
▁Teenage	-11.657
ficial	-11.6575
gen	-11.659
▁brochure	-11.659
▁question	-11.6591
▁pancake	-11.6591
▁wrist	-11.6592
▁instructor	-11.6592
▁handed	-11.6593
▁kit	-11.6596
▁holiday	-11.6602
▁vault	-11.6605
▁rabbit	-11.6608
▁cupcake	-11.6608
▁seagull	-11.6611
▁scout	-11.6621
▁gymnastic	-11.6623
▁patron	-11.6623
▁cookie	-11.6624
▁crayon	-11.6625
▁var	-11.6626
▁desp	-11.6635
rt	-11.6636
pong	-11.6649
lm	-11.6655
▁Ya	-11.6656
▁thi	-11.6656
vo	-11.6675
▁lantern	-11.6676
kla	-11.6681
▁stocking	-11.6685
▁sweet	-11.6691
▁tram	-11.6695
▁word	-11.6696
▁occurr	-11.6697
▁tread	-11.6697
▁interest	-11.67
▁kisse	-11.6701
▁puzzle	-11.6702
ashes	-11.6708
▁lip	-11.6715
ta	-11.6715
ssenger	-11.6716
▁quick	-11.6717
▁Bike	-11.6719
mergency	-11.6725
▁enthusiast	-11.6725
▁ceme	-11.6726
▁streetlight	-11.6726
▁Spider	-11.6726
▁Individual	-11.6726
▁aircraft	-11.6726
▁balconies	-11.6726
▁cafeteria	-11.6726
▁chubby	-11.6726
▁convertible	-11.6726
▁crutches	-11.6726
▁frustrated	-11.6726
▁hopscotch	-11.6726
▁megaphone	-11.6726
▁mermaid	-11.6726
▁octopus	-11.6726
▁parasol	-11.6726
▁piggyback	-11.6726
▁pineapple	-11.6726
▁poverty	-11.6726
▁screwdriver	-11.6726
▁seaweed	-11.6726
▁skeleton	-11.6726
▁sombrero	-11.6726
▁substance	-11.6726
▁technique	-11.6726
▁technology	-11.6726
▁trombone	-11.6726
▁ukulele	-11.6726
pproximate	-11.6726
▁Brazil	-11.6726
▁dominoes	-11.6726
▁mascara	-11.6726
▁satchel	-11.6726
▁sunrise	-11.6726
regnant	-11.6726
▁apparel	-11.6726
▁foundation	-11.6726
▁llama	-11.6726
▁mailbox	-11.6726
▁triangle	-11.6726
▁health	-11.6726
▁consider	-11.6726
▁studies	-11.6726
▁terrace	-11.6726
▁Hotel	-11.6726
▁Disney	-11.6726
▁stairwell	-11.6726
▁flatbed	-11.6726
▁crib	-11.6726
▁diaper	-11.6726
▁Snowboarder	-11.6726
▁extend	-11.6726
▁landmark	-11.6726
▁Ocean	-11.6726
▁cluster	-11.6726
▁pressure	-11.6726
▁metropoli	-11.6727
▁paintbrush	-11.6727
▁session	-11.6727
▁kettle	-11.6727
▁metro	-11.6727
▁Picture	-11.6727
▁Parade	-11.6727
▁memorial	-11.6727
▁frolic	-11.6727
▁footbridge	-11.6727
▁napkin	-11.6727
▁Life	-11.6727
▁minivan	-11.6727
itchen	-11.6727
▁swimwear	-11.6727
▁motorboat	-11.6727
MC	-11.6727
egas	-11.6727
▁oxen	-11.6727
▁miniskirt	-11.6727
▁Island	-11.6728
▁spectate	-11.6728
▁brief	-11.6728
▁eatery	-11.6728
▁dealer	-11.6728
▁element	-11.6728
▁Photo	-11.6728
▁honor	-11.6728
▁Hiker	-11.6728
▁else	-11.6728
▁jewelery	-11.6728
▁partner	-11.6729
▁notice	-11.6729
▁Water	-11.6729
▁cityscape	-11.6729
▁buoy	-11.6729
▁bookbag	-11.6729
▁guest	-11.673
▁weeds	-11.6731
▁hispanic	-11.6731
▁sunbathers	-11.6731
▁playpen	-11.6731
▁buggy	-11.6731
▁dozen	-11.6731
▁stationary	-11.6732
▁knock	-11.6732
▁bookstore	-11.6732
▁sponge	-11.6733
▁final	-11.6733
enthusiastically	-11.6734
▁collection	-11.6734
▁cabinet	-11.6734
▁stalks	-11.6734
▁elevator	-11.6734
▁hairnet	-11.6734
▁detail	-11.6734
▁drift	-11.6735
▁workbench	-11.6735
▁Station	-11.6735
▁bloom	-11.6735
▁observers	-11.6735
▁soil	-11.6736
▁Swimmer	-11.6737
▁winning	-11.6737
▁ginger	-11.6738
▁Latino	-11.6738
▁mesh	-11.6738
▁contestant	-11.6738
▁discover	-11.6739
▁spear	-11.6739
▁outfielder	-11.6739
▁exposed	-11.6739
▁paintball	-11.6742
▁slum	-11.6742
▁prun	-11.6743
▁kickboxing	-11.6745
▁basement	-11.6745
▁steaks	-11.6746
▁prizes	-11.6746
▁Sports	-11.6746
▁scared	-11.6747
▁zoom	-11.6747
▁vig	-11.6747
▁roadwork	-11.6747
▁surgeons	-11.6748
▁mock	-11.6749
▁runway	-11.6749
▁seeds	-11.675
▁extended	-11.675
▁sprinting	-11.6751
▁Mich	-11.6752
▁tightly	-11.6752
▁violinist	-11.6753
▁boss	-11.6754
▁Day	-11.6754
▁known	-11.6754
▁overcoat	-11.6755
▁zoo	-11.6755
▁pastries	-11.6755
▁Mom	-11.6757
▁vast	-11.6759
ispanic	-11.6761
▁shield	-11.6761
▁Toy	-11.6762
▁dash	-11.6764
▁tasting	-11.6765
▁festive	-11.6766
▁pounc	-11.6767
▁sheepdog	-11.6767
▁cabin	-11.6768
▁hips	-11.6771
▁Colorful	-11.6771
▁loose	-11.6773
▁steal	-11.6773
▁Teen	-11.6774
▁countertop	-11.6776
▁magic	-11.6777
▁dropped	-11.6777
▁flexi	-11.6779
▁sausages	-11.6779
▁coconuts	-11.6779
▁grown	-11.6779
▁troops	-11.6779
▁master	-11.678
▁smell	-11.6782
▁prim	-11.6786
▁roses	-11.6787
▁came	-11.6787
▁weld	-11.6788
▁Happy	-11.6789
▁cle	-11.679
▁comfortable	-11.6796
care	-11.6799
▁mountainside	-11.68
▁weathered	-11.6803
▁kayakers	-11.6803
▁roadway	-11.6803
▁shields	-11.6805
▁partly	-11.6808
▁simpl	-11.6812
▁jack	-11.6814
kart	-11.6815
issue	-11.6817
▁graduate	-11.6822
panish	-11.6823
▁jug	-11.6824
▁created	-11.6834
▁rode	-11.6838
▁closer	-11.684
▁stockings	-11.6846
▁rabbits	-11.6846
▁cupcakes	-11.6846
▁wigs	-11.6857
▁chart	-11.6858
layers	-11.6858
be	-11.686
▁pulley	-11.6861
▁inflated	-11.6865
▁steers	-11.6867
▁topic	-11.6869
otic	-11.6869
▁available	-11.6872
▁Bicyclists	-11.6883
▁taller	-11.6887
▁texts	-11.6887
▁grins	-11.689
▁viewer	-11.6891
▁stride	-11.6893
▁aerial	-11.69
▁evil	-11.6901
▁interior	-11.6902
▁cables	-11.6905
▁pillars	-11.6913
▁Bill	-11.6914
▁lemons	-11.6914
pass	-11.6922
▁cooked	-11.6928
▁washed	-11.6929
▁note	-11.6931
▁flap	-11.6934
▁defenders	-11.6948
▁pirates	-11.6948
▁calling	-11.6952
▁sandal	-11.6954
eisha	-11.6956
ses	-11.6972
▁circus	-11.6975
ca	-11.698
▁Le	-11.6994
rena	-11.7
falls	-11.7008
▁vine	-11.7016
▁Ele	-11.7021
▁thread	-11.7043
▁mates	-11.7044
▁celebrates	-11.7068
▁Hand	-11.7069
itness	-11.7075
▁Ste	-11.7081
▁Teenager	-11.7082
lime	-11.7085
▁prevent	-11.7089
▁rear	-11.7091
riends	-11.7091
▁pain	-11.7097
▁chickens	-11.7119
over	-11.7121
ello	-11.7121
▁boulders	-11.7123
dog	-11.7133
▁manual	-11.7135
▁kiddi	-11.7138
ropped	-11.7154
ady	-11.7175
fortun	-11.7186
▁bearer	-11.7196
▁muzzles	-11.7205
arathon	-11.7214
ame	-11.7217
hoppers	-11.7217
▁glanc	-11.7218
▁headbands	-11.7221
▁electronics	-11.7222
teen	-11.7223
▁horns	-11.7226
dding	-11.7226
▁chil	-11.7239
▁glo	-11.7244
▁controls	-11.7248
bal	-11.7252
cker	-11.7255
lowly	-11.7258
▁cre	-11.7263
ney	-11.7263
keep	-11.7276
temporary	-11.7277
vious	-11.7279
yro	-11.7284
▁surroundings	-11.7284
▁guitarists	-11.7297
orn	-11.7303
▁uni	-11.7307
▁rounds	-11.7311
rk	-11.7313
▁tun	-11.7314
bl	-11.7316
▁provide	-11.7322
▁dunes	-11.7324
▁buses	-11.7325
▁pol	-11.7336
▁rappe	-11.734
▁mingl	-11.7341
▁tether	-11.7349
▁rop	-11.7352
▁pant	-11.7363
▁feel	-11.7365
▁shapes	-11.7367
well	-11.7381
▁spill	-11.7397
▁lid	-11.741
▁peach	-11.7413
▁tuba	-11.7427
di	-11.743
potted	-11.7431
▁mount	-11.7434
▁grooms	-11.745
taught	-11.7479
▁siding	-11.7487
EL	-11.7492
reyhound	-11.7499
own	-11.751
▁sa	-11.7512
umber	-11.7518
water	-11.7521
ston	-11.7523
▁sweaters	-11.7529
ined	-11.7552
▁sipp	-11.7577
▁hooping	-11.7627
▁save	-11.7629
▁grip	-11.7634
iller	-11.7635
▁trie	-11.7643
▁sales	-11.7664
▁expe	-11.7673
▁soak	-11.7679
▁pitchers	-11.7683
▁deter	-11.7715
ckey	-11.7726
▁organ	-11.7728
▁ob	-11.7737
zard	-11.7739
▁react	-11.7746
▁squares	-11.7772
▁retai	-11.7777
rincess	-11.778
H	-11.779
ook	-11.779
ault	-11.7803
▁sew	-11.7808
▁appre	-11.782
ages	-11.7824
The	-11.7831
▁seeming	-11.7832
ground	-11.7833
era	-11.7851
we	-11.7855
car	-11.7859
▁skin	-11.7878
ading	-11.7878
tly	-11.7883
▁mon	-11.7903
▁fac	-11.793
▁daughters	-11.7942
rm	-11.7953
▁adventur	-11.7965
▁spon	-11.7973
▁pace	-11.7991
▁tin	-11.8016
▁challenge	-11.8018
ak	-11.8027
▁prints	-11.8043
ong	-11.8056
▁trained	-11.8075
tal	-11.8075
og	-11.8076
phone	-11.8107
▁perche	-11.8107
ker	-11.8113
▁photographers	-11.8125
▁Cast	-11.8139
▁sm	-11.8154
▁sons	-11.816
▁era	-11.8161
rn	-11.8168
▁Fisher	-11.817
▁tipp	-11.8181
ould	-11.8182
▁Arab	-11.8186
pe	-11.8195
ends	-11.8211
▁mustach	-11.8223
▁ferr	-11.8257
▁lock	-11.827
mage	-11.829
cked	-11.8292
▁sno	-11.8317
▁fort	-11.832
▁Fisherm	-11.8343
ors	-11.8361
▁bun	-11.8366
overalls	-11.8377
▁walker	-11.8379
▁Arabi	-11.8396
gu	-11.8403
shirted	-11.8408
▁ways	-11.8408
oking	-11.8411
▁des	-11.842
with	-11.8442
ag	-11.8458
▁cal	-11.8458
▁grin	-11.846
ti	-11.8474
▁styl	-11.8481
ments	-11.8482
▁Lea	-11.8487
ber	-11.8488
▁spark	-11.8492
pris	-11.8512
ming	-11.8539
roll	-11.8541
seen	-11.8584
▁slice	-11.8611
low	-11.862
▁squ	-11.8623
ug	-11.8625
▁sticker	-11.8634
scarves	-11.864
walk	-11.8666
lance	-11.8667
▁Rac	-11.8691
rning	-11.8708
▁ox	-11.8719
dies	-11.8751
end	-11.8751
▁ladders	-11.8765
powered	-11.8775
spe	-11.8783
key	-11.879
▁navigat	-11.8798
▁attach	-11.8842
ult	-11.8849
ntage	-11.8852
names	-11.8856
▁mill	-11.8866
adles	-11.8873
ient	-11.8904
▁tatt	-11.8908
sion	-11.8911
▁statu	-11.8916
ailing	-11.8929
▁drap	-11.8933
last	-11.894
even	-11.897
▁structures	-11.8977
▁swa	-11.8985
▁snowboarders	-11.8988
▁relaxe	-11.8997
▁include	-11.9007
ort	-11.9011
▁sorts	-11.9012
lue	-11.903
▁retrieve	-11.9088
▁imp	-11.9092
na	-11.9095
nto	-11.9097
gent	-11.9117
▁releas	-11.9145
enna	-11.9165
room	-11.917
▁mad	-11.9171
ating	-11.9199
llowing	-11.9204
▁operat	-11.9205
ution	-11.9206
xy	-11.9219
▁pee	-11.9228
▁pictured	-11.9259
▁rec	-11.9273
utumn	-11.9285
mint	-11.9305
ess	-11.9316
que	-11.9318
▁scr	-11.9321
▁patrioti	-11.9327
ps	-11.9329
ctic	-11.9342
ank	-11.938
bble	-11.9387
view	-11.94
▁bats	-11.9405
▁charg	-11.9414
jump	-11.9423
▁dist	-11.9424
ran	-11.9429
ars	-11.9445
book	-11.9448
▁fields	-11.9455
tric	-11.9457
ee	-11.946
mble	-11.9461
▁ch	-11.9462
olks	-11.9493
cle	-11.9497
▁foods	-11.9502
▁Di	-11.9513
▁add	-11.953
est	-11.9532
ties	-11.954
▁statues	-11.9562
▁fir	-11.9562
▁Athlete	-11.9565
yard	-11.9567
▁ramps	-11.9575
friend	-11.961
lift	-11.9615
eek	-11.9617
▁hu	-11.9622
rass	-11.9643
screen	-11.9645
▁pi	-11.9647
▁gu	-11.9661
daughter	-11.9675
hood	-11.9687
truck	-11.9689
etty	-11.9692
circle	-11.9707
fast	-11.971
berry	-11.9719
foam	-11.9721
▁address	-11.9725
completed	-11.9729
▁Grand	-11.9741
point	-11.9743
▁Gr	-11.9744
burgers	-11.9752
▁butter	-11.9752
owling	-11.9773
rel	-11.9779
▁ju	-11.9781
▁lei	-11.9792
bell	-11.9801
eries	-11.9805
▁pic	-11.9809
▁Run	-11.981
eop	-11.9824
gar	-11.9824
bo	-11.9829
ike	-11.9845
▁cli	-11.9848
▁appearing	-11.9852
tory	-11.9867
▁ac	-11.9881
viewing	-11.9891
uffle	-11.99
wn	-11.9913
▁jackhammer	-11.9924
▁jogger	-11.9925
▁hamburger	-11.9936
▁barricade	-11.9936
▁zombie	-11.9936
▁poncho	-11.9936
▁noodle	-11.9936
hoops	-11.9936
▁hedge	-11.9938
▁sparkler	-11.9939
▁Ch	-11.9942
▁blind	-11.9943
▁onlooker	-11.9944
▁judge	-11.9949
▁Student	-11.9949
▁snowshoe	-11.9951
▁conduct	-11.9954
▁Ski	-11.9954
▁parasail	-11.9957
▁study	-11.9961
▁earring	-11.9968
▁grid	-11.9969
▁scream	-11.9972
▁protester	-11.9983
stroke	-11.9987
▁don	-11.9991
▁sock	-11.9995
xcited	-12.0002
leng	-12.0005
ower	-12.0008
thnic	-12.0013
ently	-12.0013
▁Tw	-12.0015
▁cycle	-12.0019
▁vo	-12.0022
▁natur	-12.0025
▁awning	-12.0029
▁golfer	-12.0033
▁exam	-12.0033
▁Africa	-12.0034
▁Sco	-12.0035
▁twi	-12.0041
▁trans	-12.0041
eye	-12.0043
▁perch	-12.0045
▁Latin	-12.0046
▁sparse	-12.0048
▁proud	-12.0049
▁graffit	-12.0051
ymnast	-12.0054
izza	-12.0056
▁acrobat	-12.0059
▁rose	-12.0059
▁Roller	-12.006
▁improv	-12.006
▁program	-12.006
▁research	-12.006
▁Berlin	-12.006
▁California	-12.006
▁Commuter	-12.006
▁Employee	-12.006
▁Monopoly	-12.006
▁advantage	-12.006
▁aluminum	-12.006
▁camcorder	-12.006
▁concession	-12.006
▁corridor	-12.006
▁crocodile	-12.006
▁crystal	-12.006
▁cushion	-12.006
▁dandelion	-12.006
▁dishwasher	-12.006
▁document	-12.006
▁earbuds	-12.006
▁enthusiasm	-12.006
▁execut	-12.006
▁fierce	-12.006
▁fingertips	-12.006
▁flamboyant	-12.006
▁gypsy	-12.006
▁handkerchief	-12.006
▁heartbeat	-12.006
▁hijab	-12.006
▁innertube	-12.006
▁livestock	-12.006
▁lollipop	-12.006
▁mushroom	-12.006
▁ninja	-12.006
▁opportunity	-12.006
▁outstreached	-12.006
▁pelican	-12.006
▁pharmac	-12.006
▁reluctant	-12.006
▁seamstress	-12.006
▁secret	-12.006
▁shampoo	-12.006
▁shrimp	-12.006
▁simultaneous	-12.006
▁snowflake	-12.006
▁stethoscope	-12.006
▁tobacco	-12.006
▁transformer	-12.006
▁trouble	-12.006
▁waterproof	-12.006
▁wrangle	-12.006
▁explain	-12.006
▁refuge	-12.006
▁Buddh	-12.006
▁cereal	-12.006
▁condom	-12.006
▁halloween	-12.006
▁opinion	-12.006
▁sauna	-12.006
▁shelter	-12.006
▁arguing	-12.006
▁banquet	-12.006
▁blacksmith	-12.006
▁bonnet	-12.006
▁emotion	-12.006
▁smirking	-12.006
▁Crouch	-12.006
▁Flag	-12.006
▁dentist	-12.006
▁nursing	-12.006
▁parlor	-12.006
▁ritual	-12.006
▁Earth	-12.006
▁families	-12.006
▁salmon	-12.006
▁explosion	-12.006
▁racquet	-12.006
▁sleigh	-12.006
▁texas	-12.006
▁baggage	-12.006
▁trinket	-12.006
▁grandmother	-12.006
▁tulips	-12.006
▁Batman	-12.006
▁decals	-12.006
▁machete	-12.006
▁remain	-12.006
▁forklift	-12.006
▁skewer	-12.006
▁traverse	-12.006
▁manicure	-12.006
▁europe	-12.006
▁powerpoint	-12.006
▁dugout	-12.006
▁Company	-12.006
▁wildflowers	-12.006
▁affection	-12.006
▁government	-12.006
▁pleasant	-12.006
▁France	-12.006
▁Angels	-12.006
▁timber	-12.006
▁Lakers	-12.006
▁Coffee	-12.006
▁dustpan	-12.006
▁animated	-12.006
▁liberty	-12.006
▁wristband	-12.006
▁route	-12.006
▁remember	-12.006
▁toenail	-12.006
▁flashlight	-12.006
▁graphic	-12.006
▁Road	-12.006
▁unison	-12.006
▁fatigue	-12.006
▁Grouch	-12.006
▁knives	-12.006
▁frosting	-12.006
▁specialize	-12.006
▁darkness	-12.006
▁donuts	-12.0061
▁glitter	-12.0061
▁shelf	-12.0061
▁BMW	-12.0061
▁canister	-12.0061
▁lizard	-12.0061
▁sym	-12.0061
▁technician	-12.0061
▁loaf	-12.0061
▁itself	-12.0061
▁Horse	-12.0061
▁insect	-12.0061
▁presum	-12.0062
▁lodge	-12.0062
▁procession	-12.0062
▁horizontal	-12.0062
▁sandpit	-12.0062
▁captain	-12.0062
▁junk	-12.0062
▁French	-12.0062
▁digger	-12.0062
▁textile	-12.0062
▁Wii	-12.0062
▁Chef	-12.0063
▁rescu	-12.0063
▁Even	-12.0063
▁arrival	-12.0063
▁freeway	-12.0063
▁sketch	-12.0063
itcher	-12.0064
▁trek	-12.0064
▁limo	-12.0064
▁Deli	-12.0065
▁Diner	-12.0065
▁Giant	-12.0065
▁headgear	-12.0065
▁ankle	-12.0065
▁dominate	-12.0065
▁entertainment	-12.0065
▁Ford	-12.0065
ockey	-12.0065
▁cutoff	-12.0065
▁geese	-12.0066
▁corral	-12.0066
▁snowbank	-12.0066
▁ditch	-12.0066
▁swoop	-12.0066
▁begg	-12.0066
▁Dressed	-12.0066
▁Ital	-12.0066
▁assembly	-12.0067
▁creative	-12.0067
▁price	-12.0067
▁cleats	-12.0067
▁Rider	-12.0067
▁sax	-12.0068
chipper	-12.0069
▁hipster	-12.0069
olate	-12.0069
▁poker	-12.007
▁Spain	-12.007
▁mosque	-12.007
▁equip	-12.007
▁smock	-12.007
▁wheat	-12.0071
nitor	-12.0071
▁proudly	-12.0071
▁hoist	-12.0071
▁bushel	-12.0071
▁director	-12.0072
▁applied	-12.0072
▁plume	-12.0073
▁grimacing	-12.0074
▁Tye	-12.0075
▁fixture	-12.0077
▁Camp	-12.0077
▁Fast	-12.0078
▁become	-12.0078
▁blurry	-12.0078
▁sledge	-12.0079
▁retriever	-12.0079
▁darts	-12.0079
MA	-12.0081
▁Br	-12.0082
▁fiddle	-12.0082
▁yawning	-12.0082
▁fern	-12.0082
▁recliner	-12.0082
▁oversee	-12.0083
▁forearm	-12.0084
▁Rod	-12.0085
▁twigs	-12.0085
▁meditating	-12.0085
▁Stone	-12.0085
▁congregating	-12.0086
▁handlebars	-12.0088
▁utensils	-12.0088
▁pasture	-12.0089
orous	-12.0089
▁potatoes	-12.009
▁region	-12.009
▁waffle	-12.0091
▁applau	-12.0091
alter	-12.0092
▁Over	-12.0092
▁woodworking	-12.0092
▁bullet	-12.0093
▁Mexico	-12.0094
▁Pro	-12.0094
▁Centr	-12.0094
▁pastel	-12.0094
▁Dad	-12.0095
▁litera	-12.0099
▁align	-12.0099
▁uphill	-12.01
▁Sam	-12.0102
▁dreads	-12.0102
iew	-12.0103
ugby	-12.0106
▁Russia	-12.0106
▁huddling	-12.0106
▁playhouse	-12.0106
achi	-12.0106
▁ollie	-12.0107
▁buff	-12.0107
▁states	-12.0107
▁bouncer	-12.011
▁needed	-12.0111
▁fist	-12.0111
▁windsurfer	-12.0111
▁youngsters	-12.0112
▁Scout	-12.0114
▁lakeside	-12.0116
▁proper	-12.0116
▁plaster	-12.0116
▁underway	-12.012
▁hurry	-12.0122
▁placard	-12.0122
Pant	-12.0122
Skater	-12.0123
▁happening	-12.0125
▁braces	-12.0132
tivate	-12.0134
tically	-12.0135
▁defends	-12.0135
▁participants	-12.0137
▁self	-12.0138
▁arrest	-12.014
▁Rock	-12.014
▁report	-12.0142
▁beaker	-12.0145
▁maintain	-12.0145
ka	-12.0145
ull	-12.0146
▁Well	-12.0146
▁Dr	-12.0148
▁clog	-12.0149
▁fists	-12.0151
▁DS	-12.0155
shake	-12.0156
▁might	-12.0158
▁specta	-12.0158
▁mac	-12.0158
▁carpent	-12.016
▁patches	-12.0162
▁spout	-12.0163
▁clasp	-12.0165
▁arid	-12.0165
▁Wait	-12.0166
▁hurt	-12.0167
▁lifeguard	-12.0169
▁mail	-12.0172
▁awnings	-12.0181
▁sunflower	-12.0181
ow	-12.0182
▁rig	-12.0185
▁ponchos	-12.0185
▁zombies	-12.0185
▁barricades	-12.0185
▁hamburgers	-12.0185
▁sparklers	-12.0186
▁Hous	-12.0187
▁Hug	-12.019
▁cry	-12.019
field	-12.0192
▁crush	-12.0193
▁expos	-12.0195
▁talkie	-12.0196
▁crashe	-12.0197
▁pastor	-12.0199
▁entertained	-12.02
▁protesters	-12.0203
▁welder	-12.0205
▁media	-12.0212
▁boa	-12.0213
itive	-12.022
▁sewer	-12.0222
▁change	-12.0222
▁shap	-12.0229
▁sli	-12.0231
▁holidays	-12.0235
▁pierc	-12.0236
ck	-12.024
some	-12.0246
▁trough	-12.025
▁Minne	-12.0252
▁join	-12.0255
cla	-12.0262
boy	-12.0263
▁cords	-12.0265
alcon	-12.0268
▁bunk	-12.0271
▁bowed	-12.0271
▁chemis	-12.0272
▁noodles	-12.0273
▁batons	-12.0275
▁vac	-12.0278
▁picker	-12.028
▁cork	-12.0281
▁showcas	-12.0282
▁toilets	-12.0284
capp	-12.0287
▁loop	-12.0289
▁dip	-12.0289
▁wal	-12.0291
▁streetlights	-12.0291
▁wallet	-12.0292
omeless	-12.0306
▁adolescent	-12.0307
▁blast	-12.0317
▁ensu	-12.0323
▁dumps	-12.0339
▁moon	-12.034
▁kill	-12.0342
egret	-12.0342
▁mos	-12.0344
dot	-12.0345
ricate	-12.0349
clips	-12.035
▁Thai	-12.0358
▁console	-12.0359
gers	-12.0361
▁juggler	-12.0361
▁goof	-12.0363
▁indig	-12.0366
▁creep	-12.0368
rid	-12.0368
pa	-12.0375
▁miner	-12.0376
▁burger	-12.038
▁twirls	-12.0381
▁stumbl	-12.0385
love	-12.039
platter	-12.0407
▁beans	-12.0409
▁Mr	-12.0413
▁key	-12.0415
▁overall	-12.0419
▁hip	-12.0425
ans	-12.0425
▁pockets	-12.0431
▁notebooks	-12.0434
old	-12.0437
▁measure	-12.0445
▁soon	-12.045
▁tasks	-12.0452
▁glow	-12.0459
▁headlight	-12.0462
ris	-12.0464
▁stroke	-12.0467
▁speakers	-12.0468
ised	-12.0469
▁packages	-12.0475
unning	-12.0478
▁treats	-12.0479
▁bead	-12.0479
▁turbans	-12.0481
▁pumpkins	-12.0483
rates	-12.0486
▁marks	-12.049
▁beautifully	-12.0496
▁trips	-12.051
▁cages	-12.0511
ond	-12.0515
race	-12.0516
▁Bur	-12.0519
uvre	-12.0521
ora	-12.0524
▁services	-12.0532
▁tickets	-12.0532
▁leotards	-12.0533
▁portraits	-12.0533
mat	-12.0542
nations	-12.0551
stic	-12.0555
take	-12.0556
▁Nav	-12.0561
fringe	-12.0563
▁swerv	-12.0574
ey	-12.058
▁tricycles	-12.0584
▁Sm	-12.0585
▁leis	-12.0592
ux	-12.0593
boarder	-12.06
Bron	-12.0605
▁Com	-12.0613
▁gig	-12.0613
▁marke	-12.0619
▁sweating	-12.063
▁inner	-12.0636
▁moved	-12.0643
▁blown	-12.0645
eam	-12.065
▁pebble	-12.0653
lem	-12.0655
▁signal	-12.0657
▁Adult	-12.0666
orm	-12.0671
▁rad	-12.0671
▁spir	-12.0676
vin	-12.0677
wing	-12.0683
oney	-12.069
terior	-12.07
uit	-12.0701
▁lav	-12.0705
ird	-12.0706
▁huts	-12.0707
shore	-12.0711
▁rods	-12.0716
▁sizes	-12.073
▁gifts	-12.0733
▁tv	-12.0733
oting	-12.074
raw	-12.074
▁reg	-12.0745
▁So	-12.0754
▁defend	-12.076
▁amused	-12.0772
apa	-12.0783
gue	-12.0797
▁once	-12.0804
▁moss	-12.0813
▁shed	-12.0843
▁Ric	-12.0847
▁eng	-12.0863
nting	-12.0884
elling	-12.0888
min	-12.0893
ames	-12.0896
▁lives	-12.0896
rize	-12.0901
ugh	-12.0906
▁numbered	-12.0911
▁hitch	-12.0915
▁rins	-12.0915
shing	-12.0939
inger	-12.0944
▁amus	-12.0951
▁qu	-12.0959
ummer	-12.0983
▁trumpets	-12.0983
ev	-12.099
za	-12.0992
ivid	-12.0994
▁bug	-12.0994
▁ax	-12.0995
nds	-12.1
▁organize	-12.101
▁blacktop	-12.1025
fort	-12.103
mp	-12.1042
▁wield	-12.1048
▁scri	-12.105
▁peruse	-12.1054
oven	-12.1074
▁Artist	-12.1074
anging	-12.1079
urry	-12.1081
ozen	-12.1085
ue	-12.1099
pressing	-12.1109
gains	-12.112
▁nip	-12.1122
▁ti	-12.1124
▁sur	-12.1164
▁scar	-12.1166
▁tiles	-12.1168
ety	-12.1169
ters	-12.1174
▁darkly	-12.1175
▁Mad	-12.1216
▁trot	-12.1217
mong	-12.1227
▁swi	-12.1232
cycles	-12.1233
shed	-12.1241
act	-12.1242
▁state	-12.1251
ates	-12.1257
▁hurdles	-12.1283
▁Medi	-12.1294
abl	-12.133
▁pulle	-12.1332
▁keyboards	-12.1335
▁saxophones	-12.1341
▁mate	-12.1344
hose	-12.1379
▁bean	-12.1392
▁pou	-12.1408
▁Dan	-12.1437
fi	-12.1441
▁attache	-12.1444
▁prop	-12.1446
▁Dar	-12.1447
▁cheerful	-12.1459
vel	-12.1487
IN	-12.1487
▁role	-12.149
art	-12.1505
▁cock	-12.1522
▁cram	-12.1529
saw	-12.1531
▁theme	-12.154
rot	-12.1548
ntal	-12.155
▁At	-12.1554
▁mass	-12.1565
ms	-12.1567
▁ashore	-12.1578
andy	-12.1583
▁fool	-12.1584
▁Ca	-12.1592
▁mist	-12.1607
iretrucks	-12.1638
▁infants	-12.1639
▁mi	-12.1644
iki	-12.1656
eir	-12.166
▁concentrat	-12.1663
▁colo	-12.1678
ery	-12.1678
nna	-12.1683
Doo	-12.1707
now	-12.1714
ired	-12.1727
wall	-12.1741
ces	-12.1752
evil	-12.1769
cas	-12.1775
▁speck	-12.1779
▁reclin	-12.1786
▁designe	-12.1801
tin	-12.1803
▁suspens	-12.1812
ette	-12.1818
tion	-12.1827
gi	-12.1833
got	-12.1857
udio	-12.1875
lo	-12.1938
ians	-12.194
ndy	-12.1944
▁helper	-12.1952
▁Bal	-12.1963
▁handl	-12.1971
aris	-12.1978
ox	-12.1981
hit	-12.1983
▁Wh	-12.1983
vi	-12.1997
▁Hu	-12.2012
thing	-12.2012
▁here	-12.2029
▁hoses	-12.2044
▁blur	-12.205
▁hitt	-12.2051
▁canes	-12.2051
RO	-12.2081
ide	-12.2084
▁cola	-12.2088
tt	-12.214
ea	-12.2141
▁chi	-12.2153
stro	-12.2156
▁Chi	-12.216
▁sash	-12.2183
▁sees	-12.2196
hio	-12.2204
cific	-12.2219
yellow	-12.222
▁Her	-12.2223
▁carton	-12.2226
opsicle	-12.2233
ork	-12.2233
aut	-12.2254
ets	-12.2255
▁supervise	-12.2257
rics	-12.2271
velop	-12.2315
▁launche	-12.2327
▁Care	-12.233
ooks	-12.2354
Love	-12.2374
▁strain	-12.2382
ities	-12.2383
rill	-12.2392
▁app	-12.2392
wa	-12.2412
▁Fa	-12.2447
▁fri	-12.2452
▁ten	-12.2463
▁San	-12.2474
ears	-12.2476
ON	-12.2479
icle	-12.2489
file	-12.2519
▁unic	-12.2528
▁sling	-12.2531
oth	-12.2538
▁cact	-12.2541
ile	-12.2547
obs	-12.2552
▁thr	-12.2592
ace	-12.2602
rina	-12.2609
pard	-12.2612
▁challeng	-12.2619
ridge	-12.2634
ering	-12.2636
▁Sal	-12.2645
imi	-12.2657
ki	-12.2689
ottery	-12.2703
▁adventure	-12.2704
▁plan	-12.2712
mura	-12.2731
▁ste	-12.2735
▁mold	-12.2771
▁surfboards	-12.2802
yed	-12.2842
▁ethnicit	-12.2843
▁cler	-12.2845
waits	-12.287
sm	-12.2876
shes	-12.2893
nches	-12.2902
▁Las	-12.2904
▁audi	-12.2922
▁j	-12.2924
▁leader	-12.293
j	-12.2937
tend	-12.2944
▁Perform	-12.2959
cent	-12.2969
list	-12.2986
oma	-12.2991
▁urg	-12.2992
bike	-12.2995
ern	-12.2996
▁mob	-12.3003
▁clim	-12.302
destrians	-12.3023
▁gla	-12.3039
ons	-12.3056
uzzled	-12.3122
off	-12.3128
devil	-12.3132
▁prepp	-12.3136
▁bulls	-12.3149
▁pett	-12.3158
▁ve	-12.3176
tails	-12.3176
▁Ho	-12.3187
▁ston	-12.3201
▁bell	-12.3226
posing	-12.3263
nese	-12.3267
cou	-12.3286
▁Ro	-12.331
llow	-12.3315
▁Ha	-12.3347
ere	-12.3353
tail	-12.3356
▁basketballs	-12.3359
▁cor	-12.3362
▁Tea	-12.3383
▁Me	-12.3398
mming	-12.3404
▁shock	-12.3405
▁Da	-12.3405
▁Pan	-12.3418
▁Lou	-12.3419
▁pitche	-12.342
hold	-12.3428
oy	-12.3434
bly	-12.3445
▁spa	-12.3464
▁tux	-12.3471
ves	-12.3492
▁bur	-12.3504
▁For	-12.3522
▁Cap	-12.3547
itch	-12.356
arket	-12.3562
▁hal	-12.3569
▁speci	-12.36
▁Motorcycl	-12.3605
▁trad	-12.3616
els	-12.3619
▁peddl	-12.3622
doors	-12.3642
game	-12.3645
▁tre	-12.3656
nger	-12.3675
▁grate	-12.3676
▁De	-12.3692
lers	-12.3692
pants	-12.3702
ove	-12.3707
sty	-12.3709
hill	-12.371
▁Met	-12.3716
stron	-12.3726
▁swe	-12.3748
▁tuck	-12.3762
laying	-12.3788
OI	-12.379
▁gl	-12.3818
lway	-12.3829
nning	-12.3839
forming	-12.3856
▁Tim	-12.3871
umping	-12.3936
▁emp	-12.3954
▁bunn	-12.3955
inted	-12.3957
loud	-12.3968
horse	-12.3974
ama	-12.398
▁strum	-12.398
bil	-12.3996
ray	-12.4004
▁Pen	-12.4011
formal	-12.4012
▁nu	-12.4039
▁Shop	-12.4049
▁fed	-12.4057
beater	-12.4057
climbing	-12.4081
lights	-12.4096
lution	-12.41
coat	-12.4108
zing	-12.4117
▁dr	-12.4124
▁reci	-12.4152
fit	-12.4153
addresses	-12.4185
very	-12.4191
ams	-12.4215
ead	-12.4242
mused	-12.4289
ador	-12.4289
▁Cost	-12.4295
▁res	-12.4308
worker	-12.4311
▁Ge	-12.4321
▁par	-12.4322
ttracti	-12.4325
▁Not	-12.4329
▁suite	-12.4339
painting	-12.4342
▁mes	-12.4344
floor	-12.4361
pole	-12.4384
uth	-12.4405
crowded	-12.4414
stairs	-12.442
wheel	-12.4422
ense	-12.4447
tching	-12.4451
nce	-12.4456
distance	-12.4473
Guitar	-12.4482
load	-12.4489
▁mart	-12.4492
ended	-12.4501
gant	-12.4503
urs	-12.4507
vice	-12.4507
▁bandage	-12.4532
box	-12.455
ngs	-12.4551
class	-12.4567
flip	-12.4584
scooter	-12.4586
hammer	-12.4588
▁Na	-12.4595
▁cam	-12.4598
▁crow	-12.4607
umb	-12.4615
golf	-12.4621
block	-12.4624
chase	-12.4639
▁Down	-12.4642
▁wr	-12.4654
▁comic	-12.4666
empt	-12.4666
tive	-12.4666
fighting	-12.4666
away	-12.4673
bread	-12.4674
▁bikin	-12.4677
▁Sp	-12.4679
izer	-12.468
raised	-12.4682
Wel	-12.4684
first	-12.4694
▁Wi	-12.4695
mark	-12.4701
▁moor	-12.4703
ship	-12.4707
school	-12.4709
thumbs	-12.4713
▁decor	-12.4714
Easter	-12.4714
legged	-12.4716
venue	-12.4717
shade	-12.4724
national	-12.4726
east	-12.473
count	-12.4733
Ex	-12.4734
oggers	-12.4737
safe	-12.474
step	-12.4748
▁Side	-12.4748
▁Pain	-12.4755
color	-12.4756
stride	-12.4757
mi	-12.4761
▁decid	-12.4761
▁excavat	-12.4768
burn	-12.4776
gun	-12.4781
tial	-12.4781
ho	-12.4789
bound	-12.479
▁unwrap	-12.4802
▁thro	-12.4803
pad	-12.483
▁squir	-12.4833
ative	-12.4838
free	-12.4841
eating	-12.4846
boo	-12.4854
▁hum	-12.4858
▁mixe	-12.4867
▁Lab	-12.4872
▁def	-12.4885
▁em	-12.4897
bject	-12.49
spectac	-12.4903
▁kil	-12.4909
▁tear	-12.4912
▁locomotive	-12.4924
▁Dep	-12.4925
▁Garden	-12.4926
uggling	-12.493
▁Farmer	-12.4931
▁reporter	-12.4933
▁troop	-12.4934
▁melon	-12.4935
▁participant	-12.4938
▁locker	-12.494
▁coconut	-12.4942
▁sausage	-12.4942
▁circuit	-12.4943
▁Rollerblade	-12.4944
▁kimono	-12.4944
▁condition	-12.4945
▁bridesmaid	-12.4946
▁chore	-12.4947
▁pajama	-12.4947
▁bystander	-12.4949
fight	-12.4953
▁rub	-12.4958
▁happen	-12.4961
▁stru	-12.4963
▁waterski	-12.4963
▁sick	-12.4965
▁dim	-12.4968
▁windsurf	-12.4989
▁ends	-12.4991
▁brace	-12.4994
mates	-12.4996
▁drawer	-12.5005
▁architectur	-12.5007
▁gam	-12.5008
same	-12.5009
verhead	-12.5014
semble	-12.5028
▁inflat	-12.5034
▁descri	-12.5037
▁crayo	-12.5039
flated	-12.504
▁possibl	-12.504
anada	-12.5042
rader	-12.5046
owl	-12.5047
▁blank	-12.5047
▁respective	-12.5048
▁quarte	-12.5049
▁attentive	-12.505
sive	-12.5051
▁sauce	-12.5052
▁wineglass	-12.5052
xford	-12.5052
▁send	-12.5053
phon	-12.5053
ridesmaids	-12.5054
▁Music	-12.5054
uve	-12.5055
▁sideline	-12.5056
▁should	-12.5056
ulture	-12.5057
▁Isla	-12.5057
ircus	-12.5058
▁downward	-12.5058
ibbon	-12.5058
source	-12.5058
▁technic	-12.5058
▁repel	-12.5059
icker	-12.5059
raphic	-12.5059
eteran	-12.5059
▁hydra	-12.5059
▁residen	-12.5059
▁euro	-12.5059
cussion	-12.5059
▁Euro	-12.5059
▁injur	-12.5059
▁volley	-12.5059
▁neighbor	-12.506
awasaki	-12.506
udweiser	-12.506
▁spaghetti	-12.506
▁burrito	-12.506
▁diploma	-12.506
▁eccentric	-12.506
▁illustrati	-12.506
▁kabob	-12.506
▁majestic	-12.506
▁scientific	-12.506
▁typewriter	-12.506
altitude	-12.506
immigration	-12.506
labradoodle	-12.506
ographed	-12.506
rancisco	-12.506
▁Alaska	-12.506
▁Atlanta	-12.506
▁Ballerina	-12.506
▁Challenge	-12.506
▁Crocs	-12.506
▁Doberman	-12.506
▁Engine	-12.506
▁Golden	-12.506
▁Heineken	-12.506
▁Israel	-12.506
▁Pokemon	-12.506
▁Scooby	-12.506
▁Seahawks	-12.506
▁Yankee	-12.506
▁amplifier	-12.506
▁anticipati	-12.506
▁awkward	-12.506
▁bazaar	-12.506
▁billiard	-12.506
▁boutique	-12.506
▁broccoli	-12.506
▁certificate	-12.506
▁chinatown	-12.506
▁clipboard	-12.506
▁condiment	-12.506
▁conveyor	-12.506
▁cucumber	-12.506
▁demolishe	-12.506
▁diagram	-12.506
▁diamond	-12.506
▁didgeridoo	-12.506
▁difficult	-12.506
▁distracted	-12.506
▁district	-12.506
▁entrepreneur	-12.506
▁espresso	-12.506
▁exhaust	-12.506
▁expectant	-12.506
▁extinguish	-12.506
▁fundraiser	-12.506
▁grandparents	-12.506
▁irritated	-12.506
▁lettuce	-12.506
▁loudspeaker	-12.506
▁masonry	-12.506
▁memorabilia	-12.506
▁occasion	-12.506
▁pamphlet	-12.506
▁pearls	-12.506
▁pomeranian	-12.506
▁pompoms	-12.506
▁private	-12.506
▁remodel	-12.506
▁renovat	-12.506
▁restaraunt	-12.506
▁saxophonist	-12.506
▁sequence	-12.506
▁snooze	-12.506
▁snowdrift	-12.506
▁success	-12.506
▁superior	-12.506
▁syrup	-12.506
▁thousands	-12.506
▁tortillas	-12.506
▁volcano	-12.506
▁mortar	-12.506
ggressive	-12.506
▁Camel	-12.506
▁appropriate	-12.506
▁bombard	-12.506
▁bonfire	-12.506
▁conifer	-12.506
▁eyebrow	-12.506
▁eyeliner	-12.506
▁igloo	-12.506
▁intertwin	-12.506
▁kerchief	-12.506
▁manipulat	-12.506
▁mischievous	-12.506
▁obscur	-12.506
▁obstruct	-12.506
▁refrigerat	-12.506
spiration	-12.506
▁Cricket	-12.506
▁SWAT	-12.506
▁dagger	-12.506
▁experienc	-12.506
▁seminar	-12.506
▁slingshot	-12.506
▁vessel	-12.506
▁Hopper	-12.506
▁Iowa	-12.506
▁incense	-12.506
▁assignment	-12.506
▁Angeles	-12.506
▁anorak	-12.506
OME	-12.506
▁recoil	-12.506
▁terrori	-12.506
▁tinsel	-12.506
ictoria	-12.506
▁shrubbery	-12.506
▁custody	-12.506
▁humorous	-12.506
▁cashier	-12.506
▁shuttle	-12.506
▁astonish	-12.506
▁author	-12.506
▁karaoke	-12.506
EGO	-12.506
▁suspect	-12.506
▁Forever	-12.506
▁hitchhiking	-12.506
actory	-12.506
▁Sunday	-12.506
▁declare	-12.506
▁ecstatically	-12.506
▁congregation	-12.506
▁worship	-12.506
▁silverware	-12.506
▁london	-12.506
▁edible	-12.506
▁collision	-12.506
▁skyscraper	-12.506
▁bulb	-12.506
▁violence	-12.506
▁peppers	-12.506
▁masterpiece	-12.506
▁reenact	-12.506
▁David	-12.506
▁agitate	-12.506
▁postcards	-12.506
▁management	-12.506
▁recital	-12.506
▁tilted	-12.506
▁slouch	-12.506
▁residence	-12.506
▁shoelaces	-12.506
▁starfish	-12.506
▁neatly	-12.506
▁ignore	-12.506
▁affect	-12.506
▁identif	-12.506
▁Egy	-12.506
▁plywood	-12.506
▁rugged	-12.506
▁seashell	-12.506
▁martini	-12.5061
▁mulch	-12.5061
▁repelling	-12.5061
▁necktie	-12.5061
▁Harlem	-12.5061
▁assistance	-12.5061
▁Pipe	-12.5061
▁dragster	-12.5061
▁generat	-12.5061
▁incredibl	-12.5061
▁colonial	-12.5061
▁Heavy	-12.5061
▁icicle	-12.5061
▁peanut	-12.5061
▁urinal	-12.5061
▁veteran	-12.5061
EN	-12.5061
▁resource	-12.5061
▁jagged	-12.5061
▁World	-12.5061
▁perfume	-12.5061
▁protectors	-12.5061
▁dachshund	-12.5061
▁ribs	-12.5061
▁warrior	-12.5061
▁collaps	-12.5061
▁Engl	-12.5061
▁function	-12.5061
▁hardware	-12.5061
blading	-12.5061
▁spider	-12.5061
▁Smoke	-12.5061
▁conceal	-12.5061
▁reaction	-12.5061
▁Block	-12.5062
▁hippie	-12.5062
▁commute	-12.5062
▁swirl	-12.5062
▁farmland	-12.5062
▁propeller	-12.5062
▁access	-12.5062
▁Every	-12.5062
ACE	-12.5062
▁kickboxer	-12.5062
▁moutain	-12.5063
ayaker	-12.5063
▁struggle	-12.5063
▁Redhead	-12.5063
▁innocen	-12.5063
▁beanbag	-12.5063
▁cornfield	-12.5063
▁Mac	-12.5063
▁squash	-12.5063
▁knoll	-12.5064
▁reason	-12.5064
▁entry	-12.5064
▁wetland	-12.5064
▁plaque	-12.5064
▁DI	-12.5064
nual	-12.5064
▁hunter	-12.5064
▁budget	-12.5064
▁scoring	-12.5065
aneous	-12.5065
▁Bank	-12.5065
▁Port	-12.5065
▁Swan	-12.5065
▁newscaster	-12.5065
▁Coke	-12.5066
▁teeter	-12.5066
▁grownup	-12.5066
▁smart	-12.5066
▁fishnet	-12.5066
▁treatment	-12.5066
▁fre	-12.5066
▁trooper	-12.5067
▁dalmatian	-12.5067
▁twenty	-12.5067
▁saucer	-12.5067
▁riverbed	-12.5067
▁oxford	-12.5068
▁slipper	-12.5068
▁lovers	-12.5068
▁halfway	-12.5068
▁Story	-12.5069
▁fairground	-12.5069
▁stories	-12.5069
▁correct	-12.5069
▁lava	-12.5069
▁resembl	-12.507
bum	-12.507
▁lesson	-12.507
▁winks	-12.507
▁baker	-12.507
▁corgi	-12.5071
uz	-12.5071
▁Snow	-12.5071
▁respectively	-12.5072
▁blankly	-12.5072
▁creation	-12.5072
▁wounds	-12.5073
▁sedan	-12.5073
▁projection	-12.5073
▁Human	-12.5073
▁mime	-12.5074
▁dumb	-12.5074
orah	-12.5074
Cyclone	-12.5074
scope	-12.5074
▁ranch	-12.5074
AGA	-12.5075
▁faith	-12.5076
▁penguin	-12.5076
▁travelling	-12.5078
▁exchang	-12.5078
▁consume	-12.5079
▁sparsely	-12.508
▁massage	-12.508
▁communication	-12.508
▁wander	-12.508
▁scrubbing	-12.5082
buster	-12.5082
escription	-12.5082
▁hors	-12.5083
▁weightlift	-12.5083
▁beaut	-12.5084
ER	-12.5084
▁recycling	-12.5085
▁Wheel	-12.5085
▁roots	-12.5085
▁witness	-12.5085
▁examination	-12.5087
AR	-12.5088
▁instructions	-12.5088
▁bru	-12.5088
▁express	-12.5088
▁Ori	-12.5088
▁drumstick	-12.5089
une	-12.5089
rapher	-12.509
▁snarling	-12.509
bby	-12.5092
▁Chevro	-12.5092
▁zi	-12.5093
AL	-12.5093
▁competitively	-12.5095
▁softly	-12.5096
▁crag	-12.5096
▁saluting	-12.5096
▁passage	-12.5096
▁unlock	-12.5097
▁keg	-12.5097
▁labor	-12.5098
AM	-12.5098
▁twins	-12.51
igan	-12.51
▁Italy	-12.51
ormal	-12.5102
▁slant	-12.5102
▁restrain	-12.5102
▁viking	-12.5103
▁meter	-12.5103
▁grains	-12.5104
▁turf	-12.5105
▁hops	-12.5105
▁folders	-12.5105
▁Heal	-12.5105
chief	-12.5106
▁fanny	-12.5108
Carol	-12.5108
▁grave	-12.5109
▁figurines	-12.5109
fro	-12.511
usiness	-12.511
▁Outdoors	-12.511
▁colleagues	-12.511
▁quietly	-12.5112
▁architecture	-12.5112
▁olympics	-12.5113
▁pork	-12.5113
▁ram	-12.5114
▁Domino	-12.5114
▁advanc	-12.5116
Phone	-12.5116
▁Hind	-12.5117
▁culture	-12.5117
▁Mc	-12.5118
▁revers	-12.5118
▁disco	-12.5119
▁wreck	-12.5119
ink	-12.5121
▁lose	-12.5122
▁cob	-12.5123
ackson	-12.5123
HO	-12.5124
▁chopped	-12.5125
▁camo	-12.5125
▁metalworking	-12.5126
▁kayaker	-12.5126
ench	-12.5126
▁cultur	-12.5127
▁puzzled	-12.5127
▁occurred	-12.5127
▁handhold	-12.5128
▁Peter	-12.5128
▁slim	-12.5128
▁spice	-12.5129
▁visitor	-12.5129
▁pastry	-12.513
▁shingle	-12.5131
▁thong	-12.5132
▁motorist	-12.5133
▁knead	-12.5135
▁chur	-12.5136
▁median	-12.5142
▁warmers	-12.5143
ills	-12.5145
▁headdresses	-12.5147
▁dingy	-12.5148
▁potter	-12.5148
▁Sled	-12.5149
▁trudg	-12.5152
Twister	-12.5152
▁masses	-12.5154
▁peddler	-12.5155
OR	-12.5156
oles	-12.5156
▁oval	-12.5156
▁linens	-12.5157
▁streamers	-12.5159
▁sliced	-12.5162
mmer	-12.5164
▁laps	-12.5166
tilts	-12.5169
▁snowmobiling	-12.5172
▁led	-12.5172
▁hides	-12.5172
▁recorder	-12.5174
▁fasten	-12.5175
▁filed	-12.5176
▁oak	-12.518
▁stapl	-12.518
hine	-12.518
▁fam	-12.5181
▁chores	-12.5181
▁spare	-12.5184
▁tickl	-12.5186
▁Iz	-12.5186
▁melons	-12.5187
Watch	-12.5188
▁Gen	-12.5193
▁glowing	-12.5194
▁sandwiches	-12.5194
▁Gardens	-12.5195
fire	-12.5195
▁physical	-12.5196
▁enthusiastic	-12.5196
▁locomotives	-12.5197
▁penguins	-12.5197
▁lockers	-12.5199
▁Farmers	-12.5199
▁reporters	-12.5199
▁circuits	-12.52
chu	-12.5202
▁tackler	-12.5202
▁harvested	-12.5205
▁movement	-12.5206
▁Nor	-12.5206
ICE	-12.5208
▁dapple	-12.521
▁carol	-12.521
▁fencers	-12.5211
ication	-12.5211
▁later	-12.5212
▁Pelo	-12.5217
▁journal	-12.5217
atory	-12.5217
errier	-12.5218
▁drawers	-12.5221
▁parachuti	-12.5222
▁flick	-12.5224
▁height	-12.5225
▁supervisi	-12.5226
▁setup	-12.5227
▁dollar	-12.5228
wister	-12.5231
▁breakdancer	-12.5232
▁crank	-12.5236
▁sac	-12.524
▁nuts	-12.5247
alia	-12.5249
▁law	-12.525
▁shark	-12.5252
▁ele	-12.5253
▁inspector	-12.5254
▁crus	-12.5254
▁Wo	-12.5256
▁blinds	-12.5258
▁vict	-12.5261
▁Newly	-12.5263
▁alter	-12.5265
▁bored	-12.5265
▁Bug	-12.5268
ingbird	-12.5269
▁bask	-12.527
▁mine	-12.5273
▁hedges	-12.5279
▁Farm	-12.5281
HS	-12.5284
▁joggers	-12.5284
▁jackhammers	-12.5285
show	-12.5286
thletes	-12.5288
▁bas	-12.5288
▁vision	-12.5288
▁carrot	-12.5291
▁convi	-12.5294
les	-12.5295
TE	-12.5297
▁sweets	-12.5298
lons	-12.5303
horts	-12.5307
painted	-12.5316
lated	-12.5322
▁dangl	-12.5322
▁unwrapp	-12.5324
▁cutter	-12.5325
table	-12.5329
▁saro	-12.5338
▁bales	-12.5343
▁props	-12.5348
▁golfers	-12.5352
▁Musta	-12.5354
unglasses	-12.5356
oc	-12.5356
Birthday	-12.536
▁reference	-12.5361
▁walki	-12.5366
▁troll	-12.537
icken	-12.5371
inting	-12.5371
nk	-12.5374
▁instructors	-12.5375
▁questions	-12.5375
▁pancakes	-12.5375
▁brochures	-12.5375
▁wrists	-12.5379
▁scan	-12.5382
▁Chan	-12.5383
▁continue	-12.5387
▁investigate	-12.5392
orts	-12.5392
essing	-12.5395
▁rocket	-12.54
▁leave	-12.5403
Paris	-12.5406
▁crim	-12.5414
▁whale	-12.5415
▁national	-12.5416
▁Beach	-12.5421
da	-12.5423
idewalk	-12.5423
cted	-12.5423
▁fitting	-12.5424
▁taped	-12.5426
▁archaeologi	-12.5432
▁Row	-12.5432
▁curv	-12.5433
▁cracker	-12.5438
▁fisherm	-12.5443
tables	-12.5444
urses	-12.5445
▁cors	-12.5449
▁stri	-12.5453
▁manner	-12.5454
▁passer	-12.546
▁sisters	-12.5461
▁logger	-12.5464
▁messages	-12.5465
▁rocker	-12.5468
▁Padd	-12.5472
▁Mu	-12.5475
▁Cal	-12.5477
▁hugg	-12.5479
▁relaxed	-12.5479
▁Wel	-12.5482
reeze	-12.5482
▁pigs	-12.5487
houses	-12.5489
▁shoo	-12.5491
Spring	-12.5498
▁vaulting	-12.5502
tor	-12.5524
pac	-12.5525
umbl	-12.5529
uation	-12.5532
▁Del	-12.5533
▁Top	-12.5533
▁hous	-12.5533
▁ascends	-12.5545
eaks	-12.5548
▁caged	-12.5548
▁skulls	-12.5553
▁briefcases	-12.5555
▁snowmobil	-12.5556
▁handbags	-12.5561
crunch	-12.5571
ives	-12.5574
apping	-12.5574
iers	-12.5576
▁average	-12.5583
▁hide	-12.5587
▁started	-12.5595
▁deal	-12.561
▁Spar	-12.5613
▁downwards	-12.5617
rests	-12.5617
▁divide	-12.5623
▁met	-12.5625
▁galo	-12.5629
opy	-12.563
eath	-12.5633
▁seasoning	-12.5635
▁Bright	-12.5635
▁mara	-12.5636
▁mari	-12.5645
▁clos	-12.5655
▁twin	-12.5659
▁weights	-12.5669
▁sol	-12.5673
▁humans	-12.5706
tions	-12.572
lock	-12.5724
▁wakeboards	-12.5731
ct	-12.5738
▁diners	-12.5741
▁folk	-12.5748
▁cent	-12.5753
▁dye	-12.5754
▁compos	-12.5764
quet	-12.5782
rie	-12.5794
▁lungi	-12.58
▁Astro	-12.5804
▁emb	-12.5809
▁bone	-12.581
▁supports	-12.581
tribut	-12.5819
rain	-12.582
▁rifles	-12.5824
ordin	-12.5826
▁reflections	-12.5827
bra	-12.5838
▁piling	-12.5849
ohns	-12.5851
lack	-12.5852
▁matches	-12.5854
eners	-12.5861
nded	-12.5876
shi	-12.5878
mbu	-12.5878
ltim	-12.5879
inspir	-12.5889
▁fi	-12.589
ier	-12.5892
finishe	-12.5912
dle	-12.5917
▁thoughtful	-12.594
IG	-12.5952
▁hunt	-12.5954
ss	-12.597
▁breakdance	-12.5971
gg	-12.5975
waiting	-12.5979
▁sous	-12.5985
▁lace	-12.5988
▁sodas	-12.5989
resses	-12.5994
▁Ore	-12.5995
▁list	-12.5996
elp	-12.6009
▁screened	-12.6011
iet	-12.6013
diction	-12.6027
mputee	-12.6037
abst	-12.6039
▁pane	-12.6043
▁tast	-12.6049
▁hamm	-12.606
What	-12.6063
tics	-12.6067
▁jets	-12.6071
▁giggl	-12.6071
▁camps	-12.608
▁sum	-12.6095
▁che	-12.6096
▁targets	-12.6096
▁exercises	-12.6099
▁snowsuits	-12.6114
▁Bea	-12.6121
night	-12.6133
▁Te	-12.6141
pee	-12.6143
▁sprint	-12.6149
▁May	-12.6153
enya	-12.6175
▁officials	-12.6193
rine	-12.6205
▁strips	-12.6206
▁blu	-12.6207
nail	-12.6209
▁communicate	-12.6231
▁captur	-12.6233
ubble	-12.6245
eva	-12.6252
▁whe	-12.6254
boards	-12.6263
▁grain	-12.627
▁Pret	-12.6273
ching	-12.6276
ural	-12.6284
dam	-12.6292
▁fran	-12.6297
▁fle	-12.6297
sung	-12.6298
▁straddl	-12.6303
▁comical	-12.6305
cub	-12.6311
▁drumm	-12.6313
lass	-12.6315
▁charge	-12.6316
▁collective	-12.6323
▁Mark	-12.6324
umming	-12.6329
▁misc	-12.6333
▁arrang	-12.6333
umble	-12.6343
▁Wal	-12.6347
▁spoons	-12.6349
were	-12.6352
▁throughout	-12.6362
bee	-12.6369
▁spher	-12.6369
▁patriot	-12.6383
inning	-12.641
▁Tree	-12.6413
addle	-12.6419
ford	-12.6435
oned	-12.6436
oe	-12.6437
alo	-12.6447
ques	-12.6454
tude	-12.646
▁jou	-12.6464
▁ki	-12.6474
▁Pi	-12.648
▁dodg	-12.6485
▁Bra	-12.6488
▁wit	-12.6499
awing	-12.6511
▁carr	-12.6533
iving	-12.6533
▁sat	-12.6541
▁Nes	-12.6558
▁heel	-12.6565
park	-12.6573
▁conven	-12.6575
▁congr	-12.6594
▁ripp	-12.661
▁gallo	-12.6618
randfather	-12.6634
bli	-12.6639
▁thre	-12.6653
ions	-12.6658
▁Pee	-12.6675
scar	-12.6708
stop	-12.671
ild	-12.6725
▁routines	-12.6736
▁bucks	-12.6739
rawl	-12.6744
akes	-12.6758
▁viol	-12.6772
HL	-12.6777
oyed	-12.6798
▁rea	-12.6809
▁intri	-12.6816
iss	-12.6832
ater	-12.6833
▁drummers	-12.6837
▁Wood	-12.684
hing	-12.6844
sk	-12.6847
▁Play	-12.6847
tioning	-12.6856
rum	-12.6857
▁ye	-12.6861
sel	-12.6874
mple	-12.6874
▁actions	-12.6876
▁unk	-12.6891
▁bust	-12.6902
▁wagons	-12.6913
▁skip	-12.6922
ld	-12.6929
older	-12.6936
▁wea	-12.6938
lub	-12.6941
▁blackboard	-12.6943
▁Bus	-12.6944
▁ag	-12.6946
▁expert	-12.7
▁packs	-12.7003
▁tru	-12.7003
nts	-12.7022
otorcyclist	-12.7023
▁toil	-12.7045
▁winds	-12.7068
ou	-12.7087
▁seas	-12.7105
▁escalators	-12.7106
lt	-12.7119
inker	-12.7129
them	-12.7137
▁loade	-12.7147
▁tumble	-12.7158
av	-12.7164
▁Patro	-12.7166
lace	-12.717
mas	-12.718
▁Mon	-12.7186
▁bandannas	-12.7198
▁vat	-12.7202
▁planes	-12.7222
oun	-12.7226
▁y	-12.7238
▁Dor	-12.7251
eeps	-12.7255
▁prof	-12.7274
▁Che	-12.733
road	-12.7331
▁ran	-12.7338
▁mounds	-12.7342
▁Ship	-12.7349
olding	-12.7355
▁tongues	-12.7378
rags	-12.7381
▁Cor	-12.7383
▁Color	-12.7391
▁finishe	-12.7403
▁ent	-12.743
▁vie	-12.7431
▁bal	-12.7446
▁podiums	-12.7468
dles	-12.7482
uffe	-12.7484
▁fra	-12.7492
▁topping	-12.7503
exic	-12.7509
▁loud	-12.751
▁sunbathe	-12.7511
▁due	-12.7513
oster	-12.7522
ists	-12.7552
▁cata	-12.7554
irway	-12.7556
du	-12.7588
▁Is	-12.7602
ger	-12.762
dj	-12.7636
▁waterfalls	-12.765
ays	-12.7662
ins	-12.7677
iffe	-12.7694
obe	-12.7702
Mari	-12.7711
rounding	-12.7716
▁grimace	-12.7724
immed	-12.7737
ited	-12.7768
culin	-12.7769
▁sto	-12.7776
▁rippl	-12.7782
▁stylis	-12.7804
olution	-12.7806
▁Fr	-12.7813
overing	-12.7814
ough	-12.7828
▁buttons	-12.783
▁wrapper	-12.7842
esco	-12.7844
ims	-12.7851
iling	-12.7876
▁traveler	-12.7879
ader	-12.7883
▁circles	-12.7884
gym	-12.7892
▁cuddl	-12.7901
sks	-12.7903
Two	-12.7931
▁openings	-12.7933
▁spat	-12.7935
▁cul	-12.7937
igger	-12.7938
bed	-12.794
tanding	-12.7975
▁shooter	-12.7987
▁Fat	-12.7991
trick	-12.7999
eezer	-12.8011
rom	-12.8017
▁necks	-12.8057
heel	-12.8062
▁dir	-12.8074
▁Broad	-12.809
▁ori	-12.8091
▁populat	-12.8117
▁extra	-12.8195
tem	-12.8206
▁fixe	-12.8206
ashore	-12.8218
▁proc	-12.8218
trona	-12.8234
builder	-12.8243
▁Gre	-12.8248
▁tw	-12.8249
▁stil	-12.8262
▁guid	-12.8264
ai	-12.8278
▁controll	-12.832
pid	-12.833
topped	-12.835
row	-12.837
tri	-12.8378
▁Col	-12.8462
nging	-12.8473
avy	-12.8477
▁playful	-12.8478
▁Bir	-12.8488
women	-12.8489
ren	-12.8491
uma	-12.8509
▁tu	-12.8514
amper	-12.8527
lease	-12.8568
oker	-12.8593
bic	-12.8624
▁mar	-12.8626
aintenance	-12.8641
plica	-12.8647
▁sparkl	-12.8662
wag	-12.8669
▁drawings	-12.8686
▁fences	-12.8706
▁gir	-12.8712
child	-12.8747
▁supervis	-12.8777
ances	-12.8785
derate	-12.8796
aches	-12.8812
sts	-12.8821
▁Marl	-12.8833
▁shell	-12.8835
fact	-12.8877
people	-12.889
▁sho	-12.8895
eeding	-12.8905
▁chine	-12.8935
▁Sw	-12.8938
uts	-12.8939
▁fron	-12.896
▁knitt	-12.896
obes	-12.8969
▁sti	-12.8997
oose	-12.9083
▁glide	-12.9085
▁cleav	-12.9094
▁beater	-12.9094
▁croc	-12.9104
rade	-12.9109
ungry	-12.9115
ik	-12.9136
▁Fan	-12.9188
lope	-12.9194
▁Per	-12.9202
bul	-12.9208
rick	-12.9236
▁ly	-12.9243
limbs	-12.9273
dul	-12.9305
▁die	-12.9313
▁fry	-12.9323
inder	-12.9347
▁clipp	-12.9395
illing	-12.9408
ski	-12.9421
▁My	-12.9436
oration	-12.9445
▁gna	-12.9446
affe	-12.9448
▁Guitar	-12.9458
▁gat	-12.9464
zer	-12.9493
chest	-12.9498
arm	-12.9516
gy	-12.9517
win	-12.9527
▁slee	-12.954
used	-12.9545
▁Cook	-12.9547
▁picke	-12.9555
ican	-12.956
mate	-12.956
ket	-12.9573
person	-12.9577
▁loves	-12.9604
sary	-12.9609
▁till	-12.9612
▁med	-12.9628
lls	-12.9635
Oh	-12.965
▁restaurants	-12.9688
two	-12.9713
refighters	-12.9731
ooking	-12.9767
con	-12.9801
▁dies	-12.9815
icles	-12.9834
ield	-12.9839
▁awe	-12.984
aders	-12.9862
ells	-12.9885
earing	-12.9888
▁areas	-12.9904
ands	-12.9919
combs	-12.9922
eedle	-12.9929
law	-12.9937
iding	-12.9949
▁Rail	-12.9952
gin	-12.9979
building	-12.9996
ucks	-13.0018
▁cho	-13.0021
DA	-13.0024
▁platforms	-13.0029
tar	-13.0031
▁pens	-13.0036
li	-13.004
▁retr	-13.0054
aint	-13.006
▁burni	-13.0088
hi	-13.0089
▁voca	-13.0101
testing	-13.0102
acks	-13.0128
ang	-13.0282
ounds	-13.0284
lie	-13.0309
stead	-13.0352
jacket	-13.0368
▁roo	-13.037
lowing	-13.0375
▁ripple	-13.0377
another	-13.0382
▁sole	-13.0391
asse	-13.04
▁coun	-13.0401
▁Prince	-13.0404
ecker	-13.041
▁carri	-13.0472
ively	-13.0474
crop	-13.0484
arcass	-13.0522
around	-13.0522
▁viole	-13.0539
ba	-13.0547
bank	-13.0552
▁sla	-13.056
hakes	-13.0561
arshmallow	-13.0599
▁Hun	-13.061
icing	-13.0617
▁wav	-13.0633
ators	-13.0669
▁observ	-13.0675
▁popula	-13.0681
orange	-13.0683
scape	-13.0693
pens	-13.0707
▁pleas	-13.0738
ddles	-13.0741
▁multit	-13.0746
▁cou	-13.0764
lookers	-13.0784
▁organi	-13.0802
▁forge	-13.0829
ouch	-13.0848
cro	-13.0853
▁intern	-13.0854
▁stan	-13.0855
mpled	-13.0855
ots	-13.087
▁times	-13.088
sed	-13.0905
voi	-13.0934
twe	-13.0954
edge	-13.0965
▁Shi	-13.0982
▁Rev	-13.1022
▁uns	-13.1026
lli	-13.1038
▁den	-13.1069
▁soake	-13.1073
▁homes	-13.1091
atyl	-13.1105
Man	-13.111
▁Haw	-13.1141
pt	-13.1156
▁chute	-13.1176
jects	-13.1181
ept	-13.1203
wling	-13.1214
▁Gi	-13.1224
ise	-13.1268
iking	-13.1281
uss	-13.1301
ctive	-13.1309
till	-13.1324
▁chemi	-13.1371
eat	-13.1375
▁parka	-13.139
▁parti	-13.1411
▁Cl	-13.1423
ws	-13.1425
▁abs	-13.143
mmed	-13.1466
operate	-13.1474
vention	-13.1504
eak	-13.1516
something	-13.1529
ewing	-13.1533
▁Sun	-13.154
▁Live	-13.1572
nders	-13.1587
enches	-13.1643
AH	-13.1668
ngles	-13.1684
ley	-13.1686
fo	-13.169
inde	-13.1692
cura	-13.1694
ved	-13.172
▁schools	-13.1721
ffer	-13.1748
gard	-13.1759
suit	-13.1761
▁bill	-13.1764
play	-13.1807
▁pat	-13.184
▁stro	-13.1846
oise	-13.1855
ra	-13.1862
▁Count	-13.1868
unch	-13.187
enai	-13.1893
nos	-13.1912
ribe	-13.1913
▁Hil	-13.1917
▁Shel	-13.193
use	-13.1931
▁pri	-13.1935
using	-13.1936
ole	-13.1958
▁packe	-13.1967
plane	-13.1975
mod	-13.2016
aid	-13.2078
▁inclin	-13.2086
dogs	-13.2091
▁foo	-13.2128
▁provid	-13.213
▁missi	-13.2137
▁patt	-13.2143
▁alo	-13.2144
ateway	-13.2162
rod	-13.2167
atch	-13.2173
▁Teach	-13.2187
▁cos	-13.2197
ction	-13.2236
lush	-13.224
▁beds	-13.2249
▁Gri	-13.225
horn	-13.2259
▁shots	-13.2298
emporary	-13.2322
▁whis	-13.2327
young	-13.233
▁cann	-13.2331
▁squi	-13.236
how	-13.2365
Fr	-13.2375
sphere	-13.2444
▁allow	-13.2448
ascar	-13.2478
stage	-13.2492
dio	-13.2497
▁Gla	-13.2517
here	-13.2547
▁rollerblade	-13.2551
▁signif	-13.2558
▁til	-13.2563
rathon	-13.2576
boat	-13.2577
pack	-13.2603
praying	-13.2603
ub	-13.2604
ravag	-13.2606
pine	-13.2618
▁humm	-13.2628
▁Sub	-13.2632
▁Par	-13.2679
pies	-13.2721
▁assembl	-13.2727
▁stuc	-13.2737
dan	-13.2738
lov	-13.2751
▁haz	-13.2751
racks	-13.276
▁Ga	-13.2777
▁boating	-13.281
moo	-13.2812
LO	-13.283
▁america	-13.2847
endo	-13.2864
media	-13.287
▁stu	-13.2876
watch	-13.2883
▁Ri	-13.2894
who	-13.2896
mouth	-13.2906
ume	-13.2927
store	-13.2929
tu	-13.2992
▁Out	-13.3006
black	-13.3012
▁Bar	-13.3025
chair	-13.3033
▁fli	-13.3049
ayer	-13.3052
ools	-13.3065
cks	-13.3077
paper	-13.309
▁capital	-13.314
eer	-13.3141
ckle	-13.3142
IS	-13.3147
▁univers	-13.3167
tton	-13.318
▁barbe	-13.3186
full	-13.3193
▁prep	-13.3207
mine	-13.3213
▁sid	-13.3217
run	-13.3227
can	-13.3237
▁gree	-13.3242
acky	-13.3256
hook	-13.3269
▁Fri	-13.3286
▁clo	-13.3291
case	-13.3304
ience	-13.3314
ressed	-13.3315
ipes	-13.3316
undre	-13.3317
bor	-13.3325
pons	-13.3339
about	-13.3353
rly	-13.3355
▁collecti	-13.3361
arding	-13.3367
▁ad	-13.3368
river	-13.3369
att	-13.3373
tops	-13.3381
Read	-13.3387
Bell	-13.3388
crew	-13.3403
shap	-13.3418
atches	-13.3421
ggle	-13.3421
▁slow	-13.3446
while	-13.3456
ril	-13.3462
▁tra	-13.3468
ffles	-13.3472
workers	-13.3474
▁mot	-13.3476
cool	-13.3481
▁Cr	-13.3496
▁packag	-13.3497
gri	-13.3498
sign	-13.3505
ushi	-13.3508
▁pebbl	-13.3511
▁admi	-13.3513
▁Coun	-13.3524
riff	-13.3525
lley	-13.3531
glass	-13.3532
airway	-13.3538
▁nation	-13.3543
▁helm	-13.3546
shot	-13.3548
brick	-13.3554
him	-13.3558
▁flan	-13.3571
che	-13.3577
sea	-13.3585
grassy	-13.3586
▁Roo	-13.3586
▁fil	-13.359
ect	-13.359
▁backpacker	-13.3603
beard	-13.3606
▁Pat	-13.3614
ambu	-13.3616
tize	-13.3617
ilot	-13.3633
▁Shirt	-13.3644
ready	-13.3649
anding	-13.3653
aker	-13.3675
▁Turk	-13.3682
esigner	-13.3706
ews	-13.3715
beside	-13.3738
▁snowing	-13.3746
ffe	-13.3749
face	-13.3759
▁leak	-13.3785
▁peopl	-13.3794
▁rim	-13.3795
oo	-13.3802
▁stumble	-13.3808
▁any	-13.382
ewis	-13.3828
▁soli	-13.3832
verage	-13.3833
tty	-13.3845
unches	-13.3856
ails	-13.3857
▁Fair	-13.3862
hockey	-13.3864
ders	-13.387
kick	-13.3871
lashes	-13.3872
ain	-13.3888
▁consol	-13.3901
iped	-13.3923
ffle	-13.3929
▁mids	-13.3935
lipper	-13.3938
fishing	-13.3946
▁sk	-13.3962
corner	-13.3969
▁Or	-13.3975
dd	-13.3976
▁situat	-13.3977
hard	-13.3985
ctor	-13.4
steps	-13.4002
tard	-13.4007
pose	-13.4017
AN	-13.4023
eeze	-13.4043
zone	-13.4046
pick	-13.4046
par	-13.4054
▁spo	-13.4055
wear	-13.4058
both	-13.4061
paint	-13.4063
▁landscap	-13.4064
▁spac	-13.4079
ngu	-13.41
dresses	-13.4106
Pop	-13.4118
ext	-13.4125
uperman	-13.4129
tain	-13.4143
rush	-13.4145
rchaeologi	-13.4164
▁figur	-13.4166
vest	-13.4167
rafting	-13.4187
dolescent	-13.4192
ripe	-13.4194
smoking	-13.4196
itz	-13.4217
▁devi	-13.4219
sure	-13.4222
cue	-13.4226
pper	-13.4228
▁explo	-13.423
cake	-13.4231
fall	-13.4241
ope	-13.4243
ach	-13.4245
railing	-13.4246
check	-13.4247
vailable	-13.4249
omp	-13.4252
bowl	-13.4255
▁investigat	-13.4256
flying	-13.4256
bull	-13.4264
▁continu	-13.4267
▁towar	-13.4269
crobatic	-13.4269
▁vaca	-13.4284
▁compa	-13.4289
mask	-13.4294
corn	-13.43
eful	-13.4302
erial	-13.4303
orting	-13.4305
shin	-13.4323
float	-13.4328
▁referenc	-13.433
▁pul	-13.4331
ggling	-13.4333
▁ol	-13.4339
cloth	-13.4341
▁teache	-13.4344
ph	-13.4346
bend	-13.435
rocks	-13.4354
sitting	-13.4357
course	-13.4357
shell	-13.436
rtwork	-13.4363
covering	-13.4368
pour	-13.437
climb	-13.4372
tie	-13.4376
ric	-13.4377
itten	-13.4377
cock	-13.4377
▁breasts	-13.4379
umper	-13.4381
pit	-13.4392
scene	-13.4396
gate	-13.4404
ely	-13.4404
acing	-13.4405
▁bout	-13.4406
hibi	-13.4411
▁Lon	-13.4416
print	-13.4418
cards	-13.442
vests	-13.4425
what	-13.4425
urf	-13.4435
▁gro	-13.4435
▁sou	-13.4438
gold	-13.4448
plant	-13.4453
skaters	-13.4454
az	-13.4457
town	-13.4461
cloud	-13.4461
▁tote	-13.4469
▁discus	-13.4477
▁poi	-13.4495
oke	-13.4499
blowing	-13.4499
▁adj	-13.4501
chef	-13.4504
ock	-13.451
spani	-13.4512
drive	-13.4517
post	-13.4519
▁fours	-13.4519
cafe	-13.4529
tte	-13.4531
falling	-13.4544
lantern	-13.455
change	-13.4553
comb	-13.4556
skiing	-13.4557
▁Mus	-13.456
draw	-13.4563
place	-13.4564
checkered	-13.4571
clear	-13.4576
peace	-13.4576
cons	-13.458
ccompanie	-13.4585
spread	-13.4585
Olympi	-13.4585
▁lat	-13.4589
money	-13.4594
stool	-13.4596
medic	-13.4598
Pain	-13.4599
▁dev	-13.4602
populat	-13.4604
Sub	-13.4606
member	-13.461
▁birth	-13.4616
counter	-13.4622
lu	-13.4623
fashion	-13.4623
shield	-13.4627
pro	-13.4627
bald	-13.4632
crank	-13.4633
Live	-13.4635
telephone	-13.4642
factory	-13.4648
▁Spri	-13.4651
Police	-13.4653
surf	-13.4654
America	-13.4657
udi	-13.4662
paddles	-13.4662
visible	-13.4665
journal	-13.4668
maneuver	-13.4668
service	-13.467
monitor	-13.4674
Mac	-13.4675
vaulting	-13.4675
penguin	-13.4676
ancing	-13.4677
dune	-13.4679
dition	-13.4679
world	-13.4679
hooded	-13.4683
dapple	-13.4686
enthusiastic	-13.4686
▁sco	-13.4688
Texas	-13.4688
▁rubb	-13.469
Elmo	-13.4691
transit	-13.4693
occup	-13.4693
piercing	-13.4694
EF	-13.4696
Cafe	-13.4697
IC	-13.4698
South	-13.4698
Seattle	-13.4698
orch	-13.4698
Green	-13.4699
▁orang	-13.4699
aroo	-13.4701
Happy	-13.4702
Conn	-13.471
framed	-13.471
▁purs	-13.4711
Grand	-13.4713
blower	-13.4714
comfortable	-13.4715
maintain	-13.4716
▁ser	-13.4717
level	-13.4719
shingles	-13.472
DS	-13.4723
my	-13.4724
▁physic	-13.4726
picker	-13.4728
ople	-13.4728
skirts	-13.4729
noodles	-13.473
convention	-13.4732
rgan	-13.4733
▁Pops	-13.4733
▁Cel	-13.4733
▁smok	-13.4737
lifted	-13.4738
▁attende	-13.4738
half	-13.4744
cooked	-13.4746
jack	-13.4751
▁Cycl	-13.4754
interest	-13.4758
playing	-13.476
Terri	-13.476
torch	-13.476
Hous	-13.4761
rac	-13.4763
blown	-13.4776
▁bud	-13.4777
axe	-13.4779
cultur	-13.4781
Work	-13.4782
cheek	-13.4784
▁hur	-13.4786
rafts	-13.4788
▁meda	-13.4789
cage	-13.4793
zoo	-13.48
trikes	-13.4802
eager	-13.4806
page	-13.4811
pattern	-13.4812
▁Ru	-13.482
▁antiqu	-13.482
▁arc	-13.483
ethnic	-13.4832
ale	-13.4833
cords	-13.4833
band	-13.4833
AT	-13.4835
swing	-13.4835
roke	-13.4839
▁ham	-13.4839
In	-13.4842
bow	-13.4844
mud	-13.4846
lanterns	-13.4847
▁Stan	-13.4854
broad	-13.4857
bikes	-13.4858
purs	-13.4859
duck	-13.486
udge	-13.4862
parent	-13.4863
umm	-13.4865
rugs	-13.4866
glo	-13.4871
▁coupl	-13.4872
excited	-13.4874
shoes	-13.4877
ehicle	-13.4879
▁vic	-13.4884
ia	-13.4889
▁Russ	-13.489
bones	-13.4892
▁pedd	-13.4893
nature	-13.4894
kel	-13.4895
bit	-13.4896
inner	-13.4897
▁confus	-13.4901
q	-13.4901
▁hel	-13.4903
grown	-13.4908
▁festiv	-13.491
ayak	-13.4912
lamp	-13.4913
▁spectator	-13.4913
▁smel	-13.4916
▁lect	-13.4919
▁goggle	-13.4919
graphy	-13.492
rrible	-13.4924
It	-13.4927
ncil	-13.4929
▁Outdoor	-13.4932
▁olympic	-13.4933
▁colleague	-13.4934
▁figurine	-13.4936
bak	-13.4936
▁exten	-13.4938
laus	-13.4938
▁utensil	-13.4943
▁handlebar	-13.4944
horns	-13.4945
▁adolescen	-13.4945
▁dreadlock	-13.4947
▁binocular	-13.4949
ripple	-13.4949
▁surgeon	-13.4949
▁sneaker	-13.495
▁boot	-13.495
▁pigtail	-13.4951
▁Prote	-13.4951
▁competitor	-13.4951
hin	-13.4953
vation	-13.4954
▁Runner	-13.4957
▁meditat	-13.4957
▁bleacher	-13.4959
ashioned	-13.4961
endor	-13.4962
▁kickbox	-13.4962
ible	-13.4963
▁steak	-13.4964
▁Sport	-13.4964
▁dread	-13.4965
▁saf	-13.4965
zo	-13.4967
▁yawn	-13.4967
tre	-13.4969
fork	-13.4969
▁skydiv	-13.4972
▁twig	-13.4974
▁salut	-13.4976
urn	-13.4978
▁Artis	-13.4981
▁snarl	-13.4982
summer	-13.4983
▁Chev	-13.4986
hopper	-13.4986
▁prize	-13.4988
▁mitten	-13.4989
▁electrici	-13.4991
ggles	-13.4994
hur	-13.4995
▁bubbl	-13.4997
tray	-13.4998
arade	-13.4998
▁spar	-13.5001
sting	-13.5003
▁woodwork	-13.5004
NE	-13.5004
▁recycl	-13.5006
▁firework	-13.5007
Mel	-13.5009
rney	-13.501
▁consum	-13.501
▁massag	-13.5011
▁Biker	-13.5012
ption	-13.5013
rban	-13.5013
▁pizz	-13.5014
▁crea	-13.5015
▁brigh	-13.5017
itize	-13.502
▁comfortabl	-13.5022
▁shopper	-13.5022
▁metalwork	-13.5023
▁Texa	-13.5024
Wo	-13.5027
▁Chris	-13.5031
▁instruction	-13.5032
▁deco	-13.5033
▁africa	-13.5034
rails	-13.5035
▁blindfold	-13.5036
▁differen	-13.5038
raffic	-13.5041
elevision	-13.5042
ournament	-13.5042
▁celebr	-13.5042
▁husk	-13.5043
ountain	-13.5043
▁happ	-13.5043
pstairs	-13.5044
controll	-13.5044
▁dalmati	-13.5045
▁abandon	-13.5045
cantily	-13.5047
axophone	-13.5047
heepdog	-13.5048
▁jeweler	-13.5048
urgeons	-13.5048
▁facilit	-13.5048
attoo	-13.5048
andwich	-13.5048
imilar	-13.505
onald	-13.5051
▁exhib	-13.5051
lympics	-13.5051
ystanders	-13.5052
▁practi	-13.5052
▁gentle	-13.5053
fficers	-13.5053
leeping	-13.5053
pair	-13.5053
bservers	-13.5053
ailboat	-13.5054
arbecue	-13.5054
foli	-13.5054
rchestra	-13.5054
articipants	-13.5055
emonstrat	-13.5055
assersby	-13.5055
plashing	-13.5056
inivan	-13.5056
achshund	-13.5056
dentical	-13.5056
hysical	-13.5056
urniture	-13.5056
ifferent	-13.5056
uggage	-13.5056
roduce	-13.5056
estival	-13.5056
emorial	-13.5056
raffiti	-13.5057
reparing	-13.5057
arrior	-13.5057
arnival	-13.5057
ncredibl	-13.5057
visib	-13.5057
oorway	-13.5057
elicopter	-13.5057
▁eyeglass	-13.5058
▁respect	-13.5058
▁physi	-13.5058
atigue	-13.5058
estaurant	-13.5058
eflections	-13.5058
olunteer	-13.5058
ippie	-13.5059
▁brunet	-13.5059
▁establish	-13.5059
iolinist	-13.5059
ntertainer	-13.5059
eligious	-13.5059
eighborhood	-13.5059
ibrary	-13.5059
▁advertise	-13.5059
▁Confe	-13.5059
ifier	-13.5059
▁ecstatic	-13.5059
araoke	-13.5059
▁religio	-13.5059
template	-13.5059
ewelry	-13.5059
egetable	-13.5059
omputer	-13.5059
famili	-13.5059
tographs	-13.506
uarterback	-13.506
▁certifi	-13.506
▁harmoni	-13.506
olleyball	-13.506
xpress	-13.506
niform	-13.506
cident	-13.506
fection	-13.506
cksmith	-13.506
arriage	-13.506
iolin	-13.506
appily	-13.506
onference	-13.506
uppies	-13.5061
ducts	-13.5061
▁sync	-13.5061
avelin	-13.5061
moothi	-13.5061
elaxing	-13.5061
njured	-13.5061
niversa	-13.5061
quil	-13.5062
▁govern	-13.5062
▁graph	-13.5062
lassic	-13.5062
iberty	-13.5062
occe	-13.5063
grapher	-13.5063
LE	-13.5063
▁twent	-13.5063
polis	-13.5063
▁custom	-13.5064
▁Reg	-13.5064
zzles	-13.5064
olfer	-13.5064
zine	-13.5064
ticul	-13.5064
▁intens	-13.5065
casters	-13.5065
uction	-13.5065
ompeting	-13.5066
pression	-13.5066
▁vegeta	-13.5066
haki	-13.5067
col	-13.5067
ctures	-13.5067
▁accom	-13.5067
Ball	-13.5068
▁milita	-13.5068
offee	-13.5068
eporter	-13.5069
SW	-13.507
Pod	-13.507
▁custo	-13.5071
▁shelv	-13.5071
eight	-13.5071
▁chops	-13.5071
▁surro	-13.5072
▁scrubb	-13.5072
ustaches	-13.5072
fessional	-13.5072
enj	-13.5072
▁diag	-13.5073
uilding	-13.5073
guar	-13.5074
eenact	-13.5074
Fish	-13.5075
▁scree	-13.5076
ography	-13.5076
▁subm	-13.5076
igeon	-13.5077
Bar	-13.5077
▁autom	-13.5077
▁mosqu	-13.5077
▁urina	-13.5077
morous	-13.5078
uckle	-13.5078
urround	-13.5079
lions	-13.508
▁demo	-13.508
serv	-13.5081
Pad	-13.5082
rpent	-13.5083
▁Bru	-13.5085
bunc	-13.5085
Donald	-13.5086
▁quarter	-13.5086
imp	-13.5086
mpire	-13.5087
lizing	-13.5089
▁Firef	-13.5089
uatt	-13.509
olley	-13.5092
hurch	-13.5092
▁Christ	-13.5093
▁Moh	-13.5094
▁perf	-13.5094
▁belonging	-13.5095
▁opp	-13.5096
oscope	-13.5097
xim	-13.5098
ravel	-13.5099
▁coloni	-13.51
rizon	-13.51
wheels	-13.5101
splayed	-13.5101
acket	-13.5102
▁Arc	-13.5102
▁bugg	-13.5102
▁poo	-13.5102
▁radi	-13.5102
otato	-13.5103
▁champ	-13.5105
▁domin	-13.5105
We	-13.5108
▁whistl	-13.5108
pads	-13.5113
▁chun	-13.5114
▁Bride	-13.5114
▁headphone	-13.5114
▁Lu	-13.5115
Thr	-13.5117
lette	-13.5117
▁Gu	-13.512
egan	-13.5124
▁syn	-13.5125
▁lectur	-13.5125
eagulls	-13.5126
bour	-13.5128
oalie	-13.5128
▁Compa	-13.5129
pain	-13.5133
igar	-13.5135
cientist	-13.5137
▁decoration	-13.5137
▁identi	-13.5137
asino	-13.5137
eria	-13.5138
▁wrest	-13.514
▁Pol	-13.514
▁Fest	-13.5144
writ	-13.5148
van	-13.5148
rism	-13.5149
vous	-13.5149
▁calli	-13.5149
bbin	-13.5149
perime	-13.515
▁grim	-13.5153
gency	-13.5153
atula	-13.5154
open	-13.5154
phan	-13.5155
ketch	-13.5155
chi	-13.5158
fere	-13.5158
▁circl	-13.5159
rucks	-13.5159
assengers	-13.5159
▁lev	-13.5162
errain	-13.5163
▁Pri	-13.5168
si	-13.5168
▁rollerskate	-13.5171
▁mono	-13.5175
▁scrape	-13.5178
ersey	-13.5178
▁boul	-13.5179
itizen	-13.5179
▁Em	-13.5179
▁Harle	-13.5181
▁mache	-13.5181
pset	-13.5184
omet	-13.5184
ines	-13.5185
▁grav	-13.5186
▁motorc	-13.5186
easant	-13.5188
▁Pic	-13.519
bush	-13.519
pture	-13.5191
ploye	-13.5192
▁Pho	-13.5193
bath	-13.5194
▁appar	-13.5195
arate	-13.5196
▁Hall	-13.5198
▁Eas	-13.5198
▁u	-13.5203
ustin	-13.5206
laught	-13.5207
tual	-13.5208
lee	-13.5208
▁Sta	-13.5208
▁combin	-13.5209
▁je	-13.5212
helme	-13.5212
arefoot	-13.5215
▁tech	-13.5216
bies	-13.5217
▁spani	-13.5217
▁Para	-13.5217
gro	-13.5217
▁moth	-13.5218
▁confusi	-13.5218
Rad	-13.5219
urq	-13.5219
▁feat	-13.5219
itating	-13.522
iewed	-13.5224
▁coff	-13.5226
appearing	-13.5227
dough	-13.5228
organ	-13.5228
▁graf	-13.5228
▁transf	-13.523
umps	-13.5233
▁Dress	-13.5234
▁folder	-13.5235
▁qui	-13.5238
atching	-13.5239
▁Hot	-13.5241
ehicles	-13.5241
pod	-13.5243
ikin	-13.5247
mart	-13.5255
▁propell	-13.5257
▁adv	-13.5257
peakers	-13.5261
▁enth	-13.5272
illage	-13.5273
encil	-13.528
▁disp	-13.528
▁found	-13.5282
blo	-13.5285
iffin	-13.5285
Ri	-13.5286
mb	-13.5288
▁warmer	-13.529
Bla	-13.529
pily	-13.5293
▁earl	-13.5305
awning	-13.5307
▁china	-13.5308
nics	-13.5311
▁emer	-13.5315
xes	-13.5316
▁Fore	-13.5316
▁esc	-13.5323
▁basemen	-13.5325
▁War	-13.5325
pie	-13.5328
bu	-13.5336
▁Flo	-13.5338
stry	-13.5341
▁wedd	-13.5344
▁acce	-13.5345
ease	-13.5349
xe	-13.535
elf	-13.5358
Pr	-13.5363
▁Peo	-13.5365
Le	-13.5371
lph	-13.5372
rkas	-13.5376
▁crushe	-13.5378
▁loo	-13.5378
▁mout	-13.5378
▁mis	-13.538
▁seam	-13.5389
tative	-13.5391
▁dine	-13.54
ickets	-13.54
itti	-13.5404
eers	-13.5408
standing	-13.5411
▁plug	-13.5415
▁dart	-13.5417
ute	-13.5419
anister	-13.5428
▁Op	-13.5429
iner	-13.5441
zes	-13.5441
otion	-13.5441
▁Cyclo	-13.5446
▁exer	-13.5449
creaming	-13.5449
▁imme	-13.5454
▁Domin	-13.5455
ody	-13.546
▁blaz	-13.5461
trave	-13.5465
iel	-13.5469
▁attra	-13.5475
alize	-13.5483
ayaking	-13.5483
admi	-13.5484
▁bleache	-13.5486
far	-13.5486
tention	-13.5487
▁outfield	-13.5488
▁streamer	-13.5492
olic	-13.5504
▁Bare	-13.5507
ards	-13.552
▁spect	-13.553
owel	-13.5536
▁partial	-13.5538
blaz	-13.5547
ached	-13.5547
site	-13.5548
▁slight	-13.5548
lac	-13.5549
▁root	-13.555
▁Oh	-13.5553
▁Olympi	-13.5554
limber	-13.5554
▁bund	-13.5557
▁spe	-13.5557
▁wake	-13.5563
ashed	-13.5563
▁belong	-13.5563
▁beak	-13.5568
tially	-13.5577
▁graduat	-13.558
bular	-13.5588
▁suppl	-13.5599
ost	-13.5613
▁checker	-13.5623
training	-13.563
late	-13.5631
scu	-13.5636
pic	-13.5637
tags	-13.5645
wee	-13.5647
▁Fin	-13.5649
perate	-13.5654
pening	-13.5673
▁min	-13.5675
ront	-13.568
tw	-13.5695
▁fest	-13.5708
sia	-13.571
▁Pit	-13.572
gs	-13.5726
rted	-13.573
lbo	-13.5731
▁Arch	-13.5744
nion	-13.5747
▁snows	-13.5748
hous	-13.575
▁Pr	-13.5755
▁socializ	-13.5757
yhound	-13.5758
▁sands	-13.5763
hills	-13.5763
▁sham	-13.5767
hibit	-13.5767
▁furn	-13.577
ambo	-13.5776
oli	-13.578
handi	-13.5787
▁Orc	-13.5794
▁coup	-13.5798
fielder	-13.5804
▁swimmi	-13.5832
▁cig	-13.5835
▁edg	-13.5839
▁excavati	-13.584
lowers	-13.5842
ssy	-13.5849
▁san	-13.5853
▁pow	-13.5855
yak	-13.586
ales	-13.5867
▁youngster	-13.5868
bles	-13.5872
oline	-13.5875
▁sprink	-13.5877
aps	-13.5883
rec	-13.5902
stra	-13.5907
lete	-13.5918
vie	-13.5923
ums	-13.5924
tector	-13.5937
boarders	-13.5937
racing	-13.5953
serie	-13.5957
hooping	-13.5971
pieces	-13.5977
antic	-13.5993
▁Ex	-13.5993
oul	-13.5994
▁lob	-13.5997
rims	-13.6009
niz	-13.6009
rish	-13.6018
▁cel	-13.6024
erma	-13.6043
Ga	-13.6046
▁Wee	-13.6048
jac	-13.6056
▁footbrid	-13.6079
tary	-13.6093
▁carous	-13.6121
anne	-13.6127
▁inspecti	-13.6133
efs	-13.6133
int	-13.6143
▁Bicycl	-13.6145
▁am	-13.616
uge	-13.6177
oks	-13.6183
enses	-13.6189
▁Swimm	-13.6191
▁Hal	-13.6192
angle	-13.6193
▁pian	-13.6194
vat	-13.6206
arget	-13.6208
ifts	-13.6212
usage	-13.6232
▁Balle	-13.6256
ific	-13.6259
owntown	-13.6263
▁deb	-13.6282
ories	-13.6285
▁cons	-13.6289
nse	-13.6311
▁paral	-13.6311
phones	-13.6311
coole	-13.633
▁Sch	-13.6332
cur	-13.6342
fig	-13.6343
▁Yo	-13.6354
para	-13.6381
ner	-13.6391
▁ban	-13.6393
izing	-13.6396
ossing	-13.6409
▁exce	-13.6425
rker	-13.6433
pilot	-13.6461
Ca	-13.6467
rded	-13.6471
wo	-13.6478
▁comp	-13.6488
▁butterfl	-13.65
iting	-13.6501
read	-13.6534
screw	-13.6559
ibit	-13.6564
erby	-13.6583
urkey	-13.6614
▁violi	-13.6623
mbs	-13.6638
▁reve	-13.664
▁intent	-13.6647
▁dug	-13.6653
alike	-13.6679
▁tooth	-13.6685
▁pea	-13.6688
ust	-13.6689
eaming	-13.6702
urb	-13.6702
dash	-13.6708
nuts	-13.6717
mical	-13.6765
oung	-13.6772
carts	-13.6776
lake	-13.6799
amm	-13.6803
ations	-13.6808
▁aud	-13.6811
pace	-13.6819
orse	-13.6819
borne	-13.6847
anda	-13.6854
▁gog	-13.6856
sual	-13.6864
ream	-13.6879
tripe	-13.6882
aughter	-13.6884
cap	-13.6886
sions	-13.6918
▁bene	-13.6941
onverse	-13.6942
▁Bask	-13.6949
▁Ten	-13.6951
▁grounds	-13.6953
▁fal	-13.6957
strange	-13.6958
ury	-13.6965
sta	-13.6966
▁outf	-13.6981
▁rela	-13.6984
abrado	-13.7009
inters	-13.7012
rso	-13.7054
mon	-13.7068
▁conver	-13.7076
▁eg	-13.7079
vern	-13.709
ulting	-13.7092
▁doz	-13.7114
gulls	-13.7115
▁fris	-13.7122
▁doo	-13.7127
▁parad	-13.7127
▁orch	-13.716
▁doze	-13.7163
ME	-13.7166
sters	-13.7183
▁footballer	-13.7192
▁Runn	-13.7201
▁locks	-13.7202
▁lou	-13.7203
dian	-13.7212
▁crop	-13.7223
▁kne	-13.7224
▁bri	-13.7231
riz	-13.7239
urger	-13.7259
bet	-13.7269
aying	-13.7288
sur	-13.7289
reco	-13.7291
gre	-13.7298
Cent	-13.7307
iness	-13.732
laces	-13.7322
▁backg	-13.733
▁gent	-13.7332
▁drags	-13.7364
atic	-13.738
▁Cri	-13.7386
▁pudd	-13.7407
pitalize	-13.7411
oing	-13.7418
ght	-13.742
▁canop	-13.7421
atter	-13.7427
ager	-13.744
rect	-13.7447
bands	-13.7493
rried	-13.7499
▁sweats	-13.7505
▁placi	-13.7508
En	-13.7513
am	-13.7536
ision	-13.7557
stract	-13.7562
vision	-13.7571
▁Gra	-13.7575
You	-13.7604
umes	-13.7613
utside	-13.762
destr	-13.7626
group	-13.7634
aster	-13.7634
nish	-13.7637
▁Dis	-13.764
▁Bas	-13.7651
axi	-13.7667
▁mod	-13.7668
gui	-13.7679
mper	-13.7682
hre	-13.7696
▁Cir	-13.7697
▁alig	-13.7702
panel	-13.773
ht	-13.7744
▁appe	-13.7748
▁Wa	-13.7759
spark	-13.7761
▁presen	-13.7832
cing	-13.7839
▁pud	-13.7841
lig	-13.7848
▁containi	-13.7853
qui	-13.7855
lder	-13.7857
dye	-13.7861
cameras	-13.7865
street	-13.7896
Fran	-13.7956
alled	-13.7962
▁Ei	-13.7983
▁rollerblad	-13.7989
▁und	-13.7997
▁impo	-13.8011
▁tran	-13.8019
real	-13.8029
▁Du	-13.8038
rou	-13.8049
▁Cy	-13.8056
▁movi	-13.8072
outh	-13.8077
▁assemble	-13.8085
▁age	-13.814
compani	-13.8148
thers	-13.8157
ru	-13.8159
▁shu	-13.8169
rplane	-13.8181
Be	-13.823
▁overw	-13.8249
ostume	-13.8253
astry	-13.8272
nic	-13.8272
ord	-13.8275
Th	-13.829
roup	-13.8297
▁mea	-13.8319
rit	-13.8343
feed	-13.8386
▁ruin	-13.8387
tening	-13.8387
▁histori	-13.8388
lpin	-13.8401
▁To	-13.8407
arching	-13.8415
orize	-13.8415
olv	-13.8443
shots	-13.8471
walking	-13.8472
fr	-13.851
ores	-13.8526
▁eas	-13.8548
cul	-13.8559
▁col	-13.8572
pti	-13.8606
▁blonds	-13.8618
▁frees	-13.8622
sleeves	-13.8626
▁rem	-13.8642
▁Swi	-13.8648
olf	-13.8659
▁All	-13.866
▁distan	-13.8662
bi	-13.8728
▁embr	-13.8734
ocks	-13.8755
ites	-13.876
ail	-13.8771
order	-13.8779
lade	-13.8784
epi	-13.881
▁Chee	-13.8836
onic	-13.8839
ret	-13.8845
usband	-13.8855
illi	-13.8865
hav	-13.8951
there	-13.8965
hanging	-13.8979
▁ab	-13.8982
▁Wai	-13.899
iti	-13.8994
lea	-13.9019
tis	-13.9055
iscu	-13.9081
lapse	-13.9082
task	-13.9085
tent	-13.9093
match	-13.9122
ips	-13.9144
▁baggi	-13.9144
ndo	-13.9144
eta	-13.9145
▁cupp	-13.9163
▁lamps	-13.9205
iddle	-13.9218
▁ci	-13.9221
afts	-13.9228
▁toll	-13.9244
▁cau	-13.9249
▁Shep	-13.9261
▁angr	-13.9271
operat	-13.9276
dic	-13.9296
icy	-13.9316
culp	-13.9321
tru	-13.933
▁rece	-13.9337
ways	-13.9348
elli	-13.9378
Po	-13.9431
▁driv	-13.9465
▁Sho	-13.9481
iled	-13.9513
overs	-13.9523
ush	-13.9524
ounding	-13.9548
hal	-13.9549
termin	-13.9551
rate	-13.9598
sand	-13.9605
ware	-13.9616
ys	-13.9638
nterior	-13.9676
yant	-13.9684
