<unk>	0
<s>	0
</s>	0
.	-2.68278
▁eine	-3.14657
m	-3.26375
▁Ein	-3.40022
▁in	-3.55527
▁mit	-3.85231
,	-3.85457
▁und	-3.85605
▁auf	-3.86899
▁Mann	-3.98829
▁einer	-4.15216
n	-4.19527
▁ein	-4.24891
▁Eine	-4.27001
▁der	-4.53843
▁Frau	-4.60785
s	-4.62846
▁	-4.71186
▁die	-4.75875
▁Zwei	-4.88424
▁einen	-4.88494
▁an	-4.88864
▁im	-4.91919
-	-5.13298
r	-5.17235
▁von	-5.18606
en	-5.21619
▁sich	-5.22021
▁Mädchen	-5.27935
▁dem	-5.28611
▁zu	-5.3295
▁vor	-5.36293
▁steht	-5.4693
▁Männer	-5.51591
e	-5.53024
▁den	-5.53328
▁Hund	-5.55662
▁sitzt	-5.56046
▁Junge	-5.56925
▁Straße	-5.68468
▁während	-5.71826
▁Gruppe	-5.74459
▁hält	-5.77467
▁spielt	-5.7754
▁seine	-5.8115
▁bei	-5.83437
▁Hemd	-5.84772
▁über	-5.86578
▁Personen	-5.90412
▁das	-5.93401
em	-5.95547
▁blauen	-6.05927
▁Frauen	-6.06589
▁ist	-6.08241
▁neben	-6.0874
▁Kind	-6.08759
▁aus	-6.09265
▁ihre	-6.09884
▁roten	-6.1016
▁weißen	-6.10386
▁Menschen	-6.1046
▁stehen	-6.11273
▁durch	-6.11859
▁sitzen	-6.13019
t	-6.14632
▁spielen	-6.1466
▁am	-6.14809
▁Drei	-6.16264
▁Wasser	-6.16895
er	-6.19415
▁geht	-6.20015
▁trägt	-6.20936
▁fährt	-6.22611
▁um	-6.22835
▁Kinder	-6.23522
▁Person	-6.31194
▁kleines	-6.33312
▁macht	-6.33607
▁springt	-6.35916
▁zwei	-6.37815
▁entlang	-6.38674
▁kleiner	-6.4043
▁schwarzen	-6.4097
▁Leute	-6.45247
▁gehen	-6.53895
▁etwas	-6.58385
▁großen	-6.62328
▁Oberteil	-6.62756
▁Hand	-6.63579
▁Fahrrad	-6.69634
▁junge	-6.71277
▁Mehrer	-6.7332
▁grünen	-6.73749
▁Strand	-6.74925
▁läuft	-6.75352
▁sind	-6.75942
▁Der	-6.76169
▁Jacke	-6.76749
▁für	-6.77797
▁Hintergrund	-6.778
▁Ball	-6.77829
▁Luft	-6.79686
▁Freien	-6.80978
▁hat	-6.81215
▁schaut	-6.82505
▁T	-6.83413
▁anderen	-6.83445
▁Jungen	-6.83766
▁Kleidung	-6.83846
▁hinter	-6.85379
▁junger	-6.86686
▁nach	-6.88077
▁andere	-6.88795
▁Tisch	-6.9275
▁Gebäude	-6.9328
▁gelben	-6.94621
▁Schnee	-6.96372
▁weiße	-6.96917
▁Hut	-6.97295
▁sie	-6.9752
▁kleine	-6.9832
▁Hunde	-6.98447
▁Nähe	-6.99567
▁wird	-6.99567
Shirt	-6.99773
▁Kamera	-7.01466
▁hoch	-7.0242
▁sein	-7.02645
▁vorbei	-7.03524
▁Menschenmenge	-7.03525
▁Gras	-7.0379
▁kleinen	-7.04019
▁schwarzer	-7.05187
▁ihr	-7.06566
▁Boden	-7.07088
▁schwarz	-7.08271
▁unter	-7.08881
▁Die	-7.1013
▁rennt	-7.12828
▁Vier	-7.15221
▁Gitarre	-7.18957
▁Kleid	-7.20242
▁zusammen	-7.21448
▁er	-7.23171
▁Feld	-7.24066
es	-7.25702
▁Bühne	-7.27097
▁herum	-7.27218
▁älterer	-7.27555
▁Brille	-7.28811
▁fahren	-7.29246
▁Stadt	-7.29489
▁Kopf	-7.30202
▁draußen	-7.30207
▁blaue	-7.3026
▁Foto	-7.30289
▁rote	-7.31496
▁Gehweg	-7.31623
▁gekleidete	-7.32596
▁Park	-7.33072
▁Jeans	-7.3414
▁sehen	-7.34195
▁hinunter	-7.36365
▁dabei	-7.36372
▁des	-7.37011
▁blickt	-7.37119
▁braunen	-7.41514
▁liegt	-7.41749
▁weißer	-7.41968
▁versucht	-7.42139
▁Baby	-7.4233
▁arbeitet	-7.43334
▁Bank	-7.44544
▁Essen	-7.44545
▁Skateboard	-7.45122
▁wie	-7.45341
▁tragen	-7.45375
▁große	-7.46487
▁laufen	-7.46673
▁Dame	-7.46762
▁als	-7.4701
▁ältere	-7.47057
▁Paar	-7.47437
▁blau	-7.49402
▁machen	-7.49535
▁schauen	-7.49535
▁lächelt	-7.49962
▁rot	-7.51814
▁brauner	-7.52165
▁ihm	-7.55238
▁orangefarbenen	-7.55543
▁Bürgersteig	-7.5569
in	-7.56185
▁Hose	-7.56952
▁zeigt	-7.58927
▁Wand	-7.59624
▁arbeiten	-7.59739
▁junges	-7.59841
▁sieht	-7.59858
▁unterhalten	-7.60336
▁spricht	-7.60342
▁ab	-7.60706
▁liest	-7.60808
▁drei	-7.61766
▁Fußball	-7.622
▁Boot	-7.62601
▁halten	-7.62636
▁blonde	-7.63021
▁Haaren	-7.64535
▁Auto	-7.66048
▁Pferd	-7.66593
▁Sonnenbrille	-7.66716
ten	-7.68043
▁schwarze	-7.68957
▁rosa	-7.68995
▁S	-7.69571
▁Tag	-7.70776
▁Gesicht	-7.71677
▁Helm	-7.72547
▁Hosen	-7.72556
▁Bild	-7.73754
▁Felsen	-7.74103
▁weiß	-7.74691
▁Baum	-7.75057
▁singt	-7.75154
▁grauen	-7.75497
▁ihnen	-7.76567
▁„	-7.77383
▁Sand	-7.77419
▁Mantel	-7.77948
▁Mikrofon	-7.78516
▁posiert	-7.79662
▁darauf	-7.80241
▁Fenster	-7.80822
▁klettert	-7.81406
▁Wald	-7.81985
▁führt	-7.81995
▁Shorts	-7.82028
▁befindet	-7.82589
▁Band	-7.8322
▁Restaurant	-7.84022
▁ge	-7.86326
▁grüne	-7.86393
▁Spielzeug	-7.87025
▁wirft	-7.87493
▁Arbeiter	-7.87526
▁Meer	-7.87973
▁blauer	-7.88708
▁Weg	-7.88712
“	-7.88735
▁Das	-7.88858
▁sehr	-7.89354
▁gekleideter	-7.89823
▁rennen	-7.90117
oder	-7.90138
ung	-7.90176
▁Pullover	-7.90624
▁Raum	-7.91261
▁Motorrad	-7.92622
▁Holz	-7.92918
▁schwarzem	-7.9312
ischen	-7.93671
▁isst	-7.93884
▁Haar	-7.9427
▁Anzug	-7.94553
▁Wiese	-7.95221
▁Berg	-7.95531
▁Spieler	-7.95755
▁mehrere	-7.95899
f	-7.96349
▁wartet	-7.96578
▁anderer	-7.96858
▁essen	-7.97054
▁langen	-7.97219
▁Bluse	-7.97952
▁roter	-7.97983
▁einige	-7.9848
▁werden	-7.98647
▁viele	-7.98662
▁Trikot	-7.99112
▁posieren	-7.99346
▁springen	-7.99407
kleidung	-7.99616
▁gestreiften	-8.00965
▁Spiel	-8.01359
▁U	-8.01443
▁Oberkörper	-8.01473
▁bunte	-8.02168
▁asiatische	-8.02284
a	-8.02739
▁belebte	-8.02918
▁zw	-8.03537
▁Hügel	-8.03648
den	-8.03649
▁Stuhl	-8.0365
▁Handy	-8.03714
▁voller	-8.03757
▁Kindern	-8.03845
▁Fünf	-8.04383
▁Viele	-8.044
▁Schild	-8.05027
▁Blumen	-8.06064
▁Buch	-8.06636
▁betrachtet	-8.07379
▁warten	-8.07382
l	-8.07591
o	-8.10112
▁tanzen	-8.10348
▁schläft	-8.11256
▁zum	-8.11288
▁Stock	-8.1205
▁Arm	-8.12084
▁Mütze	-8.12109
▁zieht	-8.12118
▁Männern	-8.12824
bereitet	-8.12909
▁oben	-8.12992
▁Bauarbeiter	-8.13651
▁ver	-8.13819
▁Fluss	-8.14383
▁lehnt	-8.14469
▁reitet	-8.14489
d	-8.14639
▁braun	-8.1587
▁Kleinkind	-8.15893
▁Rennen	-8.16025
▁beobachtet	-8.16115
▁Händen	-8.16395
▁alter	-8.16681
▁Maul	-8.16943
▁miteinander	-8.17417
▁Rucksack	-8.17789
▁Radfahrer	-8.1795
i	-8.18027
▁Bäumen	-8.18243
▁tanzt	-8.18636
▁paar	-8.18679
▁vo	-8.18976
▁Leuten	-8.19371
▁See	-8.20236
▁es	-8.21452
▁Küche	-8.221
▁befinden	-8.22984
▁schiebt	-8.22984
▁schneebedeckte	-8.22984
▁Football	-8.23016
▁männliche	-8.2309
weißer	-8.23395
h	-8.23505
k	-8.23592
▁gelbe	-8.23876
▁haben	-8.23911
▁braune	-8.24153
▁bereit	-8.24459
▁Schwimmbecken	-8.24799
▁be	-8.25327
de	-8.25337
▁gegen	-8.25692
▁Seite	-8.2601
▁orangefarbene	-8.26884
▁Welle	-8.26959
▁Zaun	-8.2744
▁Fuß	-8.27523
▁Familie	-8.27544
ige	-8.28392
▁umgeben	-8.28481
▁Treppe	-8.28822
▁kurzen	-8.29429
▁Rücken	-8.29532
▁Zug	-8.30514
▁lächeln	-8.30578
der	-8.31192
▁karierte	-8.31362
▁Reihe	-8.32293
▁verkauft	-8.32294
▁versammelt	-8.32299
▁Diese	-8.32694
▁Seil	-8.33687
▁Geschäft	-8.33797
p	-8.33897
▁trinkt	-8.34264
▁freie	-8.34847
ge	-8.35095
▁Markt	-8.35243
▁Bus	-8.36147
▁Schwarz	-8.36275
▁wo	-8.3642
▁ihn	-8.36736
▁Haus	-8.368
▁rosafarbenen	-8.37043
▁hängt	-8.37319
▁schneidet	-8.37346
▁gekleidet	-8.3783
▁herunter	-8.37929
▁gerade	-8.38322
Bahn	-8.38448
u	-8.39314
▁telefoniert	-8.39367
▁Musik	-8.4004
g	-8.40075
weißen	-8.40416
▁Zeitung	-8.40446
▁spazieren	-8.40481
▁Wagen	-8.40484
▁fangen	-8.41484
▁malt	-8.41488
▁Gewässer	-8.41562
▁Metall	-8.41773
▁nimmt	-8.42643
▁grün	-8.43082
▁Basketball	-8.43485
▁Sprung	-8.43645
▁schwimmt	-8.43661
▁sonnige	-8.43674
▁teil	-8.43796
▁zur	-8.44036
▁Zuschauer	-8.44354
▁Geländer	-8.44884
▁Autos	-8.45104
▁Fußballspieler	-8.45138
▁großer	-8.45149
▁Hände	-8.45479
▁E	-8.45573
▁graue	-8.45765
▁Brücke	-8.45856
▁Kopfbedeckung	-8.45856
▁blicken	-8.45882
▁schlägt	-8.45891
▁Bart	-8.46627
▁Mutter	-8.46981
▁Teenager	-8.47063
▁Weste	-8.47762
▁Tasche	-8.4778
▁K	-8.48026
▁Himmel	-8.48116
▁Publikum	-8.48116
▁fliegt	-8.48139
▁Richtung	-8.48679
▁hinauf	-8.48988
▁Papier	-8.4919
▁kämpfen	-8.49265
▁Platz	-8.49266
▁hebt	-8.49302
▁aussehende	-8.49556
▁Gebäudes	-8.51594
▁gelb	-8.51627
▁Graffiti	-8.51799
▁dunklen	-8.5192
▁Auf	-8.53048
▁Erwachsene	-8.53137
▁hohen	-8.53523
▁gestreifte	-8.53771
▁Hof	-8.5402
sch	-8.55221
▁verschiedene	-8.55622
▁da	-8.55794
▁mittlere	-8.56454
▁zuschauen	-8.56494
▁vier	-8.56632
▁Mitte	-8.56794
▁alte	-8.57123
▁Schirm	-8.57128
▁asiatischer	-8.5752
▁Schaukel	-8.57733
▁Stein	-8.57985
▁Hemden	-8.58689
▁davon	-8.58969
b	-8.59049
▁Baseball	-8.59825
▁Decke	-8.60043
▁Computer	-8.60056
▁Sport	-8.60138
▁blondes	-8.60245
▁Mauer	-8.60252
▁dunkelhäutige	-8.60252
▁genießt	-8.60252
▁nackte	-8.60252
▁überqueren	-8.60252
▁Eis	-8.60705
▁Schal	-8.60778
▁Stück	-8.61125
▁Jemand	-8.6155
▁M	-8.61552
▁Frisbee	-8.61554
▁Spielplatz	-8.61555
st	-8.6223
▁F	-8.62555
▁benutzt	-8.62866
▁lacht	-8.62867
▁Rock	-8.62894
▁tritt	-8.63005
▁Augen	-8.6307
▁In	-8.63296
▁Kunststück	-8.6383
▁Dach	-8.64208
▁Pool	-8.6422
▁Bier	-8.64238
▁Alters	-8.64338
halb	-8.64621
▁Zuschauern	-8.64676
▁Mannes	-8.64689
▁Blick	-8.65544
▁Rasen	-8.65545
▁Sofa	-8.65551
▁Menge	-8.65551
▁fest	-8.65574
▁nahe	-8.65731
▁öffentliche	-8.66343
▁Shirt	-8.66525
▁Zigarette	-8.66921
▁unterhält	-8.66927
▁städtische	-8.66952
ie	-8.67575
▁Mensch	-8.67752
▁lila	-8.68177
▁zusieht	-8.6831
▁Nummer	-8.6833
▁Mannschaft	-8.68418
▁Baseballspieler	-8.6842
▁alten	-8.68644
▁A	-8.68843
▁Straßen	-8.69125
▁Ufer	-8.69706
▁Regen	-8.69709
▁gleich	-8.69718
▁zuschaut	-8.69792
▁nebeneinander	-8.69803
▁An	-8.69988
▁her	-8.70739
▁Sonne	-8.71046
▁bedeckt	-8.71062
▁lässt	-8.71193
▁zusehen	-8.7132
y	-8.71412
fahrer	-8.71932
▁Typ	-8.72024
▁offene	-8.72284
▁kurz	-8.72404
▁Surfer	-8.72596
▁Gegenstand	-8.72596
▁nicht	-8.726
▁nachts	-8.72609
▁voll	-8.72838
▁großes	-8.73112
▁Tor	-8.73886
▁Gemüse	-8.74051
▁versuchen	-8.74066
▁Grill	-8.74068
▁Mund	-8.74074
▁Bett	-8.74075
▁hinten	-8.74099
▁orangen	-8.74102
▁Basketballspiel	-8.74375
▁Fotos	-8.75208
ing	-8.75409
▁Glas	-8.75533
anzug	-8.75554
▁beobachten	-8.75559
▁scheint	-8.75559
▁Ski	-8.75565
igen	-8.75628
▁gibt	-8.75675
▁treten	-8.75799
▁Musiker	-8.76116
▁weg	-8.76233
▁orange	-8.7657
▁Flagge	-8.77098
▁Wanderer	-8.77102
▁trinken	-8.77109
c	-8.7741
▁Outfit	-8.77773
▁Uniform	-8.78082
ü	-8.78192
weiße	-8.78588
▁Schürze	-8.78596
▁Feuer	-8.78606
▁fängt	-8.78613
▁raucht	-8.78613
▁kniet	-8.78613
▁Stange	-8.78632
▁führen	-8.79032
▁beide	-8.7991
▁betrachten	-8.80175
▁Ferne	-8.80175
▁Läufer	-8.80176
▁liegen	-8.80422
▁H	-8.8046
▁verschneiten	-8.80498
▁Nacht	-8.80521
▁Stufen	-8.80522
▁Kleine	-8.80652
▁Armen	-8.80789
▁sitzende	-8.81581
▁Gehsteig	-8.81762
▁Rampe	-8.81785
▁Weiß	-8.81802
▁Trikots	-8.82394
▁lächelnde	-8.82724
▁außer	-8.8337
▁Veranstaltung	-8.83427
weiß	-8.83664
▁R	-8.83781
ar	-8.84148
ur	-8.84405
w	-8.84593
▁diese	-8.84736
▁P	-8.84878
▁Zelt	-8.84925
▁Beton	-8.84983
▁reden	-8.85015
▁Tennisball	-8.8502
▁unten	-8.85048
▁Art	-8.85108
▁Snowboarder	-8.85177
▁einander	-8.85409
▁Lebensmittel	-8.85584
▁Bar	-8.85691
Spieler	-8.86016
bei	-8.86462
▁Braut	-8.86681
▁Sonnenuntergang	-8.86681
▁Leiter	-8.86684
▁Rodeo	-8.8669
▁a	-8.87293
▁Fisch	-8.87297
▁Obst	-8.88366
▁greift	-8.88376
▁Aufschrift	-8.88376
▁Skifahrer	-8.88395
▁Statue	-8.88433
▁rutscht	-8.88462
z	-8.88757
▁lachen	-8.8955
▁Herr	-8.89702
▁Bikini	-8.90097
▁Brunnen	-8.901
▁fotografiert	-8.901
▁hilft	-8.901
▁Vater	-8.90101
echs	-8.90119
▁blonden	-8.90239
▁Kleidern	-8.90534
▁Tür	-8.91274
▁Polizist	-8.91293
▁lange	-8.91411
itten	-8.91718
▁surft	-8.91855
▁zurück	-8.91884
▁bärtiger	-8.91921
▁man	-8.92086
▁Hüten	-8.9218
▁Be	-8.92713
▁jungen	-8.92926
▁Haare	-8.93196
▁Volleyball	-8.93562
▁unbefestigte	-8.9364
▁überquert	-8.93648
▁Motorradfahrer	-8.93694
▁leuchtend	-8.93733
▁werfen	-8.93781
▁Polizisten	-8.94216
▁beiden	-8.94292
▁Kostümen	-8.94404
ä	-8.94893
▁alle	-8.94972
▁legt	-8.95459
▁versammeln	-8.95459
▁Sweatshirt	-8.95484
▁grüner	-8.95605
ch	-8.95686
▁Maschine	-8.95786
an	-8.95846
geschäft	-8.96121
re	-8.96524
▁Rutsche	-8.9731
▁gemeinsam	-8.9731
▁Leine	-8.97312
▁Korb	-8.97313
▁nehmen	-8.97525
▁lächelnd	-8.97732
al	-8.98192
▁B	-8.98488
el	-8.98772
▁ganz	-8.99198
▁rothaarige	-8.99205
▁kommt	-8.99327
▁amerikanische	-8.99335
▁Eimer	-8.99578
▁Damen	-9.00354
▁Regenschirm	-9.00561
et	-9.0085
▁genießen	-9.0112
▁schreibt	-9.0112
▁Pfad	-9.01121
▁Ende	-9.01123
chen	-9.01127
▁guckt	-9.01274
▁stellt	-9.01347
▁jüngere	-9.01484
▁Bei	-9.01575
▁Getränk	-9.01686
▁gelbem	-9.01851
on	-9.01914
▁Rad	-9.0211
▁Schutzhelm	-9.02517
▁Schlagzeug	-9.02868
▁so	-9.02982
▁Garten	-9.03007
▁viel	-9.03037
▁Fahrzeug	-9.0305
▁Mikrophon	-9.03081
▁lilafarbene	-9.0327
▁Soldaten	-9.03324
▁leeren	-9.03369
▁Stühlen	-9.03458
▁rosafarbene	-9.03591
▁Westen	-9.03705
T	-9.0392
▁Kostüm	-9.04394
▁Rot	-9.04996
▁Geschäfts	-9.05
▁Vogel	-9.05065
▁ohne	-9.05081
▁Umgebung	-9.05081
▁streckt	-9.05082
▁Baustelle	-9.05095
▁Arbeits	-9.05387
spieler	-9.05951
▁Trick	-9.06147
▁Wellen	-9.06336
▁Laden	-9.06482
▁Tanz	-9.06573
▁Krawatte	-9.07122
▁kaufen	-9.07122
▁schwingt	-9.07122
▁sprechen	-9.07122
▁afrikanische	-9.07123
▁gegenüber	-9.07131
▁Schüler	-9.07147
▁Kampfsport	-9.07152
▁Badeanzug	-9.07155
▁Konzert	-9.07226
▁G	-9.07383
▁weibliche	-9.07402
▁bereite	-9.07506
▁asiatischen	-9.07648
▁allein	-9.07798
▁riesigen	-9.07862
▁Erwachsener	-9.08095
▁Kajak	-9.08159
▁Instrument	-9.08244
▁st	-9.08289
hört	-9.08597
▁Schuhen	-9.08679
▁lesen	-9.08739
▁Parade	-9.09205
▁Sohn	-9.09205
▁Gegend	-9.09208
▁Parkplatz	-9.0924
▁Arbeit	-9.09475
▁Handschuhen	-9.09681
▁Erwachsenen	-9.09722
▁Uniformen	-9.09975
▁Cowboy	-9.10107
weg	-9.10237
▁Tennis	-9.11102
▁Land	-9.11146
ter	-9.11175
▁singen	-9.11333
▁Straßenecke	-9.11335
▁Schreibtisch	-9.11336
▁Straßenrand	-9.11337
▁Bereich	-9.11346
▁starrt	-9.11363
▁Waren	-9.11413
▁Kinderwagen	-9.11506
ste	-9.11733
▁pinkfarbene	-9.11998
▁gut	-9.12117
S	-9.12312
▁Arme	-9.12655
▁Snowboard	-9.12805
▁hin	-9.13438
▁Base	-9.13502
▁umarmt	-9.13507
▁Pause	-9.13507
▁Schoß	-9.13507
▁Geländemotorrad	-9.13507
▁Kanu	-9.13508
▁schlagen	-9.13509
▁Party	-9.13511
▁Rand	-9.13517
▁jagt	-9.13598
▁Roller	-9.1362
▁kurze	-9.13747
▁gelbes	-9.13866
zu	-9.14157
▁Bergen	-9.1418
▁Team	-9.14742
lich	-9.14752
▁grau	-9.14936
▁pinkfarbenen	-9.15041
▁dass	-9.15188
ö	-9.15319
▁Netz	-9.15493
▁W	-9.15584
▁Kuchen	-9.15729
▁grasbewachsene	-9.15729
▁repariert	-9.15729
▁dunkelhaarige	-9.15729
▁klettern	-9.15732
▁Stand	-9.15763
at	-9.1641
▁älteren	-9.17114
▁Sie	-9.17208
▁weitere	-9.17835
▁Spiegel	-9.17997
▁Schatten	-9.18002
▁gegnerische	-9.18002
▁Vordergrund	-9.18002
▁verkaufen	-9.18003
▁Telefon	-9.18014
▁Fahrradfahrer	-9.18199
▁Jugendlicher	-9.18401
▁anderes	-9.18409
▁Schulter	-9.18817
▁Fell	-9.20327
▁Schläger	-9.20327
▁Surfbrett	-9.20327
▁putzt	-9.20327
▁braunhaarige	-9.20332
▁gegeneinander	-9.20344
▁Blau	-9.2036
▁Kunden	-9.20526
laden	-9.20571
▁Pferde	-9.2151
▁Mikroskop	-9.22708
▁balanciert	-9.22708
▁Schnauze	-9.22778
▁Sandalen	-9.22803
▁Künstler	-9.22926
▁jemandem	-9.23113
te	-9.23139
▁Fahrrädern	-9.23686
gen	-9.23726
tisch	-9.24214
le	-9.24555
▁bemalt	-9.24574
▁Es	-9.24769
wagen	-9.2489
▁Klassenzimmer	-9.25147
▁Mobiltelefon	-9.25147
▁Schaufel	-9.25147
▁beugt	-9.25147
▁winkt	-9.25148
▁Schiedsrichter	-9.25149
▁heraus	-9.25154
▁Schlange	-9.25154
▁Einkaufswagen	-9.25184
▁Footballspieler	-9.25219
▁Erde	-9.25243
▁un	-9.253
▁ziehen	-9.25369
▁setzt	-9.25395
▁Stiefeln	-9.25436
▁Gebäuden	-9.25438
▁Bein	-9.26175
▁farbenfrohe	-9.26584
▁Geige	-9.26657
▁Sch	-9.2672
▁hellhäutige	-9.2678
▁Koch	-9.2764
▁Zimmer	-9.27647
▁fällt	-9.27647
▁Fleisch	-9.27647
▁Felswand	-9.27649
▁Halsband	-9.2765
▁Schlitten	-9.27651
▁dreht	-9.27752
▁Badehose	-9.28639
▁hohe	-9.28709
▁Schuhe	-9.28943
dessen	-9.29164
▁Pferden	-9.29521
▁C	-9.29756
be	-9.30097
▁Tänzer	-9.30148
▁Gerüst	-9.30211
▁Höhe	-9.30211
▁fünf	-9.30211
▁zeigen	-9.30212
▁küssen	-9.30212
▁Küste	-9.30214
▁davor	-9.30215
▁linke	-9.30233
uß	-9.30248
▁reiten	-9.3027
bar	-9.30404
▁Tasse	-9.30449
▁hellbrauner	-9.30758
ausrüstung	-9.31009
▁Taschen	-9.31037
▁St	-9.32482
▁Kirche	-9.32843
▁redet	-9.32843
▁aussieht	-9.32843
▁Karate	-9.32844
▁Kaffee	-9.32845
▁erwachsene	-9.32846
▁Kreis	-9.32853
▁Tanktop	-9.32857
▁Kai	-9.32865
▁Loch	-9.32883
▁küsst	-9.32929
▁Seifenblasen	-9.33157
▁Cheerleader	-9.33207
it	-9.33421
▁b	-9.3343
▁Jacken	-9.33501
▁schmutzige	-9.33537
▁chinesische	-9.33613
▁indische	-9.3379
▁Akkordeon	-9.34114
▁was	-9.34137
ich	-9.34217
Spiel	-9.34246
▁Laptop	-9.34566
▁Freunde	-9.34635
la	-9.34638
gruppe	-9.35044
as	-9.35191
▁hellbraune	-9.35241
ein	-9.3527
stand	-9.35346
▁Müll	-9.35545
▁Maske	-9.35546
▁Spaß	-9.35546
▁geparkt	-9.35546
▁Ecke	-9.35562
▁Spielfeld	-9.35568
ach	-9.35653
ft	-9.35853
▁Pflanzen	-9.35968
blauen	-9.36572
▁Bäume	-9.36823
ol	-9.36876
▁Skateboarder	-9.36998
nur	-9.37991
▁sch	-9.38196
▁Büro	-9.38319
▁Stoff	-9.38322
▁Mountainbike	-9.38323
▁Stadion	-9.38323
▁Tochter	-9.38323
▁Teller	-9.38324
▁Teich	-9.38324
▁Rennstrecke	-9.38324
▁Schwimmbrille	-9.38325
▁Wüste	-9.38325
▁Lastwagen	-9.38364
▁Handtasche	-9.38423
teil	-9.38829
froamerikanische	-9.39403
▁Flasche	-9.39636
▁schönen	-9.39838
▁Fußballspiel	-9.39902
▁hell	-9.39902
▁beleuchtete	-9.40006
▁schöne	-9.40152
▁Schultern	-9.40167
▁Caf	-9.40787
▁Winter	-9.41137
▁kocht	-9.41181
▁Haufen	-9.41181
▁Hula	-9.41181
▁bis	-9.41187
grünen	-9.41207
▁Kappe	-9.41224
ier	-9.41531
▁gepflasterten	-9.41558
▁Oberteilen	-9.4157
ut	-9.41594
▁Reifen	-9.41673
▁Tier	-9.41797
▁schwimmen	-9.42449
▁Tischen	-9.42607
▁N	-9.42744
auch	-9.43031
▁Ge	-9.43122
▁asiatisch	-9.43439
innen	-9.43459
iert	-9.43515
▁k	-9.43722
▁Balkon	-9.44122
▁Klippe	-9.44122
▁Landschaft	-9.44122
▁Zähne	-9.44122
▁felsige	-9.44122
▁umarmen	-9.44122
▁entspannt	-9.44122
▁unterwegs	-9.44123
▁Couch	-9.44124
▁Nase	-9.44131
Hoop	-9.44135
▁Parkbank	-9.44139
▁schaukelt	-9.44177
▁Skater	-9.4438
▁D	-9.44641
or	-9.44882
▁hellen	-9.45094
▁Farben	-9.45184
▁Objekt	-9.45423
▁Katze	-9.45559
▁wunderschöne	-9.45597
gelben	-9.45939
▁Bahn	-9.46088
▁Freunden	-9.46164
▁Flugzeug	-9.4619
A	-9.46222
schwarzer	-9.46384
▁Steine	-9.46587
▁Teppich	-9.47148
▁Schlamm	-9.47151
▁Blatt	-9.47152
▁Gasse	-9.47152
▁Trampolin	-9.47152
▁bedient	-9.47152
▁ärmellose	-9.47152
▁links	-9.47153
▁damit	-9.47153
▁Hang	-9.47158
▁Sachen	-9.47159
▁Reiter	-9.47225
▁Feldweg	-9.47257
▁rechte	-9.47271
che	-9.47281
▁Touristen	-9.47283
▁dunkler	-9.47466
ork	-9.4759
▁Schutzhelmen	-9.48037
Shirts	-9.48442
▁violetten	-9.48539
▁Schüssel	-9.4872
▁Kopfhörer	-9.48746
elt	-9.49245
▁Overall	-9.49327
▁Berge	-9.49591
▁ob	-9.49741
▁Licht	-9.5004
▁Flaggen	-9.50247
maschine	-9.50267
rad	-9.50269
veranstaltung	-9.50277
▁New	-9.50277
▁hüpft	-9.50277
▁jongliert	-9.50277
▁überfüllte	-9.50277
▁wurde	-9.50277
▁Springbrunnen	-9.50278
▁hinab	-9.50283
▁Skiern	-9.50284
▁verwendet	-9.50291
hut	-9.50306
▁Strecke	-9.50322
▁gezogen	-9.5038
▁holt	-9.50396
▁steigt	-9.50438
▁Helmen	-9.50912
▁Fahnen	-9.51033
▁durchs	-9.52346
B	-9.52595
▁Jugendliche	-9.5294
▁Bilder	-9.53231
▁Vor	-9.53458
▁Plastik	-9.53495
▁Marathon	-9.53499
▁Mahlzeit	-9.53503
▁rasiert	-9.53503
▁schießt	-9.53503
▁Veranda	-9.53503
▁schnell	-9.53503
▁schüttelt	-9.53503
▁kauft	-9.53504
▁rechts	-9.53506
▁Teil	-9.53732
▁wander	-9.55303
▁Asiate	-9.5543
▁hängen	-9.56238
ball	-9.56471
▁Clown	-9.56552
▁Getränke	-9.56732
▁Zeit	-9.56753
▁Geschenk	-9.56836
▁Wurf	-9.56836
▁bläst	-9.56836
▁fotografieren	-9.56836
▁komplett	-9.56836
▁ruht	-9.56836
▁berührt	-9.56836
▁reparieren	-9.56836
▁barf	-9.56836
taucht	-9.56837
▁grillt	-9.56837
▁dritte	-9.56838
▁heben	-9.56839
▁bekommt	-9.56843
▁verfolgt	-9.56846
▁Cowboyhut	-9.56848
▁Sportler	-9.5685
▁Kopftuch	-9.56861
▁Lkw	-9.56915
▁Anzügen	-9.57019
▁Personengruppe	-9.57183
▁hellblauen	-9.57237
v	-9.57298
▁Sieb	-9.58021
▁jemand	-9.59126
▁Instrumenten	-9.59252
▁Instrumente	-9.59427
▁Hockey	-9.59967
▁Ring	-9.60095
“-	-9.60115
▁frisch	-9.60228
▁hockt	-9.60285
▁reinigt	-9.60285
▁Umzug	-9.60285
bereich	-9.60287
▁geschäftige	-9.603
haus	-9.60311
▁Wettkampf	-9.60367
▁Ab	-9.60389
▁brünette	-9.60922
▁Schwimmer	-9.60949
▁offen	-9.61038
▁L	-9.61275
spiel	-9.61392
▁Tennisspieler	-9.61672
▁violette	-9.61786
und	-9.61801
▁Bau	-9.61839
▁Beinen	-9.6188
bahn	-9.62071
▁Fußgänger	-9.6229
▁Finger	-9.62303
▁Mo	-9.6232
E	-9.62868
kostüm	-9.6323
▁Sänger	-9.63282
▁Im	-9.63306
▁Schwimm	-9.63369
▁Schlag	-9.63842
▁Gebiet	-9.63856
▁Salto	-9.63856
▁öffnet	-9.63856
▁stark	-9.63856
▁Zunge	-9.63857
▁Matte	-9.63859
▁bauen	-9.6386
▁Asiatin	-9.63864
▁Bach	-9.6388
▁umher	-9.63925
▁gefüllt	-9.6394
▁goldene	-9.64053
▁gucken	-9.64088
▁einsame	-9.64127
▁traditioneller	-9.64309
▁Hauses	-9.6441
▁schreit	-9.64528
▁Wasserfall	-9.64744
us	-9.65058
▁weit	-9.65225
▁geschlossene	-9.6523
▁Kerl	-9.6537
▁Asiaten	-9.65691
R	-9.65786
▁w	-9.65937
▁Fahrräder	-9.66048
▁Sitzen	-9.66569
▁Fallschirm	-9.66734
ll	-9.66956
schwarzen	-9.67097
▁Militär	-9.67157
tasche	-9.6738
▁Hals	-9.67549
▁Bücher	-9.67552
▁Geld	-9.67557
▁Kurve	-9.6756
▁aufblasbare	-9.6756
▁untersucht	-9.6756
▁wäscht	-9.6756
▁befestigt	-9.6756
▁Becher	-9.6756
▁einzelne	-9.6756
▁Schlauch	-9.6756
▁kann	-9.6756
▁Abend	-9.67561
▁Straßenkünstler	-9.67565
▁Lederjacke	-9.67583
▁Winterkleidung	-9.67604
▁Tunnel	-9.67717
▁schneiden	-9.67752
▁Ort	-9.67771
ei	-9.67832
▁steigen	-9.67857
einander	-9.67921
▁Hockeyspieler	-9.67979
▁Wein	-9.67979
ekt	-9.69226
ke	-9.69307
ver	-9.69778
ig	-9.7043
▁Hindernis	-9.7048
O	-9.70484
Fahrer	-9.70485
ot	-9.7085
stellen	-9.71039
▁Bullen	-9.7114
▁Steinen	-9.71227
jacke	-9.71293
▁Baumstamm	-9.71406
▁Terrasse	-9.71406
▁entfernt	-9.71406
▁übt	-9.71406
▁kickt	-9.71409
▁Kuh	-9.71411
▁gießt	-9.71461
▁Passanten	-9.71462
▁Tuch	-9.71469
▁Ausrüstung	-9.71569
▁beieinander	-9.71713
mütze	-9.71746
pf	-9.71869
▁gelegt	-9.71897
fahren	-9.72337
co	-9.72706
brauner	-9.72931
ort	-9.72955
▁verkleidet	-9.73283
fahrt	-9.73325
▁Teams	-9.73326
▁glücklich	-9.73507
▁nachde	-9.73622
▁schlafen	-9.73722
rennen	-9.73849
platz	-9.74125
▁Da	-9.74216
sitz	-9.74318
roten	-9.74542
▁ent	-9.74574
▁Gelände	-9.74887
feld	-9.75284
▁Bräutigam	-9.75406
▁Geschirr	-9.75406
▁barfüßige	-9.75406
▁unterschiedlich	-9.75406
▁vollführt	-9.75406
▁üben	-9.75406
▁hölzerne	-9.75406
▁Rollstuhl	-9.75408
▁Baseballkappe	-9.75408
▁helfen	-9.75409
▁geworfen	-9.75412
▁hinaus	-9.75415
▁Teleskop	-9.75427
▁hinterher	-9.75447
▁Schaufenster	-9.75449
▁bringt	-9.75539
▁kommen	-9.75769
▁darunter	-9.76006
▁Fahrer	-9.76373
▁nassen	-9.76557
▁neue	-9.76584
▁gesäumte	-9.77082
▁Spitze	-9.77116
▁riesige	-9.78063
▁Schuh	-9.78603
▁Spielen	-9.78693
▁I	-9.78819
▁Gerät	-9.78991
▁Fotograf	-9.79
▁Rück	-9.79009
di	-9.79459
▁Jahrmarkt	-9.79495
▁Wäsche	-9.79568
▁Ziel	-9.7957
▁Kissen	-9.79571
▁Kapuzenpulli	-9.79572
▁Karren	-9.79572
▁Koffer	-9.79572
▁Schäferhund	-9.79572
▁Theke	-9.79572
▁benutzen	-9.79572
▁Neoprenanzug	-9.79573
▁heiße	-9.79573
▁Rolltreppe	-9.79574
▁Turnhalle	-9.79574
▁feiern	-9.79575
▁angelt	-9.79576
▁gezeigt	-9.79577
▁Waldgebiet	-9.79579
▁konzentriert	-9.79583
▁Laub	-9.79583
▁Besen	-9.79587
▁Keyboard	-9.79595
▁gleitet	-9.79633
▁paddelt	-9.79633
▁bewegt	-9.79633
▁Jungs	-9.79724
▁Brot	-9.79726
▁fertig	-9.79759
▁ringen	-9.79785
▁geben	-9.79943
▁Gepäck	-9.80043
alter	-9.80561
ker	-9.80787
▁bekleidete	-9.81469
▁stehende	-9.81599
▁vorbeigehen	-9.82042
pp	-9.82049
▁fas	-9.82341
▁Trommel	-9.82362
▁Seiten	-9.82366
bau	-9.82368
raum	-9.82435
▁Verkehr	-9.82887
all	-9.82948
G	-9.83004
fahrzeug	-9.83145
▁Ma	-9.83286
mannschaft	-9.83339
▁Lauf	-9.83442
▁Hochzeit	-9.83501
zug	-9.83555
▁Ballon	-9.83699
▁orientalische	-9.83784
▁d	-9.83826
seite	-9.83892
halle	-9.83899
änner	-9.83903
hemd	-9.83913
▁Gegner	-9.8392
▁Gemälde	-9.8392
▁Hürde	-9.8392
▁Motocross	-9.8392
▁Stapel	-9.8392
▁Tennisschläger	-9.8392
▁gelehnt	-9.8392
anlage	-9.8392
▁Jockey	-9.8392
▁Trägerhemd	-9.8392
▁Weihnachtsbaum	-9.8392
▁Flughafen	-9.83921
▁Nahaufnahme	-9.83921
▁lehnen	-9.83921
▁kehrt	-9.83922
▁Mänteln	-9.83925
▁Gewand	-9.83926
▁Musikinstrument	-9.83926
▁BM	-9.83929
▁O	-9.8393
▁Auftritt	-9.83931
▁Heu	-9.83939
bekleidung	-9.8398
▁Handtuch	-9.83983
▁bunt	-9.84301
▁Feuerwehr	-9.84785
gt	-9.85152
▁Berges	-9.85879
isch	-9.85949
▁irgendeine	-9.86354
▁Freund	-9.86821
ka	-9.869
▁Gegenstände	-9.86901
▁Blätter	-9.86916
▁Farbe	-9.87033
K	-9.8754
▁Hocke	-9.87868
▁Soldat	-9.87903
ill	-9.87929
▁Sitz	-9.88013
fläche	-9.88116
icht	-9.88237
▁Projekt	-9.88457
▁Stirn	-9.88461
mantel	-9.88464
weise	-9.88466
▁Angelrute	-9.88466
▁Fläche	-9.88466
▁Kid	-9.88466
▁Pfütze	-9.88466
▁Trompete	-9.88466
▁Zahl	-9.88466
▁jagen	-9.88466
▁trainiert	-9.88466
▁steinige	-9.88466
▁Gelb	-9.88466
▁Wohnzimmer	-9.88466
▁Brust	-9.88466
▁Schutzbrille	-9.88468
▁Dinge	-9.88469
▁khakifarbene	-9.88469
▁Weihnachtsmann	-9.8847
▁Gang	-9.88473
▁Herd	-9.88476
▁Bildschirm	-9.88481
▁sechs	-9.8849
▁schießen	-9.88532
▁Wandbild	-9.88534
▁Pier	-9.88539
setzen	-9.88562
▁Lehrer	-9.88572
▁gräbt	-9.88575
▁Werbung	-9.88661
▁Handstand	-9.88694
▁Studenten	-9.88758
▁folgt	-9.88877
▁lassen	-9.88915
M	-9.88992
▁kalten	-9.89079
auf	-9.89193
▁jemanden	-9.89234
▁Fischer	-9.89297
tt	-9.89363
F	-9.8997
▁angezogen	-9.90077
▁traditionelle	-9.90106
iger	-9.90472
▁ausgestreckte	-9.91499
▁Aus	-9.91544
▁lächelndes	-9.91555
kleid	-9.91576
▁Orange	-9.91663
schen	-9.91687
ler	-9.91774
up	-9.91835
▁schaufel	-9.91881
li	-9.91928
▁Ohr	-9.92565
ische	-9.92578
▁Gewehr	-9.92622
▁gehende	-9.92782
helm	-9.93068
▁Sicherheits	-9.93074
anzügen	-9.93146
▁Feier	-9.93185
sammelt	-9.93198
▁Kampf	-9.93212
stühlen	-9.93213
▁Labor	-9.93227
▁Behälter	-9.93228
▁Bushaltestelle	-9.93228
▁Daumen	-9.93228
▁Eltern	-9.93228
▁Gassi	-9.93228
▁Klavier	-9.93228
▁Kletterer	-9.93228
▁Pfosten	-9.93228
▁Pärchen	-9.93228
▁Zuschauermenge	-9.93228
▁kochen	-9.93228
▁weint	-9.93228
▁Orchester	-9.93229
▁hören	-9.93229
▁streichelt	-9.93232
▁baut	-9.93233
▁dicht	-9.93234
▁dir	-9.93234
▁hinein	-9.93247
▁geblümte	-9.93253
▁Topf	-9.93263
▁Hütte	-9.93264
hilfe	-9.93282
▁Stadtstraße	-9.93291
▁kahlköpfiger	-9.93298
▁nähert	-9.93319
▁Stier	-9.9332
▁Drachen	-9.93335
▁Unter	-9.93335
Backsteingebäude	-9.93338
▁bringen	-9.9335
▁runden	-9.93354
▁Motor	-9.93466
▁frische	-9.93519
▁Menschengruppe	-9.93638
▁steilen	-9.93876
▁Sees	-9.93912
mann	-9.94054
▁Rede	-9.94276
▁Ballons	-9.9433
▁warm	-9.94418
▁Füßen	-9.94629
▁Schutz	-9.94658
▁Kunststücke	-9.94699
▁bestehende	-9.95508
gerät	-9.95788
▁verkleidete	-9.95825
▁z	-9.95957
▁vorüber	-9.95992
aus	-9.96314
L	-9.96494
▁Hunden	-9.96544
ber	-9.96902
▁farbige	-9.96925
▁Verkauf	-9.97173
▁stehenden	-9.9724
P	-9.97313
ben	-9.97327
ion	-9.97433
▁Gold	-9.97609
▁Kunst	-9.98084
▁schwere	-9.98128
▁Saxophon	-9.98225
▁Dreadlocks	-9.98228
▁Motorroller	-9.98228
▁Schnurrbart	-9.98228
▁joggt	-9.98228
▁scheinen	-9.98228
▁Robe	-9.98228
▁Einkaufszentrum	-9.98228
▁dicke	-9.98229
▁Hammer	-9.98229
▁Rennauto	-9.98229
▁Skatepark	-9.98231
▁Steinmauer	-9.98238
markt	-9.9824
▁Picknicktisch	-9.98248
▁Baseballmütze	-9.98252
▁Ver	-9.98332
▁Bahnsteig	-9.98348
▁Socken	-9.98349
▁dunkelblaue	-9.98455
▁spritzt	-9.98539
▁e	-9.98554
▁Fans	-9.98567
▁Speisen	-9.98587
▁zeichnet	-9.98617
Skateboardfahrer	-9.98624
▁auszu	-9.98625
▁beigefarbene	-9.98735
▁Trainings	-9.98861
▁Meeres	-9.99051
▁l	-9.99215
▁Kisten	-9.99312
▁Motorrädern	-9.99385
▁Co	-9.99626
▁anzu	-9.99704
▁Eingang	-9.99744
geht	-10.0024
schild	-10.0029
sten	-10.003
ack	-10.0047
▁He	-10.0052
▁Kopfhörern	-10.0075
ine	-10.0075
ha	-10.0102
▁ange	-10.0103
▁Kunstwerk	-10.0113
▁Schule	-10.0123
▁Re	-10.013
▁Kegel	-10.0186
▁Füße	-10.0196
▁Blume	-10.0199
▁lachend	-10.0217
▁verschieden	-10.0234
▁h	-10.0251
Reifen	-10.0258
Schild	-10.0258
Gitarre	-10.0259
▁Graffitis	-10.0261
reich	-10.027
ist	-10.0286
▁Gitarrist	-10.0291
rau	-10.0305
straße	-10.0315
os	-10.0315
gehen	-10.0319
gebäude	-10.032
▁Brett	-10.0325
▁Baseballspiel	-10.033
bild	-10.034
band	-10.0346
köpfige	-10.0349
▁Ziegel	-10.0349
▁Anlegestelle	-10.0349
▁Körper	-10.0349
▁Nickerchen	-10.0349
▁Nähmaschine	-10.0349
▁Sanddüne	-10.0349
▁lockige	-10.0349
▁ländliche	-10.0349
▁rudert	-10.0349
▁Geldbörse	-10.0349
▁schwach	-10.0349
▁seichte	-10.0349
▁Hinterhof	-10.0349
▁Straßenhändler	-10.0349
▁Bowlingbahn	-10.035
▁beschäftigt	-10.035
▁Rennwagen	-10.035
▁Out	-10.035
▁Taxi	-10.0351
▁Kreuzung	-10.0351
▁schwarzhaarige	-10.0352
▁Wasserski	-10.0352
▁Bauch	-10.0354
▁Grün	-10.0354
▁vorbeifährt	-10.0355
▁Esel	-10.0359
▁Plakat	-10.0361
▁Bahnhof	-10.0362
▁Wettbewerb	-10.0367
▁Bekleidung	-10.0372
▁langhaariger	-10.0394
▁Schlagzeuger	-10.0409
▁Stift	-10.0409
▁Zeichen	-10.0412
▁Luftballons	-10.0426
ungen	-10.0434
▁dünne	-10.0455
▁silbernen	-10.047
▁tief	-10.0495
▁Er	-10.0508
ic	-10.0514
▁Typen	-10.0564
▁p	-10.059
C	-10.0672
▁dunkle	-10.0696
▁Restaurants	-10.07
team	-10.074
▁Man	-10.0754
▁Getränken	-10.076
eiter	-10.0783
▁Softball	-10.0808
▁Traktor	-10.0833
treten	-10.0838
▁daneben	-10.0873
do	-10.0886
schau	-10.0893
▁Sonnenbrillen	-10.0894
findet	-10.0902
▁Kapuze	-10.0905
▁Balken	-10.0905
▁Flüssigkeit	-10.0905
▁Klettergerüst	-10.0905
▁Moped	-10.0905
▁Verkäufer	-10.0905
▁flauschige	-10.0905
▁können	-10.0905
▁marschiert	-10.0905
▁passende	-10.0905
▁runter	-10.0905
▁verheiratete	-10.0905
Fußgängerüberweg	-10.0905
▁berühren	-10.0905
▁Angel	-10.0905
▁Feder	-10.0905
▁blondhaarige	-10.0905
▁Teig	-10.0905
▁Bowlingkugel	-10.0905
▁Sonnenschirm	-10.0905
▁Lied	-10.0905
▁Dreck	-10.0905
▁anhat	-10.0905
▁Schwimmweste	-10.0905
▁Wange	-10.0905
▁Strohhut	-10.0905
▁Chor	-10.0905
▁Bowling	-10.0906
▁herab	-10.0906
▁Puck	-10.0906
▁Mittag	-10.0906
▁bearbeitet	-10.0906
▁Bänken	-10.091
▁eingezäunte	-10.091
▁beladen	-10.0911
il	-10.0914
▁Arena	-10.0918
▁Rädern	-10.0918
▁statt	-10.0929
▁gehalten	-10.0931
▁amüsieren	-10.0936
▁Rucksäcken	-10.0945
▁Wänden	-10.0954
▁Schul	-10.0961
uck	-10.0967
▁Fotografen	-10.0982
bildschirm	-10.0984
▁leicht	-10.099
hosen	-10.1024
au	-10.1044
▁Regenschirmen	-10.1075
ab	-10.1135
ast	-10.1142
▁Dr	-10.1144
▁glückliche	-10.1177
halt	-10.1178
▁Groß	-10.1187
▁Ka	-10.1217
▁tätowierte	-10.1242
▁seltsame	-10.1262
▁Treppen	-10.1265
▁Outfits	-10.1282
ett	-10.1294
anz	-10.1298
park	-10.1322
▁Feuerwehrm	-10.1374
I	-10.1399
age	-10.1418
▁Profi	-10.1428
▁Skulptur	-10.1431
▁Zeitschrift	-10.1434
▁Afroamerikaner	-10.1435
▁Gewässers	-10.1449
▁Ton	-10.1452
▁Leder	-10.149
schlag	-10.149
kampf	-10.1492
▁rast	-10.1492
▁Weihnachts	-10.1492
show	-10.1493
▁Zement	-10.1493
▁Bluejeans	-10.1493
▁Gespräch	-10.1493
▁Plattform	-10.1493
▁Sandstrand	-10.1493
▁Schubkarre	-10.1493
▁Silhouette	-10.1493
▁Surfboard	-10.1493
▁Tafel	-10.1493
▁begutachtet	-10.1493
▁füllt	-10.1493
▁gebeugt	-10.1493
▁gegenseitig	-10.1493
▁glatzköpfige	-10.1493
▁nächste	-10.1493
▁richtet	-10.1493
▁schwenkt	-10.1493
▁sucht	-10.1493
▁Becken	-10.1493
▁brennende	-10.1493
▁steckt	-10.1493
▁Kies	-10.1493
▁Abendessen	-10.1493
▁hart	-10.1493
▁Schwimmbad	-10.1493
▁wate	-10.1494
▁Gewänder	-10.1495
▁Schlafanzug	-10.1496
▁kaut	-10.15
▁Fußballfeld	-10.15
ruhen	-10.1502
▁Schwert	-10.1504
▁Rollerblades	-10.1508
Sicherheitsweste	-10.1515
tlich	-10.1517
▁treffen	-10.1518
▁Kerzen	-10.1535
ähnliche	-10.1548
enden	-10.1572
▁Sa	-10.1589
▁flachen	-10.1592
▁Club	-10.1629
doo	-10.1647
▁selbst	-10.165
tet	-10.1658
▁geöffnete	-10.1665
ckt	-10.17
leicht	-10.174
da	-10.1761
▁Kleider	-10.1765
▁Turnerin	-10.18
▁Turner	-10.1811
▁Fa	-10.1827
über	-10.1844
D	-10.1854
verkäufer	-10.1859
lei	-10.1869
licht	-10.188
▁Ba	-10.1896
▁halb	-10.1916
▁Grimasse	-10.1963
hose	-10.1964
▁Fahne	-10.1966
▁Zu	-10.201
▁Werkzeug	-10.2013
Kostüm	-10.2027
Oberteil	-10.2028
Hemd	-10.2028
▁Kamel	-10.2057
▁Bike	-10.206
lt	-10.2069
▁Sängerin	-10.2074
braunen	-10.2082
▁Tarn	-10.2106
wand	-10.2108
werk	-10.211
blick	-10.2113
▁Taucher	-10.2116
▁Außen	-10.2117
fenster	-10.2118
förmige	-10.2118
▁Fahrt	-10.2118
▁LKW	-10.2118
▁London	-10.2118
▁Lächeln	-10.2118
▁Löffel	-10.2118
▁Plastiktüte	-10.2118
▁altmodische	-10.2118
▁entgegen	-10.2118
▁entspannen	-10.2118
▁japanische	-10.2118
▁kopfüber	-10.2118
▁silberfarbene	-10.2118
▁trainieren	-10.2118
▁schweißt	-10.2118
▁untersuchen	-10.2118
▁marschieren	-10.2118
▁Umhang	-10.2118
▁Waschsalon	-10.2118
▁rollt	-10.2118
▁Wettrennen	-10.2118
▁parkt	-10.2118
▁kahl	-10.2118
▁Kalb	-10.2118
▁Brandung	-10.2118
▁Start	-10.2119
▁will	-10.2119
▁noch	-10.2119
▁Frisbeescheibe	-10.2119
▁Blumenmuster	-10.2121
▁Bewegung	-10.2121
▁fegt	-10.2121
▁Hilfe	-10.2122
▁Feuerwehrmann	-10.2122
wirbelt	-10.2123
▁planscht	-10.2123
▁Sportwagen	-10.2123
▁dazu	-10.2124
▁Wasserflasche	-10.2127
▁beißt	-10.2127
▁Linie	-10.2127
▁spä	-10.2127
▁Jeansjacke	-10.2129
▁Mitglieder	-10.213
▁Grasfläche	-10.213
▁füttert	-10.2133
▁pink	-10.2139
▁Röcken	-10.2143
▁Messer	-10.2143
▁Tattoo	-10.2145
▁Spielkleidung	-10.2149
▁zer	-10.2161
▁bewölkten	-10.2163
x	-10.2176
▁Palmen	-10.2183
▁vorne	-10.2195
▁acht	-10.2196
▁aufgestellt	-10.2219
▁La	-10.2228
H	-10.2229
ue	-10.2242
▁Po	-10.2244
▁Str	-10.225
ieren	-10.2254
rischen	-10.2262
zeug	-10.2266
▁farbenfroher	-10.2279
af	-10.2293
ahl	-10.2299
▁Golf	-10.2309
▁fliegende	-10.2316
▁Herren	-10.2333
▁wandern	-10.2418
gang	-10.2419
▁verlassen	-10.2428
▁Tricks	-10.2438
▁Geschäften	-10.2498
bo	-10.2576
▁fliegen	-10.2598
▁breite	-10.2607
uch	-10.2608
des	-10.2609
is	-10.261
schieben	-10.2616
artige	-10.2619
▁Vögel	-10.2625
▁Motorräder	-10.2631
▁Stufe	-10.2634
▁Schafe	-10.2645
tel	-10.2654
▁Roll	-10.2672
▁schlafende	-10.2695
▁ähnlich	-10.2722
▁langhaarige	-10.2727
▁Fels	-10.2728
▁überprüf	-10.2729
▁Renn	-10.2731
▁nasse	-10.274
▁Beine	-10.2747
ert	-10.2769
sam	-10.2773
wendet	-10.2782
linie	-10.2783
▁Dorf	-10.2784
shorts	-10.2785
▁Floß	-10.2785
▁Flur	-10.2785
▁Händler	-10.2785
▁Mülltonne	-10.2785
▁Säugling	-10.2785
▁Violine	-10.2785
▁diskutieren	-10.2785
▁joggen	-10.2785
▁nieder	-10.2785
▁scheinbar	-10.2785
▁starren	-10.2785
▁wischt	-10.2785
▁übergewichtige	-10.2785
▁Bandana	-10.2785
▁Klassenraum	-10.2785
▁ausgebreitet	-10.2785
▁Kran	-10.2785
▁reinigen	-10.2785
▁Kreide	-10.2785
kurs	-10.2785
glas	-10.2785
▁Mittagessen	-10.2785
▁Ziegelmauer	-10.2785
▁Moment	-10.2785
▁Piste	-10.2785
▁Reifenschaukel	-10.2785
▁Halskette	-10.2785
▁Bogen	-10.2785
▁festhält	-10.2785
▁näht	-10.2785
▁verlässt	-10.2785
▁bückt	-10.2785
▁befahrene	-10.2786
▁Köche	-10.2786
▁Tribüne	-10.2786
▁bespritzt	-10.2786
▁verdeckt	-10.2786
buch	-10.2786
▁bekommen	-10.2786
▁Maulkorb	-10.2787
▁Torhüter	-10.2788
▁Fahrgeschäft	-10.2788
▁Badewanne	-10.2788
▁jubeln	-10.2788
▁Feuerwehrleute	-10.2788
▁treibt	-10.2788
▁Rohr	-10.279
▁Elefanten	-10.2791
▁bewundert	-10.2792
zahl	-10.2794
▁Ast	-10.2794
▁ausgestellt	-10.2796
▁Waldweg	-10.2798
▁abend	-10.2799
▁dekoriert	-10.28
▁Poster	-10.28
▁Sportkleidung	-10.2803
hi	-10.2806
▁Flöte	-10.2807
träger	-10.2812
▁malen	-10.2814
▁ober	-10.2833
▁Büschen	-10.2833
ug	-10.2835
▁Tee	-10.2851
lichen	-10.2854
del	-10.2855
▁engen	-10.2861
ve	-10.2864
▁Ohren	-10.2867
▁Laufen	-10.2874
▁hübsche	-10.2876
spielzeug	-10.2884
▁Baumes	-10.289
▁Welpen	-10.2909
blaue	-10.291
▁Karten	-10.2914
▁geschminkte	-10.2916
▁Schildern	-10.292
▁Snowboardfahre	-10.2939
▁Tanzen	-10.2983
▁Schleife	-10.2983
▁Sp	-10.3014
▁einge	-10.3018
▁ausgestreckt	-10.3039
ak	-10.3048
▁jede	-10.309
ul	-10.3092
art	-10.3095
▁Schirmen	-10.3106
po	-10.312
▁Videospiel	-10.3121
▁Flaschen	-10.3162
▁Produkte	-10.3179
▁Cowboys	-10.3196
Eishockeyspieler	-10.3211
▁Balls	-10.3264
▁Tennisspielerin	-10.3289
laufen	-10.3293
odium	-10.3312
ord	-10.3339
▁silberne	-10.3345
▁verschneite	-10.3348
▁Kiste	-10.3356
▁Süßigkeiten	-10.3358
▁abzu	-10.336
drückt	-10.336
gelegt	-10.3375
▁Schiff	-10.3384
▁Deck	-10.3394
▁weiter	-10.3397
▁Luftballon	-10.3399
U	-10.3408
ien	-10.342
▁nah	-10.3425
▁stehend	-10.3434
▁Rauch	-10.3436
▁Dies	-10.345
dem	-10.3458
land	-10.3463
trick	-10.3472
▁Stangen	-10.3489
▁Polizei	-10.3492
boden	-10.3494
landschaft	-10.3495
▁Krankenhaus	-10.3499
▁Platte	-10.3499
▁Pfadfinder	-10.3499
▁aufmerksam	-10.3499
▁würde	-10.3499
▁Bibliothek	-10.3499
▁Breakdance	-10.3499
▁Fernglas	-10.3499
▁Locken	-10.3499
▁Museum	-10.3499
▁Schmutz	-10.3499
▁Stehen	-10.3499
▁Tablett	-10.3499
▁Zöpfen	-10.3499
▁beginnt	-10.3499
▁gleichzeitig	-10.3499
▁schlammige	-10.3499
▁uniformierte	-10.3499
▁örtliche	-10.3499
▁Streifen	-10.3499
▁drinnen	-10.3499
▁leger	-10.3499
▁Innenstadt	-10.3499
▁Schmuck	-10.3499
▁Trainer	-10.3499
▁Kunststoff	-10.3499
▁feiert	-10.3499
▁bewegen	-10.3499
wohl	-10.3499
▁Badezimmer	-10.3499
▁webt	-10.3499
▁Aufführung	-10.3499
▁Schlauchboot	-10.3499
▁hindurch	-10.3499
▁Stirnband	-10.35
▁gewickelt	-10.35
▁Akustikgitarre	-10.3501
▁Asiatinnen	-10.3501
▁Schach	-10.3502
▁spielerisch	-10.3502
küche	-10.3503
▁Marktplatz	-10.3503
▁Freu	-10.3504
▁landet	-10.3504
▁Rollschuh	-10.3507
▁Kon	-10.3508
▁Show	-10.3509
▁Lager	-10.351
▁Pitcher	-10.351
▁vorbeigeht	-10.3512
▁Fest	-10.3516
▁Kugel	-10.3523
▁entlanggeht	-10.3524
▁Radrennen	-10.3527
weil	-10.3535
▁greifen	-10.3537
▁Wach	-10.3539
▁Rettungswesten	-10.354
ger	-10.3545
▁Ringer	-10.3546
▁Volleyballspiel	-10.3555
▁Einrad	-10.3565
▁Scheibe	-10.3565
▁Häusern	-10.3574
op	-10.3579
▁Tauben	-10.3586
▁Hocker	-10.3592
▁i	-10.3608
▁Asiatische	-10.3614
▁Köpfen	-10.3633
▁ruhigen	-10.3638
arbeiter	-10.3672
▁Grimassen	-10.368
▁Decken	-10.3698
alt	-10.3749
▁Blättern	-10.375
▁formelle	-10.3801
▁beleuchtet	-10.3806
▁Hi	-10.3806
▁We	-10.3843
▁gelbbraune	-10.3849
▁bekleidet	-10.3921
▁Bade	-10.394
rock	-10.3956
ring	-10.397
fährt	-10.3971
▁zubereitet	-10.3978
zelt	-10.3997
▁V	-10.4005
rlich	-10.4027
▁geöffnet	-10.4045
braune	-10.4047
pa	-10.4071
▁aussehen	-10.4089
▁Stöcke	-10.4111
▁Karte	-10.4114
▁Stühle	-10.4117
erin	-10.4118
ass	-10.4127
stellt	-10.413
farbene	-10.4141
▁Ozean	-10.4164
▁Handschuh	-10.4171
Station	-10.4173
V	-10.4175
Zeichen	-10.4175
▁Dudelsack	-10.4189
pe	-10.4195
▁Fliege	-10.4206
eiß	-10.4218
och	-10.422
▁Figur	-10.422
fest	-10.4228
owie	-10.4233
inde	-10.4235
▁Szene	-10.4241
kette	-10.4256
stuhl	-10.4261
schw	-10.4261
skulptur	-10.4261
brett	-10.4262
muster	-10.4265
▁Modell	-10.4268
▁Natur	-10.4268
▁Anhänger	-10.4268
▁Aufnahme	-10.4268
▁Fänger	-10.4268
▁Gymnastik	-10.4268
▁Saxofon	-10.4268
▁Sessel	-10.4268
▁Strickmütze	-10.4268
▁Versammlung	-10.4268
▁Vortrag	-10.4268
▁Wakeboard	-10.4268
▁jubelt	-10.4268
▁klatscht	-10.4268
▁Inline	-10.4268
▁brauen	-10.4268
▁sandige	-10.4268
▁Asien	-10.4268
▁Ballerina	-10.4268
▁Werkstatt	-10.4268
▁Laborkittel	-10.4268
▁Film	-10.4268
▁gemusterte	-10.4268
▁Kettensäge	-10.4268
▁Pudel	-10.4268
▁geschmückt	-10.4268
▁Bauarbeiten	-10.4268
▁grillen	-10.4268
▁Marathonläufer	-10.4269
▁Halstuch	-10.4269
▁Uhr	-10.4269
Gesichtsbemalung	-10.4269
haube	-10.4269
▁Golfball	-10.4269
▁bilden	-10.4269
▁gestikuliert	-10.4269
▁Pferdeschw	-10.4269
▁Stern	-10.4269
statue	-10.4271
▁Achterbahn	-10.4272
▁Fackel	-10.4272
▁Inlineskates	-10.4281
ock	-10.4285
▁Video	-10.4285
▁Boxer	-10.4287
▁leckt	-10.4287
▁Gehen	-10.4299
▁Maler	-10.43
▁Kasse	-10.4303
▁Turban	-10.4312
he	-10.4316
▁graben	-10.4317
▁Papiere	-10.432
▁Biker	-10.4341
▁Hochzeitskleid	-10.4344
korb	-10.4347
▁Schilder	-10.4351
▁Netze	-10.4354
▁eben	-10.436
▁Cafe	-10.4381
▁besucht	-10.4396
▁Bällen	-10.4414
eln	-10.4444
▁streich	-10.4468
assen	-10.45
▁Spiels	-10.4508
gar	-10.451
▁Reis	-10.4536
man	-10.4583
▁Straßenarbeite	-10.4593
acht	-10.4601
▁Hotel	-10.4608
▁Fingern	-10.4618
▁Kunstwerke	-10.4629
▁Pfanne	-10.4633
▁knien	-10.4671
waschen	-10.4677
eben	-10.4701
end	-10.4733
▁Seilen	-10.4747
▁vorbereitet	-10.4773
W	-10.4814
▁nass	-10.4826
recht	-10.4853
▁neu	-10.4855
▁Di	-10.4873
bung	-10.4874
▁fallen	-10.4902
▁Kindes	-10.4935
voll	-10.4941
▁Knie	-10.4941
▁mehrfarbige	-10.4942
▁Kette	-10.4942
▁Gürtel	-10.4943
▁Bälle	-10.4946
gelb	-10.4946
▁Köpfe	-10.4946
▁Welpe	-10.4947
▁Hüte	-10.4956
▁Tiere	-10.4987
▁Heißluftballon	-10.4993
halten	-10.5004
▁Bi	-10.5006
läuft	-10.5008
Hut	-10.5012
tritt	-10.503
grauen	-10.5032
decke	-10.5035
▁soll	-10.5041
▁Herz	-10.5041
▁Tätowierung	-10.5043
▁gold	-10.5057
öse	-10.5058
nehmen	-10.5074
j	-10.5079
▁Hoch	-10.5079
▁Rugby	-10.5083
▁Straßenmusik	-10.509
▁Beleuchtung	-10.5096
druck	-10.5096
▁glä	-10.5096
▁Kreuz	-10.5098
▁Part	-10.5098
scheibe	-10.51
▁Gummi	-10.51
oberteil	-10.51
▁Konferenz	-10.51
▁Herbst	-10.5101
▁Theater	-10.5101
▁Hafen	-10.5101
▁Operation	-10.5101
▁Apfel	-10.5101
▁Früchte	-10.5101
▁Kellner	-10.5101
▁Teilnehmer	-10.5101
▁sauber	-10.5101
behälter	-10.5101
▁Banjo	-10.5101
▁Haltung	-10.5101
▁Kneipe	-10.5101
▁Lacrosse	-10.5101
▁Nebel	-10.5101
▁Treppenstufen	-10.5101
▁Vergnügungspark	-10.5101
▁begeistert	-10.5101
▁elektrische	-10.5101
▁kümmert	-10.5101
▁paddeln	-10.5101
▁schützen	-10.5101
▁tropische	-10.5101
▁trübe	-10.5101
▁Während	-10.5101
▁aufgereiht	-10.5101
▁beisammen	-10.5101
▁lernt	-10.5101
▁schnitzt	-10.5101
▁suchen	-10.5101
▁prüft	-10.5101
▁deutsche	-10.5101
▁Lieferwagen	-10.5101
▁Waschbecken	-10.5101
▁Rikscha	-10.5101
▁angeboten	-10.5101
▁Schulkinder	-10.5101
▁Snack	-10.5102
▁Board	-10.5102
▁Fischernetz	-10.5102
▁Spaziergang	-10.5102
▁ansieht	-10.5102
nzende	-10.5102
▁begleitet	-10.5102
▁DJ	-10.5102
▁Badeanzügen	-10.5102
▁tut	-10.5102
▁Warte	-10.5102
▁USA	-10.5102
▁Stahl	-10.5103
▁Arzt	-10.5103
▁Home	-10.5103
▁Betonwand	-10.5103
▁knall	-10.5104
▁herumstehen	-10.5104
Maschendrahtzaun	-10.5104
▁Sprungbrett	-10.5104
▁abgestellt	-10.5105
▁Fabrik	-10.5106
▁Bohr	-10.5106
▁fremde	-10.5107
box	-10.5107
▁reflektierende	-10.5107
block	-10.5108
▁Laster	-10.5108
▁Sicht	-10.511
rampe	-10.511
▁packt	-10.511
▁Wasserrutsche	-10.511
▁Freundin	-10.5111
▁Fecht	-10.5112
▁Autobahn	-10.5113
▁Einkäufer	-10.5114
▁Fußballteam	-10.5114
▁Sandwich	-10.5114
▁Banner	-10.5114
▁schmale	-10.5117
▁Ballett	-10.5119
▁Tänzerin	-10.5119
▁putzen	-10.5122
▁Knöpfen	-10.5122
▁gemacht	-10.5124
▁Fahrradhelm	-10.5124
▁albern	-10.5136
▁gepunkteten	-10.5136
▁Mitarbeiter	-10.5139
▁Klasse	-10.5144
farbenen	-10.5145
bedeckte	-10.5154
▁legen	-10.5155
▁Tätowierungen	-10.516
▁Dreirad	-10.5162
▁Gesichtern	-10.5177
▁Schl	-10.5192
tag	-10.5204
mannschaften	-10.5216
▁Geräten	-10.5221
▁vordere	-10.5224
dach	-10.523
bus	-10.5234
the	-10.5261
▁aneinander	-10.5282
stellung	-10.5291
▁we	-10.5292
▁bemalten	-10.5308
▁Kleinkinder	-10.5337
▁lang	-10.5342
blau	-10.5376
▁Türen	-10.5392
▁Trommeln	-10.5413
ost	-10.5436
setzt	-10.548
pfen	-10.5504
▁ungewöhnliche	-10.5506
gew	-10.5508
▁Mi	-10.5516
▁sei	-10.5535
▁Schüsseln	-10.5541
ller	-10.5558
farbigen	-10.5601
▁angezogene	-10.5611
▁Kerle	-10.5625
▁Wa	-10.5708
mel	-10.572
sehen	-10.5732
▁Pe	-10.5741
▁Kameras	-10.5751
▁fröhlich	-10.5758
ale	-10.5761
ang	-10.5783
▁schreiben	-10.5784
pfad	-10.5785
falls	-10.5824
▁altes	-10.5826
ara	-10.583
▁aufgeregt	-10.5834
▁niedrige	-10.5837
▁Radfahrern	-10.5838
▁Waffe	-10.5846
▁Einkaufstasche	-10.585
▁flache	-10.5857
▁Auge	-10.5861
ligen	-10.5865
arbeit	-10.5889
ce	-10.5893
führen	-10.5897
ößt	-10.5901
rot	-10.5904
schaut	-10.5907
▁Karton	-10.5907
Outfit	-10.5919
Geschäft	-10.592
selbe	-10.5921
▁Ei	-10.5931
tanz	-10.5937
▁Mützen	-10.594
ud	-10.5948
▁Alter	-10.5951
▁Wette	-10.5969
▁Box	-10.5989
stürzt	-10.6004
▁Post	-10.6005
boot	-10.6005
tür	-10.6005
farbe	-10.6007
mauer	-10.6008
▁Hinter	-10.6008
llen	-10.6009
▁Flug	-10.6009
▁Nah	-10.601
foto	-10.601
▁Bordstein	-10.601
▁Lippen	-10.601
nterwäsche	-10.601
▁Friseur	-10.601
▁Beachvolleyball	-10.601
▁Webstuhl	-10.601
Baseballschläger	-10.601
Krankenschwester	-10.601
uarterback	-10.601
wettbewerb	-10.601
▁Beamte	-10.601
▁Cello	-10.601
▁Erzeugnisse	-10.601
▁Felsvorsprung	-10.601
▁Händchen	-10.601
▁Pizza	-10.601
▁Rahmen	-10.601
▁Rosa	-10.601
▁Smoking	-10.601
▁Telefonzelle	-10.601
▁Türöffnung	-10.601
▁Ureinwohner	-10.601
▁Vorrichtung	-10.601
▁Zylinder	-10.601
▁abgeworfen	-10.601
▁attraktive	-10.601
▁gefleckte	-10.601
▁möglicherweise	-10.601
▁präsentiert	-10.601
▁rückwärts	-10.601
▁sammeln	-10.601
▁schwebt	-10.601
▁schwingen	-10.601
▁serviert	-10.601
▁staubige	-10.601
▁säuber	-10.601
▁traurig	-10.601
▁vergnügt	-10.601
▁schütteln	-10.601
▁unordentlich	-10.601
▁Perlen	-10.6011
▁gesprungen	-10.6011
▁verteilt	-10.6011
▁verzierte	-10.6011
▁John	-10.6011
▁Lasso	-10.6011
▁Pink	-10.6011
▁Kante	-10.6011
▁Ofen	-10.6011
▁rudern	-10.6011
füllen	-10.6011
▁Lagerfeuer	-10.6011
▁Erdhügel	-10.6011
▁Tracht	-10.6011
▁Untergrund	-10.6011
▁moderne	-10.6011
▁City	-10.6011
▁Vorderseite	-10.6011
▁Aussicht	-10.6011
gitter	-10.6011
▁Redner	-10.6011
▁Pfeil	-10.6011
▁Fußballdress	-10.6011
▁grauhaarige	-10.6011
▁Karussell	-10.6011
▁Horn	-10.6011
▁gesenkt	-10.6011
▁Namen	-10.6011
▁Dock	-10.6011
▁fein	-10.6012
▁besteht	-10.6012
▁Brettspiel	-10.6012
hüte	-10.6012
ansammlung	-10.6012
▁Acht	-10.6012
▁Schlagmann	-10.6012
▁Geländewagen	-10.6013
▁schlecht	-10.6013
▁teilnehmen	-10.6013
▁Holzbank	-10.6014
wart	-10.6014
▁Fass	-10.6014
▁fl	-10.6015
▁Stab	-10.6015
▁Obststand	-10.6016
▁Experiment	-10.6016
▁transportiert	-10.6016
▁Kragen	-10.6016
▁Gericht	-10.6018
▁baum	-10.6018
hund	-10.6018
ette	-10.6019
tuch	-10.602
one	-10.6022
▁goldfarbene	-10.6022
▁Top	-10.6024
▁Stunt	-10.6024
▁Eiscreme	-10.6025
▁Ruder	-10.603
▁geschnitten	-10.603
▁Sieg	-10.6031
▁Pa	-10.6031
▁treiben	-10.6034
▁Must	-10.6035
▁angebracht	-10.6037
▁orientalisch	-10.604
▁Eier	-10.604
lassen	-10.6045
▁Gläsern	-10.6048
▁bietet	-10.6048
▁Turnschuhen	-10.6048
▁Schnur	-10.6051
▁Röhre	-10.6053
stimmt	-10.6061
▁langärmeligen	-10.6063
gespannt	-10.6069
▁Sonnen	-10.6071
strecken	-10.6094
▁meiste	-10.61
▁Ho	-10.61
▁Clowns	-10.6104
ähne	-10.6112
kt	-10.6119
▁Un	-10.6149
▁Säulen	-10.6154
rmel	-10.6164
▁Computern	-10.6195
▁Gr	-10.6199
▁Ca	-10.6202
zunehmen	-10.6215
ow	-10.6247
kopf	-10.6249
lose	-10.6256
▁Al	-10.6271
wi	-10.6276
▁Booten	-10.6278
ance	-10.6285
ierten	-10.629
▁Orangen	-10.6323
▁bräunliche	-10.6338
▁Gegenständen	-10.6339
tor	-10.634
los	-10.6345
▁Laptops	-10.6372
▁ru	-10.6398
Straßenverkäufer	-10.6405
▁Li	-10.6411
▁Fußgängern	-10.6432
nnt	-10.6435
▁zweite	-10.6437
▁Bad	-10.6442
▁sp	-10.6451
▁f	-10.6472
rädern	-10.6479
▁Fischen	-10.6502
eck	-10.6511
gesch	-10.6514
▁Kricket	-10.6545
▁spanische	-10.6559
iel	-10.6571
ble	-10.6578
itte	-10.6592
ze	-10.6594
▁Helme	-10.6595
▁Mar	-10.6603
stück	-10.6641
▁Windhund	-10.665
ziehen	-10.6678
▁bedruckte	-10.6689
▁Fahrrads	-10.6692
ierte	-10.6731
erkun	-10.674
kommen	-10.6744
▁Le	-10.6763
▁de	-10.6815
bt	-10.6832
▁Maschinen	-10.6849
▁Ente	-10.685
atz	-10.6852
▁trockene	-10.6853
▁Säule	-10.6854
▁Pflanze	-10.6866
▁Eishockey	-10.6878
▁Lade	-10.688
▁Schau	-10.6886
▁Puppe	-10.6888
ickt	-10.689
amp	-10.6902
▁Handschuhe	-10.6913
folgt	-10.6915
Scheibe	-10.6917
schlafen	-10.6919
Kleidung	-10.692
hinter	-10.692
zieht	-10.6929
▁Lebensmitteln	-10.6938
to	-10.6942
▁Schlittschuh	-10.6951
bewegung	-10.6951
ation	-10.6952
▁amüsier	-10.6953
▁for	-10.6957
▁Bu	-10.6958
nis	-10.6973
▁Paare	-10.6987
▁regne	-10.6987
▁Skate	-10.6988
schutz	-10.6988
ton	-10.6993
griff	-10.6994
schminkt	-10.7008
▁bevor	-10.7008
essen	-10.7008
treppe	-10.7008
▁versch	-10.7009
bogen	-10.7009
grill	-10.701
brücke	-10.701
nähe	-10.701
▁Bambus	-10.701
▁College	-10.701
▁Zahn	-10.701
digkeit	-10.701
ffentlichkeit	-10.701
gepackt	-10.701
▁Ampel	-10.701
▁Auslage	-10.701
▁Bergsteiger	-10.701
▁Drink	-10.701
▁Dämmerung	-10.701
▁Fontäne	-10.701
▁Gipfel	-10.701
▁Hoodie	-10.701
▁Hüfte	-10.701
▁Leggings	-10.701
▁Obdachlose	-10.701
▁Olympische	-10.701
▁Pilot	-10.701
▁Pullunder	-10.701
▁Schmetterling	-10.701
▁Stelzen	-10.701
▁Strumpfhose	-10.701
▁Verteidiger	-10.701
▁abgebildet	-10.701
▁bewaldete	-10.701
▁bockende	-10.701
▁elektronische	-10.701
▁erhobene	-10.701
▁ließt	-10.701
▁löschen	-10.701
▁medizinische	-10.701
▁militärische	-10.701
▁neugeborene	-10.701
▁schneit	-10.701
▁stolz	-10.701
▁trifft	-10.701
schnapp	-10.701
▁Axt	-10.701
▁Demonstrant	-10.701
▁Käse	-10.701
▁Schaulustige	-10.701
▁unterrichtet	-10.701
bändern	-10.701
wissenschaftlich	-10.701
▁mischt	-10.701
▁kratzt	-10.7011
▁Reklametafel	-10.7011
▁erklimmen	-10.7011
▁filmt	-10.7011
heruntergekommen	-10.7011
▁fischt	-10.7011
▁jeweil	-10.7011
▁verwenden	-10.7011
▁Essensstand	-10.7011
▁einfach	-10.7011
▁Freizeitpark	-10.7011
▁Klappstuhl	-10.7011
amens	-10.7011
▁Esstisch	-10.7011
▁Kabine	-10.7011
▁Waschmaschine	-10.7011
▁rutschen	-10.7011
▁Ziegelwand	-10.7011
▁Mülleimer	-10.7011
▁Afrikaner	-10.7011
▁Ziellinie	-10.7011
vent	-10.7011
▁formt	-10.7011
▁blocken	-10.7011
▁Unterhemd	-10.7012
▁Bruder	-10.7012
▁festgebunden	-10.7012
heit	-10.7012
▁Schritt	-10.7012
▁Steintreppe	-10.7012
▁Metallstange	-10.7013
▁Landstraße	-10.7013
▁Winterjacke	-10.7013
▁Holzzaun	-10.7013
▁passiert	-10.7013
▁Turm	-10.7014
▁Bord	-10.7014
▁erhält	-10.7015
▁fischen	-10.7015
▁Kürbis	-10.7015
▁Aufzug	-10.7015
▁Namensschild	-10.7016
▁Holzboden	-10.7016
▁Straßenseite	-10.7016
▁Jeep	-10.7016
▁Leinwand	-10.7016
▁Swimmingpool	-10.7016
eace	-10.7016
▁Innen	-10.7017
garten	-10.7017
▁Kilt	-10.7017
▁Khakihose	-10.7019
▁kauert	-10.7019
▁Bandmitglieder	-10.7021
kegel	-10.7022
▁Frisur	-10.7026
▁Präsentation	-10.7026
▁Feuerwehrauto	-10.7026
▁US	-10.7027
▁sorg	-10.7029
▁Tomaten	-10.7036
▁spritzen	-10.7037
▁gesehen	-10.704
bad	-10.7042
▁Gleisen	-10.7051
▁Rugbyspieler	-10.7052
▁größeren	-10.7057
and	-10.7073
▁Kostüme	-10.7075
▁gebaut	-10.7078
▁streichen	-10.7087
mittel	-10.7088
▁Shirts	-10.7091
▁Körben	-10.7103
▁Gitarristen	-10.7125
▁nasser	-10.7125
▁Sommer	-10.7128
▁Hallen	-10.7136
▁Porträt	-10.7146
▁ruhige	-10.7146
bett	-10.7157
ad	-10.7177
▁fröhliche	-10.7181
go	-10.7195
ho	-10.7216
▁Handwerk	-10.722
▁Stöcken	-10.7221
▁Schaf	-10.7231
▁liegenden	-10.7237
Schutzausrüstung	-10.7238
▁Bo	-10.7243
außen	-10.725
▁Bootes	-10.7261
▁Overalls	-10.7357
les	-10.7374
ntfern	-10.7397
▁oranger	-10.7425
ät	-10.7442
ata	-10.7449
iss	-10.7475
her	-10.7487
▁Ziegelsteine	-10.7499
handschuh	-10.7526
▁Bildern	-10.753
maske	-10.7535
▁So	-10.7537
Ma	-10.7545
▁Richtungen	-10.756
▁Segelboot	-10.7562
kletter	-10.7562
hä	-10.7575
tik	-10.7613
▁lachende	-10.762
nd	-10.763
guckt	-10.7637
ust	-10.7692
oo	-10.7694
▁schlafend	-10.77
iner	-10.7727
▁Ze	-10.7735
▁Reise	-10.7742
▁prob	-10.7742
schwarz	-10.7752
▁ruhig	-10.7759
konstruktion	-10.7763
▁helle	-10.7767
zeit	-10.7769
▁Klein	-10.7786
▁Tal	-10.7812
topf	-10.7829
▁beige	-10.7867
▁Nach	-10.7872
hand	-10.7884
▁dunkel	-10.7888
▁Mit	-10.7901
▁Eimern	-10.7907
▁g	-10.7913
▁Lampe	-10.7962
▁Schachtel	-10.7963
sägt	-10.7964
▁steile	-10.7969
▁kalte	-10.7969
tier	-10.798
▁angemalte	-10.7986
deck	-10.7987
bereiten	-10.7987
▁gepflasterte	-10.7987
▁Ra	-10.7991
▁spring	-10.8
▁Herrn	-10.8004
▁Asiat	-10.8014
tro	-10.8015
schaukel	-10.8016
Derby	-10.8021
▁J	-10.8023
zw	-10.8024
gerichtet	-10.8028
nimmt	-10.8029
Mannschaft	-10.8031
gibt	-10.8031
steigen	-10.8034
werfen	-10.8034
ba	-10.8035
▁uns	-10.8049
▁spazier	-10.8053
▁Student	-10.8065
geben	-10.8072
▁Schneeschuhe	-10.8079
▁Erd	-10.8082
▁wilde	-10.8086
▁Mitglied	-10.81
▁näher	-10.81
bank	-10.8101
▁Hockeyspiel	-10.8102
▁Geburtstag	-10.8107
▁Fische	-10.8107
▁Flip	-10.8107
sprung	-10.8108
▁Treppenhaus	-10.8114
oga	-10.8115
schmuck	-10.8115
tudio	-10.8117
wurf	-10.8119
brille	-10.812
▁Einkaufs	-10.812
▁Ober	-10.8121
flug	-10.8121
kräfte	-10.8121
stange	-10.8121
▁Freiluft	-10.8121
▁Nachbarschaft	-10.8122
▁Garage	-10.8122
▁Geschwi	-10.8122
▁Hamburger	-10.8122
▁Konstruktion	-10.8122
▁Käfig	-10.8122
▁Lokal	-10.8122
▁Zusammen	-10.8122
▁folgen	-10.8122
blöcke	-10.8122
party	-10.8122
technik	-10.8122
turnier	-10.8122
vorrichtung	-10.8122
▁Begeisterung	-10.8122
▁Betrachter	-10.8122
▁Beutel	-10.8122
▁Bündel	-10.8122
▁Flipflops	-10.8122
▁Forscher	-10.8122
▁Halloween	-10.8122
▁Irokesenschnitt	-10.8122
▁Kapuzenpullover	-10.8122
▁Mönch	-10.8122
▁Neugeborenes	-10.8122
▁Plate	-10.8122
▁akustische	-10.8122
▁bedienen	-10.8122
▁bindet	-10.8122
▁bürste	-10.8122
▁gebückt	-10.8122
▁getroffen	-10.8122
▁möchte	-10.8122
▁protestiert	-10.8122
▁schmetter	-10.8122
▁umzäunte	-10.8122
▁vergnügen	-10.8122
▁vorführt	-10.8122
▁völlig	-10.8122
▁Bauernmarkt	-10.8122
▁Paket	-10.8122
▁anhaben	-10.8122
▁dribbelt	-10.8122
▁entfernen	-10.8122
▁gefangen	-10.8122
▁hocken	-10.8122
▁kastanienbraune	-10.8122
▁China	-10.8122
▁Morgen	-10.8122
▁rostige	-10.8122
▁muskul	-10.8122
▁schützt	-10.8122
▁Schlafzimmer	-10.8122
▁umringt	-10.8122
▁daran	-10.8122
▁Karohemd	-10.8122
▁nächtliche	-10.8122
▁Felsbrocken	-10.8122
▁Gehstock	-10.8122
▁Wildwasser	-10.8122
▁Darbietung	-10.8122
▁Perücke	-10.8122
▁Nagel	-10.8122
▁Plüschtier	-10.8122
▁Wollmütze	-10.8122
▁Engel	-10.8122
eister	-10.8122
▁Sari	-10.8122
▁darin	-10.8122
mitarbeiter	-10.8122
▁Stativ	-10.8122
▁heraushängen	-10.8122
▁Kraft	-10.8122
ahrschein	-10.8122
▁Polo	-10.8122
▁Oberfläche	-10.8122
▁Polohemd	-10.8122
kraft	-10.8122
▁Verkaufsstand	-10.8122
kolle	-10.8122
▁boxen	-10.8122
▁Flussufer	-10.8123
▁Ziegelgebäude	-10.8123
▁Ansicht	-10.8123
▁Mitspieler	-10.8123
▁Außenbereich	-10.8123
▁Sandburg	-10.8123
▁Aufgabe	-10.8123
▁hervor	-10.8123
pult	-10.8123
▁Laufbahn	-10.8123
▁Regenbogen	-10.8124
▁gelangen	-10.8124
▁Spiegelbild	-10.8124
▁Fußballtrikot	-10.8124
▁langärmlige	-10.8125
▁Tanzfläche	-10.8125
▁Grau	-10.8125
▁Kampfsportler	-10.8125
▁Bass	-10.8125
▁Tennisplatz	-10.8125
karte	-10.8125
▁Absperrung	-10.8126
▁Sandhügel	-10.8126
rtikel	-10.8126
▁Rasenfläche	-10.8126
▁Studio	-10.8126
loch	-10.8127
▁Imbiss	-10.8127
▁Wohnung	-10.8127
▁Tim	-10.8127
▁Parcours	-10.8128
▁schlendert	-10.8128
▁erreichen	-10.8129
▁Kopfschmuck	-10.8129
▁gemalt	-10.8129
rand	-10.8129
▁Wasserbecken	-10.8131
▁Eiswagen	-10.8131
▁ausgezogen	-10.8132
▁Werfer	-10.8132
▁Papa	-10.8132
▁Musikgruppe	-10.8132
▁Stromschnellen	-10.8132
▁Nachrichten	-10.8132
▁sonnen	-10.8137
eimer	-10.8138
ständer	-10.814
pu	-10.814
sichtig	-10.814
▁fasst	-10.8144
▁Pose	-10.8145
späht	-10.8145
▁Texas	-10.815
▁Einkaufstüten	-10.815
▁Wolken	-10.815
▁Patienten	-10.8153
▁bestellen	-10.8154
▁angehalten	-10.8164
gefeuert	-10.8167
▁Hinterbeinen	-10.8169
▁holen	-10.8173
▁Wasserfläche	-10.8178
▁spül	-10.8183
▁Flügeln	-10.8188
uell	-10.8195
▁Bauer	-10.8195
▁schaukel	-10.8196
ob	-10.8198
▁wieder	-10.8199
tags	-10.8205
▁Fahrzeuge	-10.8206
▁Blasen	-10.8206
▁Go	-10.8207
ment	-10.821
▁gerichtet	-10.8218
▁überprüfen	-10.8223
▁Großer	-10.8224
▁dieselbe	-10.8235
▁Zeitschriften	-10.8237
▁Flusses	-10.8246
▁Kartons	-10.825
▁angezogener	-10.8253
▁klaren	-10.8254
▁Station	-10.8265
▁los	-10.8266
zeichnet	-10.8268
va	-10.8273
▁heller	-10.8274
▁Puppen	-10.8301
▁Bildes	-10.8308
▁farbenfroh	-10.833
od	-10.8358
cht	-10.8374
▁ei	-10.8382
▁Verkehrs	-10.8391
rote	-10.8405
▁hübschen	-10.8418
▁historische	-10.8432
uss	-10.844
aff	-10.8452
mäht	-10.8452
Saiteninstrument	-10.8472
▁lächelnden	-10.8482
isten	-10.8484
kreuz	-10.8488
äu	-10.8501
▁Windhunde	-10.854
pl	-10.8544
Holzkonstruktion	-10.8566
ling	-10.8597
schuhen	-10.8624
▁frei	-10.8653
▁Wander	-10.8654
▁Produkt	-10.8658
▁All	-10.8671
▁Bauwerk	-10.8701
▁Babys	-10.8748
▁Katzen	-10.8755
handschuhe	-10.876
▁verlassene	-10.8764
amerikanische	-10.8786
▁bestehend	-10.8797
▁Objekte	-10.8811
gucken	-10.8821
die	-10.8828
▁schwimmende	-10.8874
▁Streich	-10.8921
kel	-10.8935
kle	-10.8938
äht	-10.8984
grün	-10.8991
roll	-10.9017
ail	-10.9018
▁liegende	-10.902
ay	-10.9071
▁Kor	-10.9074
cker	-10.9099
▁blaugrüne	-10.9112
ant	-10.912
ub	-10.9123
▁geschminkt	-10.9128
ia	-10.914
▁Stil	-10.9147
▁Halle	-10.9214
our	-10.9216
ummer	-10.9219
▁Stiefel	-10.922
▁hellblaue	-10.9222
▁Taube	-10.9222
▁Seifenblase	-10.9223
zeichen	-10.9233
▁Passagiere	-10.9237
stapel	-10.9245
grüne	-10.9247
ide	-10.9247
▁Straßenfest	-10.9264
▁Hotdog	-10.9266
▁Ausstellung	-10.9267
lauf	-10.9269
kommt	-10.9278
vor	-10.9279
wirft	-10.9281
Football	-10.9281
orangefarbenen	-10.9281
Band	-10.9282
ücke	-10.9283
uppe	-10.9284
utter	-10.9289
ürz	-10.9298
ltere	-10.9307
▁wen	-10.9307
▁Schieß	-10.9308
figur	-10.931
▁größer	-10.9313
▁Tourist	-10.9315
▁Frei	-10.9318
stehenden	-10.9327
▁Turn	-10.9328
ac	-10.9328
gefahren	-10.9332
feuert	-10.9334
blätter	-10.9347
schlauch	-10.9348
▁gra	-10.9352
hügel	-10.9356
station	-10.936
▁Footballspiel	-10.9361
▁Protest	-10.9361
▁Wind	-10.9363
ränkte	-10.9364
schirm	-10.9365
▁Picknick	-10.9366
wachsen	-10.9367
schnüffelt	-10.9369
schüssel	-10.9369
▁Rettungs	-10.9371
äng	-10.9371
▁Unfall	-10.9371
▁Stroh	-10.9371
punkt	-10.9371
kante	-10.9371
zentrum	-10.9371
▁Staub	-10.9372
läufer	-10.9372
saugt	-10.9372
struktur	-10.9372
▁Batman	-10.9372
▁High	-10.9372
▁Jogger	-10.9372
▁Müllcontainer	-10.9372
▁Smartphone	-10.9372
Flops	-10.9372
bluse	-10.9372
hütte	-10.9372
papier	-10.9372
pfosten	-10.9372
rahmen	-10.9372
ylophon	-10.9372
zündet	-10.9372
▁Aktentasche	-10.9372
▁Baumstumpf	-10.9372
▁Blaskapelle	-10.9372
▁Dunkelheit	-10.9372
▁Feldhockey	-10.9372
▁Fotograph	-10.9372
▁Fächer	-10.9372
▁Glatze	-10.9372
▁Gleichgewicht	-10.9372
▁Hängematte	-10.9372
▁Monopoly	-10.9372
▁Oldtimer	-10.9372
▁Pfeife	-10.9372
▁Pistole	-10.9372
▁Randstein	-10.9372
▁Rollerskate	-10.9372
▁Supermarkt	-10.9372
▁Teddybär	-10.9372
▁Verschiedene	-10.9372
▁Volks	-10.9372
▁Zahnbürste	-10.9372
▁Zeichnung	-10.9372
▁Zeremonie	-10.9372
▁Zigarre	-10.9372
▁befindliche	-10.9372
▁blühende	-10.9372
▁dekorative	-10.9372
▁erklimmt	-10.9372
▁faulenzen	-10.9372
▁gefrorene	-10.9372
▁hochhackige	-10.9372
▁hüpfen	-10.9372
▁kanadische	-10.9372
▁rührt	-10.9372
▁schwenken	-10.9372
▁skatet	-10.9372
▁telefonieren	-10.9372
▁verwirrt	-10.9372
▁öffnen	-10.9372
▁Athlet	-10.9372
▁Rosen	-10.9372
▁Walmart	-10.9372
▁gewinnen	-10.9372
▁sortiert	-10.9372
▁welche	-10.9372
baby	-10.9372
▁Buchstaben	-10.9372
▁darüber	-10.9372
▁gelegenen	-10.9372
▁indianische	-10.9372
▁kämpft	-10.9372
▁mittelgroße	-10.9372
▁Backflip	-10.9372
▁Kaffeetasse	-10.9372
▁gespielt	-10.9372
▁lernen	-10.9372
▁tun	-10.9372
▁Marmor	-10.9372
▁Indien	-10.9372
▁dirigier	-10.9372
▁Gurt	-10.9372
▁Badekappe	-10.9372
▁Rasier	-10.9372
▁Horizont	-10.9372
▁krabbel	-10.9372
▁Billard	-10.9372
▁Hosenträgern	-10.9372
▁eingewickelt	-10.9372
▁Blech	-10.9372
▁Backsteinmauer	-10.9372
▁Wildnis	-10.9372
▁Europa	-10.9372
▁Vorführung	-10.9372
schlendern	-10.9372
▁Kaufhaus	-10.9372
ußgängerübergang	-10.9372
▁Reparatur	-10.9372
▁Schlucht	-10.9372
▁Sommertag	-10.9372
▁einheimische	-10.9372
▁segel	-10.9372
▁blockt	-10.9372
▁Hochstuhl	-10.9372
▁Unterhaltung	-10.9372
▁fern	-10.9372
▁schlanke	-10.9372
▁of	-10.9372
ällen	-10.9372
▁Geldautomaten	-10.9372
▁Sonnenlicht	-10.9372
▁Oberhemd	-10.9372
▁irgendwo	-10.9372
▁Klapp	-10.9372
lammen	-10.9372
▁Garn	-10.9373
▁Feuerstelle	-10.9373
▁Wippe	-10.9373
▁Spielsachen	-10.9373
▁Grünfläche	-10.9373
▁Neben	-10.9373
▁Laufband	-10.9373
▁Ziegelbau	-10.9373
richter	-10.9373
▁OP	-10.9373
▁Osten	-10.9373
▁Straßenszene	-10.9373
▁herrliche	-10.9373
▁Wasch	-10.9374
▁Mopp	-10.9374
▁Betonmauer	-10.9374
▁Steinbank	-10.9374
▁geflochtene	-10.9374
gestürzte	-10.9374
▁Blonde	-10.9374
ippe	-10.9375
▁Fischmarkt	-10.9375
▁Einsatz	-10.9376
stab	-10.9376
Air	-10.9376
▁Wassersprenger	-10.9376
ansicht	-10.9376
▁Waffel	-10.9377
▁Sporthalle	-10.9377
▁muss	-10.9377
▁betet	-10.9378
▁Holzbrett	-10.9378
▁Baseballfeld	-10.9378
auto	-10.9378
▁Elmo	-10.9379
▁Videokamera	-10.9379
▁lohfarbene	-10.9379
▁Wanne	-10.9379
▁sprüht	-10.9379
▁Straßenrennen	-10.9379
▁ausländische	-10.938
▁burgunderrote	-10.938
▁Straßenbahn	-10.938
Bahnstation	-10.9385
▁ausgeschnittene	-10.9386
▁Block	-10.9386
spielen	-10.9386
▁Fernseher	-10.9387
▁Schürzen	-10.9387
▁Stadtpark	-10.9388
▁beißen	-10.939
lten	-10.9391
▁Staubsauger	-10.9391
▁Tren	-10.9393
▁Paras	-10.9396
▁Anweisungen	-10.9399
▁Militäruniform	-10.94
zusehen	-10.9402
haltung	-10.9403
▁Ch	-10.9405
▁entwe	-10.9409
wasser	-10.9411
▁passt	-10.9417
▁Busses	-10.9419
ischer	-10.942
Spring	-10.9425
▁rosaroten	-10.9428
▁hellgrünen	-10.943
▁Kittel	-10.943
▁Rennfahrer	-10.9433
unte	-10.9434
▁richten	-10.9442
▁brechen	-10.9443
bewegungen	-10.9448
▁beten	-10.9451
gestellt	-10.9467
▁Tüten	-10.9469
▁Figuren	-10.9471
▁hellrote	-10.9472
▁türkise	-10.948
▁verleg	-10.9491
▁Zauns	-10.9502
reichen	-10.9505
▁Ziegen	-10.9512
ta	-10.9534
▁erleuchtet	-10.9541
▁Ozeans	-10.9547
hre	-10.9554
▁Lampen	-10.9555
▁Schachteln	-10.9555
▁schicke	-10.9568
▁leere	-10.957
liegenden	-10.9571
▁hellgelbe	-10.9572
ard	-10.9572
▁trockenen	-10.9574
▁violett	-10.958
decken	-10.9593
tte	-10.9595
ood	-10.9603
form	-10.9614
▁mehrfarbigen	-10.9621
utsch	-10.9626
▁Form	-10.9651
▁Armee	-10.9665
▁Rennens	-10.9683
▁Vögeln	-10.9687
▁zuhört	-10.9704
bel	-10.9704
▁probier	-10.9792
▁schaufeln	-10.982
▁Hause	-10.9823
▁Flugzeugs	-10.9833
hen	-10.9906
▁Vi	-10.9918
Pad	-10.9922
zimmer	-10.9922
▁Fahrzeugen	-10.9965
▁keine	-10.9968
▁Zelten	-10.9993
▁Ga	-11.0013
▁c	-11.0034
gebaut	-11.0034
elle	-11.0035
ap	-11.0036
son	-11.0054
▁gefallen	-11.0077
▁Punkt	-11.008
▁Do	-11.0087
▁marineblaue	-11.0093
ender	-11.0142
▁Spitz	-11.0184
▁schl	-11.0188
fahrrad	-11.02
ko	-11.0228
ntur	-11.0325
bi	-11.033
▁Jahre	-11.0352
dy	-11.041
▁Sta	-11.0434
▁war	-11.0436
kun	-11.0448
▁De	-11.049
graue	-11.0546
tscht	-11.0548
▁Eisenbahn	-11.0562
tzt	-11.0574
legen	-11.0583
▁Cheerleaderin	-11.0595
▁erleuchtete	-11.061
leitung	-11.0616
▁Ziege	-11.0637
▁Warnweste	-11.0637
▁Kabel	-11.0638
▁Dose	-11.064
▁kunstvolle	-11.0643
▁Häuser	-11.0646
▁Palme	-11.0646
▁farb	-11.0646
▁türkis	-11.0659
automaten	-11.0666
lä	-11.0668
weste	-11.0676
verkehr	-11.068
▁plan	-11.0694
unterricht	-11.0698
▁ba	-11.0702
spritzt	-11.0702
J	-11.0705
graben	-11.0706
▁eng	-11.0707
durch	-11.0709
Wagen	-11.071
Trikot	-11.071
Park	-11.071
Rad	-11.071
junge	-11.0726
uniform	-11.0736
ß	-11.0738
▁Gleis	-11.0742
▁Schnu	-11.0742
▁bärtige	-11.0744
▁Fang	-11.0744
▁laufende	-11.0755
haarige	-11.0774
flasche	-11.0775
hör	-11.0776
kuchen	-11.078
▁Rast	-11.0784
bart	-11.0786
itz	-11.0788
▁Khaki	-11.0788
zaun	-11.079
kasten	-11.0794
▁mehr	-11.0796
äufer	-11.0797
künstler	-11.0797
geländer	-11.0797
gebunden	-11.0798
▁Dunk	-11.0798
▁Sattel	-11.08
▁Asphalt	-11.08
▁Camping	-11.08
▁Fliesen	-11.08
▁Halb	-11.08
▁Möbel	-11.08
trommel	-11.08
▁Plüsch	-11.08
▁Schutt	-11.08
▁Apple	-11.08
▁Coca	-11.08
gegend	-11.08
mittelalterliche	-11.08
schlange	-11.08
▁Alkohol	-11.08
▁Bagger	-11.08
▁Barkeeper	-11.08
▁Baskenmütze	-11.08
▁Baumstämmen	-11.08
▁Blazer	-11.08
▁Brautjungfern	-11.08
▁Broschüre	-11.08
▁Bücherregal	-11.08
▁Demonstration	-11.08
▁Dschungel	-11.08
▁Ereignis	-11.08
▁Felsklippe	-11.08
▁Filz	-11.08
▁Fleck	-11.08
▁Gesellschaft	-11.08
▁Getreide	-11.08
▁Gletscher	-11.08
▁Gokart	-11.08
▁Griff	-11.08
▁Habseligkeiten	-11.08
▁Indianer	-11.08
▁Kaninchen	-11.08
▁Konfetti	-11.08
▁Kunstgalerie	-11.08
▁Können	-11.08
▁Lautsprecher	-11.08
▁Mülltüte	-11.08
▁Ochsen	-11.08
▁Pizzeria	-11.08
▁Popcorn	-11.08
▁Schwebebalken	-11.08
▁Staffelei	-11.08
▁Tauziehen	-11.08
▁Tempel	-11.08
▁Violett	-11.08
▁Züge	-11.08
▁abgedunkelte	-11.08
▁abgesperrt	-11.08
▁aufgeblasen	-11.08
▁bleiben	-11.08
▁bleibt	-11.08
▁faulenzt	-11.08
▁geflie	-11.08
▁gesichert	-11.08
▁gießen	-11.08
▁grüß	-11.08
▁iPod	-11.08
▁kümmern	-11.08
▁regelt	-11.08
▁steinerne	-11.08
▁steuert	-11.08
▁tippt	-11.08
▁trottet	-11.08
faltet	-11.08
▁Betonstufen	-11.08
▁Highschool	-11.08
▁Jenga	-11.08
▁Regal	-11.08
▁Säge	-11.08
▁Versuch	-11.08
▁Wandmalerei	-11.08
▁beendet	-11.08
▁gepolsterte	-11.08
▁hackt	-11.08
▁leitet	-11.08
▁zielt	-11.08
▁zugewandt	-11.08
räumen	-11.08
▁Friedenszeichen	-11.08
▁Schmink	-11.08
▁Töpferware	-11.08
▁richtig	-11.08
▁Neon	-11.08
▁Sims	-11.08
▁aufgesetzte	-11.08
▁Huhn	-11.08
▁Krone	-11.08
Anzeige	-11.08
▁Braun	-11.08
▁Kanal	-11.08
▁Gesichtsmaske	-11.08
gierig	-11.08
▁Dinosaurier	-11.08
▁Nachmittag	-11.08
▁Töpfe	-11.08
▁Zebrastreifen	-11.08
▁lackiert	-11.08
▁schleift	-11.08
▁Felsformation	-11.08
▁weinende	-11.08
▁Tankstelle	-11.08
▁Subway	-11.08
▁religiöse	-11.08
▁zahlreiche	-11.08
▁Square	-11.08
▁Großstadt	-11.08
▁Innenhof	-11.08
▁Speisekarte	-11.08
▁Seife	-11.08
▁genau	-11.08
▁balg	-11.08
▁Tutu	-11.08
▁Geldbeutel	-11.08
▁Modellflugzeug	-11.08
▁lädt	-11.08
▁strahlend	-11.08
▁Backsteinstraße	-11.08
▁Pflasterstraße	-11.08
▁puste	-11.0801
▁Pinsel	-11.0801
▁gehüllt	-11.0801
▁Hawaii	-11.0801
▁Kom	-11.0801
▁Ruderboot	-11.0801
▁Fassade	-11.0801
▁Information	-11.0801
▁Strom	-11.0801
▁gefärbte	-11.0801
▁Kopfstein	-11.0801
▁geschrieben	-11.0801
▁Felsblock	-11.0801
▁buckelnde	-11.0801
▁mexikanische	-11.0801
▁Innenraum	-11.0801
▁zuhause	-11.0801
▁Stelle	-11.0801
▁Kinn	-11.0801
eginn	-11.0801
▁Schuss	-11.0801
▁Vorstellung	-11.0802
▁Seitenlinie	-11.0802
▁Wintertag	-11.0802
way	-11.0802
schenkt	-11.0802
▁Ringkampf	-11.0802
▁Stammeskleidung	-11.0802
▁Begriff	-11.0802
▁Stadtszene	-11.0802
▁Food	-11.0802
▁Leben	-11.0802
▁hochzuklettern	-11.0802
▁Umhänge	-11.0803
▁Torbogen	-11.0803
▁Glastür	-11.0803
▁Kuss	-11.0803
▁gestapelt	-11.0803
säge	-11.0803
▁Leucht	-11.0803
▁tote	-11.0804
▁rauf	-11.0804
uad	-11.0804
▁Stamm	-11.0804
Gesichtsausdruck	-11.0804
gebung	-11.0804
▁Pass	-11.0805
▁Wort	-11.0805
▁weißhaarige	-11.0805
▁Aufschlag	-11.0806
▁Rockband	-11.0806
▁parken	-11.0806
▁hochgehoben	-11.0807
▁Berglandschaft	-11.0808
▁hinweg	-11.0809
getränk	-11.0809
▁europäische	-11.0809
▁Einrichtung	-11.0809
▁Schwester	-11.0809
▁Basketballfeld	-11.0809
▁Kontrolle	-11.081
▁Footballfeld	-11.0811
▁Betonplatte	-11.0811
▁Pult	-11.0812
Vogelperspektive	-11.0812
▁versteckt	-11.0813
▁fasziniert	-11.0813
▁Sack	-11.0814
▁Dress	-11.0815
geräum	-11.0817
theke	-11.0818
▁türkisfarbene	-11.0818
schließt	-11.082
▁Jo	-11.082
▁Kartenspiel	-11.0821
▁Hundespielzeug	-11.0823
gestreiften	-11.0823
▁binden	-11.0823
roh	-11.0823
▁interagieren	-11.0823
▁Fernsehen	-11.0824
▁Geländefahrzeug	-11.0825
▁Make	-11.0825
▁Ihr	-11.0826
▁Landung	-11.0829
▁Kameramann	-11.0831
▁Graben	-11.0832
▁Speer	-11.0833
▁regnet	-11.0834
▁Kamm	-11.0836
▁vorbeifahren	-11.0837
stöcken	-11.0837
▁getragen	-11.0841
▁Noten	-11.0841
ängen	-11.0843
▁Preis	-11.0845
▁dunkelgrüne	-11.0846
▁Schneeball	-11.0846
▁Busch	-11.0847
▁Fahrradrennen	-11.0851
BH	-11.0852
▁schreiende	-11.0853
▁heim	-11.0853
▁überdachte	-11.0854
▁Fangen	-11.0862
▁Laternen	-11.0863
▁Toiletten	-11.0863
▁Wasserstraße	-11.0865
▁gehoben	-11.0867
▁denkt	-11.0868
▁Geh	-11.0872
▁McDonalds	-11.0873
▁Wei	-11.0874
deckt	-11.0876
▁reicht	-11.0888
▁Möwen	-11.0888
▁Bananen	-11.0888
▁Schlittschuhen	-11.0888
▁Besitzer	-11.0889
▁Van	-11.0891
▁pflanzen	-11.0901
▁Herzen	-11.0907
▁Butt	-11.0908
▁Wassermelonen	-11.0913
▁Wetter	-11.0914
bungen	-11.0914
stil	-11.0915
hu	-11.0926
lings	-11.0929
▁Tischdecke	-11.0929
stock	-11.093
▁rauchend	-11.0948
▁Car	-11.0953
▁Dosen	-11.0964
▁Kle	-11.0977
▁Bl	-11.0982
▁Schauspieler	-11.0988
▁aufgenommen	-11.0997
▁Ar	-11.1012
▁fr	-11.1013
▁Schiffs	-11.1021
▁Passagieren	-11.1022
▁du	-11.1024
▁Sommerkleid	-11.1039
▁Enten	-11.1041
▁Mini	-11.1053
kommende	-11.1057
▁Or	-11.1062
▁Einkaufstaschen	-11.1065
▁Waffen	-11.1065
Ha	-11.1072
▁Fan	-11.1086
zeichnung	-11.1091
▁Ketten	-11.1091
▁Knien	-11.1091
▁Stofftier	-11.1115
qui	-11.1122
▁Per	-11.1122
Fallschirmspring	-11.1143
stens	-11.1161
▁unbekannte	-11.1176
zeugen	-11.1183
tischen	-11.1197
rolle	-11.1235
▁voran	-11.1242
▁Runde	-11.1271
tra	-11.1279
▁haltend	-11.1287
spiegel	-11.129
uh	-11.1291
▁kaputte	-11.134
ate	-11.1346
teilen	-11.1348
tes	-11.1359
▁Softballspieler	-11.1378
kund	-11.1392
▁essend	-11.1422
▁Schweiß	-11.1446
▁he	-11.1464
liche	-11.1509
ktion	-11.1535
th	-11.1562
▁tiefe	-11.157
▁Kajaks	-11.1598
▁Radrenn	-11.1598
▁Ladens	-11.1613
▁Eishockeyspiel	-11.1633
▁Videospiele	-11.1636
▁Fahrzeugs	-11.1641
sgeschäft	-11.1681
▁gek	-11.1689
▁wenig	-11.1706
wä	-11.1709
▁bl	-11.1726
▁aufeinander	-11.1745
▁Zelte	-11.1764
lack	-11.1772
The	-11.1781
▁Schale	-11.1783
▁erhöhte	-11.1785
roter	-11.1795
▁Badehosen	-11.181
▁geschlossen	-11.181
kla	-11.1821
▁gute	-11.183
▁geschlagen	-11.1832
▁ro	-11.1839
instrument	-11.1842
iz	-11.1861
reicht	-11.1876
▁Werbe	-11.1898
▁Boote	-11.1905
ix	-11.1978
▁Mal	-11.1983
denken	-11.2037
▁Freizeit	-11.2049
reif	-11.2066
▁komische	-11.2087
▁einzu	-11.2097
▁Softballspiel	-11.2118
geräte	-11.212
tage	-11.2133
schwimmen	-11.2154
▁verbunden	-11.216
▁verletzt	-11.2168
eilen	-11.2189
▁Jack	-11.2202
farbig	-11.2218
genommen	-11.2239
▁besuch	-11.2243
▁interessante	-11.2244
kü	-11.2245
▁besch	-11.2261
schiedenfarbige	-11.2264
▁rauchen	-11.2295
▁klare	-11.2309
strecke	-11.2309
▁Körbe	-11.231
▁Wände	-11.2313
▁Bulle	-11.2315
▁Kunde	-11.2316
▁klein	-11.2332
▁Teenagerin	-11.2334
▁Japan	-11.2348
hält	-11.2349
Cola	-11.2368
▁etwa	-11.237
▁Besitz	-11.2371
brechen	-11.2371
schaufel	-11.2374
schneiden	-11.2375
steigt	-11.2375
rosa	-11.2376
Konzert	-11.2376
schneidet	-11.2376
Auto	-11.2376
rutscht	-11.2377
spül	-11.2377
bunte	-11.2378
paar	-11.238
richten	-11.2383
gestell	-11.2385
▁wir	-11.2401
▁inspizier	-11.2406
wärts	-11.2408
zi	-11.241
▁Spar	-11.2411
▁neb	-11.2411
▁kau	-11.2422
▁Reit	-11.2432
gabe	-11.2434
if	-11.2435
tiert	-11.2439
▁Design	-11.2442
schließ	-11.2443
▁Schw	-11.2445
schloss	-11.2453
szene	-11.2457
waren	-11.2461
▁Pri	-11.2461
reihe	-11.2462
wache	-11.2462
streifen	-11.2463
ität	-11.2464
änteln	-11.2465
karren	-11.2465
becher	-11.2466
holz	-11.2466
objekt	-11.2466
▁Spazier	-11.2466
motor	-11.2466
sportler	-11.2466
▁Wild	-11.2466
führer	-11.2467
aufnahme	-11.2467
▁Draht	-11.2467
fältig	-11.2467
▁Tank	-11.2467
ätzen	-11.2467
pfleg	-11.2467
flute	-11.2467
position	-11.2467
▁America	-11.2467
▁Badminton	-11.2467
▁Cowgirl	-11.2467
▁Milch	-11.2467
▁Street	-11.2467
bündel	-11.2467
crew	-11.2467
entgegengesetzte	-11.2467
geführt	-11.2467
kapelle	-11.2467
komplex	-11.2467
leidenschaftlich	-11.2467
motiv	-11.2467
outfit	-11.2467
werfer	-11.2467
▁Amboss	-11.2467
▁Aufmerksamkeit	-11.2467
▁Berggipfel	-11.2467
▁Bulldozer	-11.2467
▁Bürste	-11.2467
▁Digitalkamera	-11.2467
▁Domino	-11.2467
▁Einkaufspassage	-11.2467
▁Empfang	-11.2467
▁Fahrgäste	-11.2467
▁Fitnessstudio	-11.2467
▁Hochzeitstorte	-11.2467
▁Hydranten	-11.2467
▁Hüpfburg	-11.2467
▁Joggen	-11.2467
▁Kampfkunst	-11.2467
▁Karneval	-11.2467
▁Küchentresen	-11.2467
▁Lieblings	-11.2467
▁Limonade	-11.2467
▁Limousine	-11.2467
▁Maulkörben	-11.2467
▁Minigolf	-11.2467
▁Ohrhörer	-11.2467
▁Poloshirt	-11.2467
▁Professor	-11.2467
▁Promenade	-11.2467
▁SMS	-11.2467
▁Sackhüpfen	-11.2467
▁Schädel	-11.2467
▁Schärpe	-11.2467
▁Seilspringen	-11.2467
▁Spielmannszug	-11.2467
▁Stabhochsprung	-11.2467
▁Textnachricht	-11.2467
▁Thema	-11.2467
▁Ultimate	-11.2467
▁Vorlesung	-11.2467
▁Weihnachten	-11.2467
▁Wunderkerze	-11.2467
▁Zuckerwatte	-11.2467
▁Zutaten	-11.2467
▁akrobatische	-11.2467
▁angeleint	-11.2467
▁ausgestopfte	-11.2467
▁begutachten	-11.2467
▁bequem	-11.2467
▁beschädigte	-11.2467
▁dreckige	-11.2467
▁erwischt	-11.2467
▁freut	-11.2467
▁füttern	-11.2467
▁gemütlich	-11.2467
▁irgendetwas	-11.2467
▁kaukasische	-11.2467
▁kehren	-11.2467
▁kicken	-11.2467
▁komplizierte	-11.2467
▁lebhaft	-11.2467
▁navigier	-11.2467
▁olympische	-11.2467
▁pflückt	-11.2467
▁protestieren	-11.2467
▁schattige	-11.2467
▁schält	-11.2467
▁senkrecht	-11.2467
▁surfen	-11.2467
▁trocknet	-11.2467
▁wolkige	-11.2467
▁Aktivität	-11.2467
▁Frühstück	-11.2467
▁Gänse	-11.2467
▁Radio	-11.2467
▁Tischtennis	-11.2467
▁Wasserfontäne	-11.2467
▁beteiligt	-11.2467
▁durchsucht	-11.2467
▁einkaufen	-11.2467
▁früh	-11.2467
▁kommunizier	-11.2467
▁stöber	-11.2467
▁wäre	-11.2467
wiese	-11.2467
▁Haken	-11.2467
▁Haut	-11.2467
▁Kühe	-11.2467
▁Salat	-11.2467
▁bricht	-11.2467
▁kostümierte	-11.2467
▁Elf	-11.2467
▁Krug	-11.2467
▁Schloss	-11.2467
▁platziert	-11.2467
▁verfolgen	-11.2467
anzeige	-11.2467
▁Hörsaal	-11.2467
▁Nadelstreifen	-11.2467
▁Rückwärtssalto	-11.2467
▁karge	-11.2467
▁Pony	-11.2467
▁Steg	-11.2467
▁Geschichte	-11.2467
▁Dreh	-11.2467
▁Lippenstift	-11.2467
▁Dekorationen	-11.2467
▁Liegestühlen	-11.2467
▁Polizeibeamte	-11.2467
▁Pyramide	-11.2467
▁Spazierstock	-11.2467
▁Wettlauf	-11.2467
▁Aquarium	-11.2467
▁überblickt	-11.2467
▁Fingernägel	-11.2467
▁intensiv	-11.2467
aufführung	-11.2467
▁Kathedrale	-11.2467
▁servieren	-11.2467
asino	-11.2467
▁Durchgang	-11.2467
▁Möbelstück	-11.2467
▁müde	-11.2467
▁Angestellte	-11.2467
rgert	-11.2467
▁Bordsteinkante	-11.2467
▁Dunkeln	-11.2467
▁Schotterstraße	-11.2467
hammer	-11.2467
▁Klettern	-11.2467
▁Essenswagen	-11.2467
ofen	-11.2467
▁Haarschnitt	-11.2467
▁Fernrohr	-11.2467
▁toll	-11.2467
▁Ebene	-11.2467
▁Krankenhausbett	-11.2467
▁kontrollier	-11.2467
▁Kamin	-11.2467
▁Schnorchel	-11.2467
▁besetzte	-11.2467
pflasterstraße	-11.2467
▁Schwimmflügeln	-11.2467
▁Nachtclub	-11.2468
▁poliert	-11.2468
▁poli	-11.2468
▁Muschel	-11.2468
▁Bänder	-11.2468
▁Blumenstrauß	-11.2468
▁Schotterweg	-11.2468
▁Motorboot	-11.2468
▁Fischerboot	-11.2468
wärme	-11.2468
gedruckt	-11.2468
▁nipp	-11.2468
trennt	-11.2468
▁Fußgängerbrücke	-11.2468
▁Strandpromenade	-11.2468
stunde	-11.2468
▁Innere	-11.2468
▁verrückt	-11.2468
▁Außenseite	-11.2468
▁Schwanz	-11.2468
▁Ausschau	-11.2469
▁Golfplatz	-11.2469
udiert	-11.2469
▁Meeresfrüchte	-11.2469
▁Landkarte	-11.2469
▁Wanderweg	-11.2469
homa	-11.2469
▁Kopftücher	-11.2469
▁cremefarbene	-11.2469
▁aufhat	-11.2469
▁kurzhaarige	-11.2469
▁Aktion	-11.2469
▁Betonbank	-11.2469
▁State	-11.2469
▁gedrängt	-11.247
▁Schwimmhilfe	-11.247
▁lustige	-11.247
▁Metallzaun	-11.247
▁Bikinioberteil	-11.247
einend	-11.247
▁Projektor	-11.247
▁vermu	-11.247
▁teilnimmt	-11.2471
▁gestützt	-11.2471
▁Saal	-11.2471
flugzeug	-11.2471
▁Feuerwerk	-11.2471
▁Taucheranzug	-11.2472
▁Eislaufen	-11.2472
▁Segel	-11.2472
▁Glasgebäude	-11.2473
▁Fußtritt	-11.2473
▁Ausw	-11.2473
▁raus	-11.2473
▁Leoparden	-11.2473
▁Senioren	-11.2473
▁versehen	-11.2473
▁Wasserpistole	-11.2473
▁Bill	-11.2473
▁Partner	-11.2474
▁Geste	-11.2474
fang	-11.2474
▁Tänzerinnen	-11.2475
▁Spielplatzgerät	-11.2475
▁Handgelenk	-11.2475
▁Badekleidung	-11.2475
klapp	-11.2475
▁Straßenmarkt	-11.2475
▁erreicht	-11.2475
▁geradeaus	-11.2476
▁hochspringt	-11.2476
▁Footballteam	-11.2476
▁hochhält	-11.2477
▁Position	-11.2477
▁Pyjama	-11.2477
▁Struktur	-11.2477
▁bohrt	-11.2477
▁ethnische	-11.2477
▁pflüg	-11.2477
▁Hubschrauber	-11.2477
▁Eisbahn	-11.2477
▁Sandskulptur	-11.2477
▁strickt	-11.2478
▁zeichnen	-11.2478
▁Ausflug	-11.2478
▁Steig	-11.2478
▁herein	-11.2479
gesicht	-11.2479
wählt	-11.2481
leiter	-11.2481
▁schippt	-11.2482
▁hochkletter	-11.2482
▁Uferweg	-11.2482
▁Skateboardtrick	-11.2482
▁mobile	-11.2482
▁Wartungsarbeite	-11.2483
gerahmte	-11.2484
händige	-11.2485
▁heran	-11.2485
▁Stände	-11.2486
▁Skateboardpark	-11.2486
▁Schere	-11.2488
▁modische	-11.249
▁Autositz	-11.2493
▁Schrift	-11.2494
▁Rasenmäher	-11.2495
▁Tennisschuhen	-11.2496
▁verä	-11.2498
ester	-11.2498
▁untergeht	-11.2499
▁Fall	-11.2499
▁Spielzeugauto	-11.25
▁Ohrring	-11.2502
stoff	-11.2503
▁Trinken	-11.2506
bäumen	-11.2508
lehrt	-11.2512
heft	-11.2512
▁wetteifern	-11.2512
▁Schwein	-11.2513
▁Tiger	-11.2514
▁Notizen	-11.2517
▁Massen	-11.2517
▁zusammenge	-11.2518
▁einzufangen	-11.2519
Tea	-11.2522
▁inspizieren	-11.2528
▁Festival	-11.253
pferd	-11.2532
▁Marke	-11.2534
angehöriger	-11.2534
▁besprüht	-11.2535
▁Trau	-11.2536
▁Deckel	-11.2537
▁Welt	-11.2537
▁armen	-11.2542
greifen	-11.2546
▁Punkten	-11.2546
▁probieren	-11.2547
spekt	-11.2548
▁schick	-11.2549
▁Mast	-11.2551
▁Spielerin	-11.2561
▁Begleiter	-11.2565
üstung	-11.2567
Tisch	-11.2568
hang	-11.257
▁Kiefern	-11.2572
▁aufgehängt	-11.2573
▁Schienen	-11.2582
▁Japaner	-11.2587
▁Bahngleisen	-11.2589
▁Wasserball	-11.2589
▁dunkelbraune	-11.259
▁Eiswaffeln	-11.2602
▁kna	-11.2606
▁Hotdogs	-11.2613
▁gefahren	-11.2621
▁vorübergehen	-11.2631
▁festliche	-11.2639
▁Warnwesten	-11.2663
▁Kabeln	-11.2663
▁fröhliches	-11.2664
nummer	-11.2692
▁Gewehren	-11.2695
▁niedliche	-11.2697
helfe	-11.2715
▁Pu	-11.2715
start	-11.2719
▁wirken	-11.2723
latz	-11.2728
▁Lif	-11.273
du	-11.2734
▁Werkzeugen	-11.2746
▁Bullenr	-11.2748
▁tanzende	-11.2751
▁Fu	-11.2756
falle	-11.2773
▁verletzte	-11.2775
▁Plane	-11.2776
ringen	-11.2785
▁Fer	-11.2786
▁For	-11.2796
▁aufgeregte	-11.2812
▁Gürteln	-11.2816
▁Messe	-11.2845
▁tiefen	-11.2845
▁Verkaufs	-11.2848
▁entl	-11.2853
▁Eingangs	-11.2854
▁Fußballspielen	-11.2866
ritt	-11.2875
▁Pi	-11.2887
kiste	-11.2887
Freizeitkleidung	-11.2903
▁Alte	-11.2911
▁aufrecht	-11.2955
spitze	-11.2956
springt	-11.2985
▁arbeitende	-11.2995
▁unglücklich	-11.2999
schale	-11.3008
▁Arbeiten	-11.3009
▁Fitness	-11.3032
▁Kegeln	-11.3034
▁Scha	-11.3068
▁Stücke	-11.3078
▁Gesichter	-11.312
▁blond	-11.3135
akt	-11.3144
teilig	-11.3161
▁seltsam	-11.319
üste	-11.3233
▁Sitzende	-11.3235
▁Stra	-11.3265
▁Große	-11.327
üll	-11.329
stützt	-11.3329
stücke	-11.3347
chaufensterfront	-11.3378
▁Lu	-11.3393
puppe	-11.3402
chaufensterpuppe	-11.3436
ney	-11.347
▁rosarot	-11.3473
▁Scheinwerfer	-11.348
alten	-11.3519
▁kein	-11.3556
▁förmliche	-11.3582
stelle	-11.3594
▁gesäumt	-11.367
sicht	-11.3693
lung	-11.3719
klu	-11.3726
▁Na	-11.3735
▁Funk	-11.3825
▁Golfspiel	-11.3832
rutsche	-11.3853
oke	-11.3864
▁Chi	-11.3898
springer	-11.3992
horn	-11.4019
ph	-11.4068
▁Red	-11.4102
N	-11.4143
tackelt	-11.4147
▁Hacke	-11.4159
▁Schwimmerin	-11.4187
▁umgedrehte	-11.4202
orange	-11.421
gestreifte	-11.4216
▁Inder	-11.4219
echten	-11.4246
oberfläche	-11.4279
▁älter	-11.428
▁Kick	-11.4286
steht	-11.4299
platte	-11.4301
▁letzte	-11.4301
▁Eiswaffel	-11.4304
pflanz	-11.4305
▁Wassermelone	-11.4306
▁Tüte	-11.4308
▁Blase	-11.4309
▁groß	-11.4309
▁Büsche	-11.4313
▁bewölkte	-11.4313
▁Speise	-11.4313
▁Kerze	-11.4313
▁Rucksäcke	-11.4313
eisten	-11.4343
▁Begleit	-11.4349
robe	-11.435
prach	-11.4351
tiefeln	-11.4351
▁seh	-11.4356
gehoben	-11.4361
▁McDonald	-11.4362
▁Training	-11.4368
langen	-11.4369
▁Farb	-11.4371
fertige	-11.4371
Kittel	-11.4371
Rennfahrer	-11.4371
tragen	-11.4371
holen	-11.4372
Mitarbeiter	-11.4373
malen	-11.4374
Tattoo	-11.4374
Werbung	-11.4375
Ausrüstung	-11.4375
Tunnel	-11.4375
jagt	-11.4376
▁kreis	-11.4376
tief	-11.4376
Computer	-11.4376
Rennen	-11.4376
Restaurant	-11.4376
Fahrrad	-11.4377
statt	-11.4377
herum	-11.4377
karierte	-11.4377
Teams	-11.438
▁enge	-11.4387
dreh	-11.4389
gehalten	-11.4391
treffen	-11.4395
geschnittene	-11.4397
▁rund	-11.4405
▁Notiz	-11.4406
▁Wett	-11.4408
▁Patient	-11.4408
▁dränge	-11.4411
ausstellung	-11.4411
▁Not	-11.4412
▁Backstein	-11.4416
▁Löwen	-11.4417
ehrt	-11.4418
reckt	-11.4421
pflanzen	-11.4431
▁Gegen	-11.4436
räumt	-11.4442
feuer	-11.4444
▁bewunder	-11.4445
▁Pitch	-11.4445
▁pack	-11.4446
nsammlung	-11.4449
dreht	-11.445
▁hellrosa	-11.4453
haufen	-11.4454
raktor	-11.4456
zuheben	-11.4456
orhüter	-11.4457
ohren	-11.4459
trikot	-11.4462
laster	-11.4462
metall	-11.4463
lampe	-11.4463
▁Schotter	-11.4465
▁Back	-11.4465
person	-11.4465
projekt	-11.4466
tunnel	-11.4466
verkauf	-11.4466
schlacht	-11.4466
putzer	-11.4466
▁Eisschnelll	-11.4466
▁Pelz	-11.4466
ordnet	-11.4466
▁Pflaster	-11.4466
▁Steuer	-11.4466
▁Durch	-11.4466
kugel	-11.4466
wolke	-11.4466
schützer	-11.4467
▁Euro	-11.4467
blatt	-11.4467
▁Bongo	-11.4467
▁Wir	-11.4467
echani	-11.4467
Obama	-11.4467
pullover	-11.4467
▁Front	-11.4467
▁Nike	-11.4467
Maskottchen	-11.4467
Metallgegenstand	-11.4467
Motiv	-11.4467
auslage	-11.4467
balken	-11.4467
dunkelte	-11.4467
ffnung	-11.4467
gefunden	-11.4467
kragen	-11.4467
restaurant	-11.4467
röße	-11.4467
schaftskollegen	-11.4467
schonern	-11.4467
sgesellschaft	-11.4467
stöckige	-11.4467
terrasse	-11.4467
unruhige	-11.4467
▁Abstammung	-11.4467
▁Bauernhof	-11.4467
▁Bedienung	-11.4467
▁Betrieb	-11.4467
▁Camper	-11.4467
▁Denkmal	-11.4467
▁Dessert	-11.4467
▁Dirigent	-11.4467
▁Doktor	-11.4467
▁Dutzend	-11.4467
▁Endzone	-11.4467
▁Fässer	-11.4467
▁Gemeinde	-11.4467
▁Gewicht	-11.4467
▁Halfpipe	-11.4467
▁Huckepack	-11.4467
▁Höhle	-11.4467
▁Kastenwagen	-11.4467
▁Kitesurf	-11.4467
▁Kleinigkeit	-11.4467
▁Kletterwand	-11.4467
▁Kongress	-11.4467
▁Krabbe	-11.4467
▁Matratze	-11.4467
▁Mehl	-11.4467
▁Männliche	-11.4467
▁Orangensaft	-11.4467
▁Pinata	-11.4467
▁Poncho	-11.4467
▁Reporter	-11.4467
▁Roboter	-11.4467
▁Ruinen	-11.4467
▁Schokolade	-11.4467
▁Schusswaffe	-11.4467
▁Schwierigkeiten	-11.4467
▁Skilift	-11.4467
▁Staffellauf	-11.4467
▁Sturz	-11.4467
▁Städtische	-11.4467
▁Surfen	-11.4467
▁Söhne	-11.4467
▁Toreinfahrt	-11.4467
▁Türeingang	-11.4467
▁Vorbereitung	-11.4467
▁Werkzeuggürtel	-11.4467
▁Wissenschaftler	-11.4467
▁Wälder	-11.4467
▁Zombie	-11.4467
▁Zoo	-11.4467
▁Zuhörer	-11.4467
▁abgewandt	-11.4467
▁arabische	-11.4467
▁balancieren	-11.4467
▁beaufsichtigt	-11.4467
▁befestigen	-11.4467
▁bummel	-11.4467
▁dafür	-11.4467
▁demonstrier	-11.4467
▁deutet	-11.4467
▁errichtet	-11.4467
▁erzielen	-11.4467
▁erzählt	-11.4467
▁funktioniert	-11.4467
▁geschnitzte	-11.4467
▁gesteckt	-11.4467
▁getrocknet	-11.4467
▁gewonnen	-11.4467
▁hechtet	-11.4467
▁heißt	-11.4467
▁interviewt	-11.4467
▁irgendwelche	-11.4467
▁jüdische	-11.4467
▁klatschen	-11.4467
▁kriech	-11.4467
▁lokale	-11.4467
▁menschliche	-11.4467
▁neongrüne	-11.4467
▁obdachlose	-11.4467
▁rustikal	-11.4467
▁schräg	-11.4467
▁sortieren	-11.4467
▁sportliche	-11.4467
▁stolpert	-11.4467
▁süße	-11.4467
▁umgekippt	-11.4467
▁verloren	-11.4467
▁verteidigen	-11.4467
▁wadet	-11.4467
▁winzige	-11.4467
▁überwiegend	-11.4467
gerissen	-11.4467
geschenke	-11.4467
jungf	-11.4467
presst	-11.4467
▁Ballbesitz	-11.4467
▁Buffet	-11.4467
▁Disney	-11.4467
▁Friedhof	-11.4467
▁Garagentor	-11.4467
▁Harfe	-11.4467
▁Haupt	-11.4467
▁Hochzeitsfeier	-11.4467
▁Karikatur	-11.4467
▁Kutsche	-11.4467
▁Lobby	-11.4467
▁Riemen	-11.4467
▁Schanze	-11.4467
▁Stoß	-11.4467
▁Tauchausrüstung	-11.4467
▁Teamkollege	-11.4467
▁Truthahn	-11.4467
▁Unterricht	-11.4467
▁Vieh	-11.4467
▁Weingläsern	-11.4467
▁betrunken	-11.4467
▁gemischte	-11.4467
▁geschossen	-11.4467
▁klassische	-11.4467
▁leckere	-11.4467
▁lenkt	-11.4467
▁malerische	-11.4467
▁misst	-11.4467
▁operier	-11.4467
▁rangel	-11.4467
▁sanft	-11.4467
brunnen	-11.4467
▁Elektri	-11.4467
▁Kanone	-11.4467
▁Lappen	-11.4467
▁Schaumbad	-11.4467
▁Sprache	-11.4467
▁Tennisbälle	-11.4467
▁bettelt	-11.4467
▁kniehohe	-11.4467
▁laub	-11.4467
▁tausch	-11.4467
▁Chef	-11.4467
▁Esszimmer	-11.4467
▁Power	-11.4467
▁stecken	-11.4467
▁zerbrochene	-11.4467
▁Blüte	-11.4467
▁Indische	-11.4467
▁informell	-11.4467
bude	-11.4467
kissen	-11.4467
▁Aufwärmen	-11.4467
▁Jetski	-11.4467
rido	-11.4467
▁Tief	-11.4467
▁Comic	-11.4467
▁lausch	-11.4467
▁rötliche	-11.4467
▁verkehrsreiche	-11.4467
schleudert	-11.4467
säule	-11.4467
▁Open	-11.4467
▁Terrier	-11.4467
▁verliert	-11.4467
ziegel	-11.4467
▁Fahrradreifen	-11.4467
▁Sprühfarbe	-11.4467
Objektiv	-11.4467
umgebung	-11.4467
▁Kleinstadt	-11.4467
wanderung	-11.4467
▁laut	-11.4467
▁Absperrband	-11.4467
▁gepflegte	-11.4467
▁Kniestrümpfe	-11.4467
▁Chips	-11.4467
ordnung	-11.4467
▁Lehm	-11.4467
▁knappe	-11.4467
dehnt	-11.4467
▁Balletttänzer	-11.4467
▁Hafengebiet	-11.4467
▁Schrank	-11.4467
▁Wheelie	-11.4467
handlung	-11.4467
nüss	-11.4467
▁Hängebrücke	-11.4467
leute	-11.4467
▁Diadem	-11.4467
ingham	-11.4467
▁Klarinette	-11.4467
▁Operationssaal	-11.4467
▁fechten	-11.4467
▁trommelt	-11.4467
▁Gabel	-11.4467
lief	-11.4467
trainer	-11.4467
Schwamm	-11.4467
▁liebe	-11.4467
sänger	-11.4467
▁Bäckerei	-11.4467
▁Gäste	-11.4467
▁Backsteinwand	-11.4467
▁blass	-11.4467
motorrad	-11.4467
▁Sturm	-11.4467
▁stoßen	-11.4467
vorstellung	-11.4467
▁Fliesenboden	-11.4467
▁Programm	-11.4467
▁Blätterhaufen	-11.4467
▁Abschluss	-11.4467
▁Blue	-11.4467
▁Schildkröte	-11.4467
▁Strohhalm	-11.4467
▁Symbol	-11.4467
▁Material	-11.4467
▁Erdboden	-11.4468
▁zupft	-11.4468
▁Auszeichnung	-11.4468
▁bergige	-11.4468
parade	-11.4468
▁Straßenlaterne	-11.4468
▁Nonne	-11.4468
▁Abhang	-11.4468
▁Trocken	-11.4468
schnee	-11.4468
▁Burg	-11.4468
▁streicheln	-11.4468
sims	-11.4468
▁Freiluftmarkt	-11.4468
▁Umhängetasche	-11.4468
▁Säcke	-11.4468
gurt	-11.4468
hof	-11.4468
gerüst	-11.4468
▁Holzplattform	-11.4468
▁Marathonlauf	-11.4468
▁Skigebiet	-11.4468
▁Führung	-11.4468
▁geholfen	-11.4468
▁gespreizt	-11.4468
▁reiß	-11.4468
▁Bademantel	-11.4468
▁Plakatwand	-11.4468
▁anschauen	-11.4469
▁Lou	-11.4469
▁stämmige	-11.4469
▁Faust	-11.4469
▁Vordach	-11.4469
▁Hecke	-11.4469
▁Mais	-11.4469
ähre	-11.4469
▁Walk	-11.4469
▁Warn	-11.4469
▁Rennbahn	-11.4469
▁Lama	-11.447
▁Konferenztisch	-11.447
cap	-11.447
▁Schwertern	-11.447
▁Blöcke	-11.447
▁Rod	-11.447
▁Acker	-11.447
▁befragt	-11.447
▁Warenkorb	-11.447
▁rollen	-11.447
tön	-11.447
▁Saft	-11.447
▁beschmiert	-11.447
▁Gartenstuhl	-11.4471
▁Bürogebäude	-11.4471
ington	-11.4471
▁Stiel	-11.4471
▁Betonrampe	-11.4471
▁Berghang	-11.4471
▁Lachen	-11.4471
▁verteilen	-11.4472
Wash	-11.4472
▁Handtücher	-11.4472
▁Spur	-11.4472
▁Seilschaukel	-11.4472
▁Schwan	-11.4472
▁brä	-11.4472
▁eigene	-11.4472
▁halbw	-11.4473
▁Pferderennen	-11.4473
reist	-11.4473
▁Absatzschuhe	-11.4473
▁Freundinnen	-11.4473
▁außerdem	-11.4474
▁Bergsteigen	-11.4474
▁durchsichtige	-11.4475
▁Fußboden	-11.4475
feier	-11.4476
▁rundes	-11.4476
▁Holzboot	-11.4476
▁gestaltete	-11.4477
▁Schneehaufen	-11.4477
üche	-11.4478
▁beenden	-11.4478
▁Holzstuhl	-11.4478
▁Day	-11.4478
▁umklammert	-11.4479
gläser	-11.4479
▁Dart	-11.4479
▁Miami	-11.4479
▁Rallye	-11.4479
▁Seattle	-11.4479
▁Kulisse	-11.4479
▁scharfe	-11.4479
▁Superman	-11.4479
▁Babyschaukel	-11.4479
▁Taste	-11.448
▁bastelt	-11.448
▁Tritt	-11.4481
▁Fast	-11.4482
▁professionelle	-11.4484
▁Vorder	-11.4484
▁Transporter	-11.4485
▁Spielzug	-11.4485
zieren	-11.4487
▁Matrosen	-11.4488
▁Sub	-11.4488
▁reagieren	-11.4488
▁Kollegen	-11.4488
▁erledigen	-11.4488
▁Labrador	-11.4488
▁Marktstand	-11.4488
▁Inlineskater	-11.4488
▁Spielgerät	-11.4488
▁erhalten	-11.4488
ieht	-11.4489
▁sichtbar	-11.4492
frikanische	-11.4492
design	-11.4493
▁Schalter	-11.4493
▁Kre	-11.4494
▁Mü	-11.4494
▁bieg	-11.4495
▁Stütz	-11.4496
▁Au	-11.4497
▁Singe	-11.4497
School	-11.45
dose	-11.45
ixt	-11.4501
▁Hänge	-11.4501
▁beeindruckende	-11.4501
▁Aufkleber	-11.4501
▁Kämpfer	-11.4501
züge	-11.4502
▁Gegenspieler	-11.4503
▁Tennisspielen	-11.4504
▁Wasserlauf	-11.4506
blättert	-11.4506
mark	-11.4507
▁Basketballkorb	-11.4507
▁Stadtplatz	-11.4508
▁schwer	-11.4509
▁Tarnhose	-11.451
afting	-11.451
wöl	-11.4512
▁Schneemann	-11.4515
▁antike	-11.4518
▁lin	-11.4521
▁vollständig	-11.4523
▁geschoben	-11.4523
▁zuhören	-11.4523
▁Motorradrennen	-11.4523
▁Pfoten	-11.4523
▁Zitronen	-11.4523
Kunstausstellung	-11.4524
▁Turnier	-11.4525
▁Bru	-11.4526
ssaal	-11.4527
▁Urlaubs	-11.4528
▁Schülerin	-11.453
▁Trop	-11.4532
▁Dritte	-11.4539
▁entlanggehen	-11.4543
orangen	-11.4545
▁Logo	-11.4545
schwarze	-11.4556
klasse	-11.4557
▁Schutzwesten	-11.456
▁Coll	-11.4562
▁Bretter	-11.4564
▁gedeckt	-11.4565
Bull	-11.457
figuren	-11.457
lterer	-11.4571
gericht	-11.4574
seilen	-11.4574
stiefel	-11.4579
▁vorbereiten	-11.4582
▁Wasserfahrzeug	-11.4584
▁Cola	-11.4595
▁Lichtern	-11.4598
▁Nudeln	-11.4598
▁Kla	-11.4599
bildet	-11.4602
▁verkehr	-11.4614
schicht	-11.4617
platten	-11.462
▁kni	-11.4631
iki	-11.4633
▁letzten	-11.4635
▁Flieger	-11.464
Co	-11.464
eckige	-11.4641
▁Ausstellungs	-11.4645
▁Met	-11.4648
ßen	-11.4652
▁übergroße	-11.4653
▁Las	-11.4658
▁Derby	-11.4658
sessel	-11.4659
▁hochge	-11.4677
stapelt	-11.4677
aune	-11.4677
▁Kamelen	-11.4681
▁Lande	-11.4687
▁Skulpturen	-11.4696
▁betreib	-11.47
teig	-11.4703
▁Bos	-11.4723
▁Tages	-11.4729
chlich	-11.4733
▁Golden	-11.4738
▁Heißluftballons	-11.4747
▁Kleidungsstücke	-11.4758
holt	-11.478
▁zueinander	-11.4782
liches	-11.4791
▁verbring	-11.4792
▁Dog	-11.4795
▁Lä	-11.4795
ish	-11.48
▁Rollen	-11.4801
▁Kara	-11.482
kostümen	-11.4834
stanz	-11.4836
betrieben	-11.4894
▁Bahnen	-11.4939
Stop	-11.4952
▁lesend	-11.4973
uft	-11.4976
itzt	-11.4999
indernisparcours	-11.5004
gefähr	-11.5013
dung	-11.5017
bert	-11.5028
onne	-11.5045
gge	-11.5048
itzen	-11.507
ossen	-11.5092
rzte	-11.5097
▁Ausführ	-11.5117
sion	-11.5119
ehn	-11.5157
▁bedruckt	-11.5179
▁bade	-11.5232
ssen	-11.5245
dige	-11.525
werkzeug	-11.5262
geschlagene	-11.5301
vi	-11.5305
äck	-11.5313
▁Bud	-11.534
ecke	-11.5356
hne	-11.5363
eilt	-11.5376
schüttet	-11.5378
arz	-11.5391
rzt	-11.5394
sive	-11.5396
▁Reklame	-11.5403
laufende	-11.5425
▁Trockne	-11.5489
▁vorbeigehende	-11.5499
▁Jahr	-11.5513
▁Mari	-11.5519
▁Kricketspiel	-11.5524
out	-11.553
▁Lad	-11.5548
rennbahn	-11.5553
cheinwerferlicht	-11.5562
▁marineblau	-11.5582
▁übersäte	-11.5587
artig	-11.5606
▁Segelboote	-11.5615
▁Deutsche	-11.5635
▁best	-11.5652
tliche	-11.5658
▁Dreiräder	-11.5685
▁Schneeschuh	-11.5689
front	-11.5689
▁ungewöhnlich	-11.5748
▁kniend	-11.5748
▁Ziegelstein	-11.5757
schaffen	-11.5836
Ru	-11.5851
▁gebl	-11.5936
▁hübsch	-11.594
▁jed	-11.6017
wan	-11.6057
plakat	-11.6089
kreuzt	-11.6128
▁Schleif	-11.6188
appe	-11.6195
▁leer	-11.6213
uchte	-11.6246
stoß	-11.6253
lad	-11.6287
▁verw	-11.6315
▁Mess	-11.6343
braun	-11.6357
fall	-11.6399
▁Stofftiere	-11.6414
▁Halte	-11.6437
▁Alt	-11.6453
▁brünett	-11.6467
▁bestell	-11.6469
▁beginnen	-11.6506
badet	-11.6507
▁Fre	-11.6512
uf	-11.6564
▁hatte	-11.6566
Fi	-11.6575
arbeiten	-11.6604
Basketball	-11.6635
lanke	-11.6643
▁wirk	-11.6673
ämme	-11.669
▁gefäl	-11.6696
bst	-11.6698
ips	-11.67
greif	-11.6711
▁winken	-11.6713
änder	-11.6726
stehende	-11.6727
▁Jung	-11.675
gezogen	-11.6777
▁fahr	-11.6777
▁regenbogenfarb	-11.6778
Meter	-11.678
▁Nudel	-11.6802
▁Künstlerin	-11.6804
▁Kiefer	-11.6804
▁Schiene	-11.6804
stehen	-11.6805
▁Banane	-11.6806
▁Möwe	-11.6806
▁Va	-11.6809
▁Flügel	-11.6809
Skate	-11.6809
▁langärmelige	-11.6811
▁Rettungsweste	-11.6813
▁Anzüge	-11.6818
▁Bahngleise	-11.6824
bereit	-11.6853
nah	-11.6856
▁Passagier	-11.6866
Logo	-11.6867
kreis	-11.6867
Festival	-11.6869
besuch	-11.6869
hebt	-11.6869
überdachte	-11.687
▁schreien	-11.687
bringt	-11.6872
passt	-11.6872
lässt	-11.6873
Puppe	-11.6873
Kugel	-11.6874
Roll	-11.6874
pink	-11.6874
Wettbewerb	-11.6874
gesäumte	-11.6875
goldene	-11.6875
hellbraune	-11.6876
küsst	-11.6876
Künstler	-11.6876
Laden	-11.6876
Schuhen	-11.6876
Veranstaltung	-11.6876
Sport	-11.6876
Volleyball	-11.6876
Fußballspieler	-11.6876
schlägt	-11.6876
locken	-11.6876
Gebäude	-11.6877
Shorts	-11.6877
Jacke	-11.6877
Feld	-11.6877
Gruppe	-11.6877
Statue	-11.6877
Land	-11.6877
zuschauen	-11.6877
leine	-11.6885
zieh	-11.6886
heim	-11.6886
gebracht	-11.6888
violett	-11.6889
Welt	-11.6889
dass	-11.6895
▁Viel	-11.6904
▁Trink	-11.6906
▁Spee	-11.6907
▁Anweisung	-11.6908
▁Grab	-11.6909
flügel	-11.6909
wasch	-11.6909
werb	-11.6914
aube	-11.6918
zwei	-11.6919
musik	-11.692
Ein	-11.6925
iegen	-11.6925
▁Eiscrem	-11.6926
▁Rolle	-11.6926
▁Wal	-11.6928
▁Rude	-11.6928
▁modisch	-11.693
▁Pap	-11.6931
elder	-11.6933
üssen	-11.6933
▁beg	-11.6933
▁sichtbare	-11.6936
Skater	-11.6939
egel	-11.6939
lpen	-11.6941
kind	-11.6942
▁Transport	-11.6942
chnitt	-11.6942
mobil	-11.6942
▁Besuch	-11.6943
▁Lenk	-11.6943
board	-11.6943
becken	-11.6944
▁versteck	-11.6944
gestreckt	-11.6945
▁biete	-11.6945
drängt	-11.6945
▁Outfi	-11.6945
▁schipp	-11.6949
▁Wohn	-11.6949
▁Saiten	-11.695
blumen	-11.6952
gebiet	-11.6953
▁Body	-11.6953
▁Schwer	-11.6954
schlitten	-11.6956
schiff	-11.6961
tafel	-11.6961
gerollt	-11.6963
salon	-11.6963
worfen	-11.6963
▁sprin	-11.6963
▁Schreib	-11.6963
▁Flag	-11.6964
staunen	-11.6964
sprecher	-11.6965
training	-11.6965
▁Schlaf	-11.6966
▁Kühl	-11.6966
grube	-11.6966
ärtiger	-11.6966
tänzer	-11.6966
eits	-11.6966
grund	-11.6966
schluss	-11.6966
▁Hasen	-11.6966
hauer	-11.6966
▁Kranken	-11.6966
feil	-11.6966
▁Bleistift	-11.6966
gäste	-11.6967
wohn	-11.6967
▁Zebra	-11.6967
hafen	-11.6967
rchester	-11.6967
ografie	-11.6967
▁Cross	-11.6967
▁Holzkohle	-11.6967
▁Paintball	-11.6967
▁Spiderman	-11.6967
▁Sprinkler	-11.6967
Freiheitsstatue	-11.6967
berqueren	-11.6967
▁Berufs	-11.6967
▁Bronzes	-11.6967
▁Mittelalter	-11.6967
▁UNICEF	-11.6967
▁Unterstützung	-11.6967
Kiosk	-11.6967
Love	-11.6967
Markierung	-11.6967
Planschbecken	-11.6967
Whirlpool	-11.6967
amaha	-11.6967
beleuchtung	-11.6967
geschirr	-11.6967
geschnallt	-11.6967
käfig	-11.6967
kühlen	-11.6967
lastwagen	-11.6967
manövriert	-11.6967
monitor	-11.6967
möbeln	-11.6967
offizielle	-11.6967
ohlen	-11.6967
oskop	-11.6967
schlüssel	-11.6967
stadion	-11.6967
uzzle	-11.6967
vermählte	-11.6967
zufinden	-11.6967
▁Abenddämmerung	-11.6967
▁Absolventen	-11.6967
▁Affen	-11.6967
▁Akrobati	-11.6967
▁Ananas	-11.6967
▁Angelschnur	-11.6967
▁Angler	-11.6967
▁Anlass	-11.6967
▁Apartment	-11.6967
▁Apparat	-11.6967
▁Augenbraue	-11.6967
▁Basketbälle	-11.6967
▁Bassgitarre	-11.6967
▁Blumenmädchen	-11.6967
▁Bärten	-11.6967
▁Bürgerkriegs	-11.6967
▁Cockpit	-11.6967
▁Concert	-11.6967
▁Cricket	-11.6967
▁Dirtbike	-11.6967
▁Dokument	-11.6967
▁Ehemann	-11.6967
▁Eistüte	-11.6967
▁Elektrogitarre	-11.6967
▁Elektronik	-11.6967
▁Essstäbchen	-11.6967
▁Falke	-11.6967
▁Felsenklippe	-11.6967
▁Frühling	-11.6967
▁Fundament	-11.6967
▁Gabelstapler	-11.6967
▁Gasmaske	-11.6967
▁Gebirge	-11.6967
▁Gebäck	-11.6967
▁Gedanken	-11.6967
▁Gehörschutz	-11.6967
▁Geisha	-11.6967
▁Gerätschaften	-11.6967
▁Gestrüpp	-11.6967
▁Glatzenansatz	-11.6967
▁Harmonika	-11.6967
▁Hausaufgaben	-11.6967
▁Hockeyschläger	-11.6967
▁Holzpfahl	-11.6967
▁Husky	-11.6967
▁Hölle	-11.6967
▁Kickboxen	-11.6967
▁Kimonos	-11.6967
▁KitchenAid	-11.6967
▁Krokodil	-11.6967
▁Kälte	-11.6967
▁Langarmhemd	-11.6967
▁Leichtathlet	-11.6967
▁Leotard	-11.6967
▁Liegestütze	-11.6967
▁Lokomotive	-11.6967
▁Maiskolben	-11.6967
▁Miniatur	-11.6967
▁Mundharmonika	-11.6967
▁Mütter	-11.6967
▁Neun	-11.6967
▁Ordnung	-11.6967
▁Oxford	-11.6967
▁Packung	-11.6967
▁Papiertüte	-11.6967
▁Pfahl	-11.6967
▁Pickup	-11.6967
▁Podest	-11.6967
▁Pokal	-11.6967
▁Poolbillard	-11.6967
▁SUV	-11.6967
▁Schindel	-11.6967
▁Schläfchen	-11.6967
▁Schläuche	-11.6967
▁Schneeengel	-11.6967
▁Schneewehe	-11.6967
▁Schneidebrett	-11.6967
▁Schneider	-11.6967
▁Schokoladeneis	-11.6967
▁Schrauben	-11.6967
▁Shop	-11.6967
▁Skipiste	-11.6967
▁Skyline	-11.6967
▁Sombrero	-11.6967
▁Sonnenschein	-11.6967
▁Spagat	-11.6967
▁Sportereignis	-11.6967
▁Starbucks	-11.6967
▁Strafzettel	-11.6967
▁Strickjacke	-11.6967
▁Stäbchen	-11.6967
▁Telefonmasten	-11.6967
▁Turnübung	-11.6967
▁Töpferscheibe	-11.6967
▁Verstärker	-11.6967
▁Windsurfe	-11.6967
▁Wörter	-11.6967
▁Zentrum	-11.6967
▁Zwilling	-11.6967
▁abzuwehren	-11.6967
▁angelehnt	-11.6967
▁beleibte	-11.6967
▁besprechen	-11.6967
▁breitkrempigen	-11.6967
▁bügelt	-11.6967
▁diskutiert	-11.6967
▁elegant	-11.6967
▁erklärt	-11.6967
▁flatter	-11.6967
▁fliederfarbene	-11.6967
▁flüster	-11.6967
▁französische	-11.6967
▁freuen	-11.6967
▁frustriert	-11.6967
▁galoppier	-11.6967
▁gelandet	-11.6967
▁geneigte	-11.6967
▁gescheckte	-11.6967
▁getupfte	-11.6967
▁gleiten	-11.6967
▁glitzernde	-11.6967
▁grinst	-11.6967
▁heiraten	-11.6967
▁hämmer	-11.6967
▁jugendliche	-11.6967
▁kostet	-11.6967
▁liebkost	-11.6967
▁lötet	-11.6967
▁maskierte	-11.6967
▁musikalische	-11.6967
▁muslimische	-11.6967
▁möglich	-11.6967
▁neigt	-11.6967
▁parallel	-11.6967
▁prunkvolle	-11.6967
▁ragt	-11.6967
▁rasieren	-11.6967
▁renovier	-11.6967
▁schlummert	-11.6967
▁schwanger	-11.6967
▁senffarbene	-11.6967
▁sumpfige	-11.6967
▁ungepflegte	-11.6967
▁unterbricht	-11.6967
▁verhindern	-11.6967
▁verzerrte	-11.6967
▁vorliest	-11.6967
▁zerrissene	-11.6967
Attraktion	-11.6967
abteilung	-11.6967
prallen	-11.6967
ristall	-11.6967
▁Bungee	-11.6967
▁Capri	-11.6967
▁Einkaufen	-11.6967
▁Fahren	-11.6967
▁Fäuste	-11.6967
▁Hispan	-11.6967
▁Knochen	-11.6967
▁Krücken	-11.6967
▁Markise	-11.6967
▁Olympia	-11.6967
▁Pendler	-11.6967
▁Pinien	-11.6967
▁Scheitel	-11.6967
▁Sumoringe	-11.6967
▁Teammitglied	-11.6967
▁Technik	-11.6967
▁University	-11.6967
▁Universität	-11.6967
▁deutlich	-11.6967
▁duscht	-11.6967
▁empor	-11.6967
▁freundlich	-11.6967
▁gefilmt	-11.6967
▁identisch	-11.6967
▁mechanische	-11.6967
▁merkwürdig	-11.6967
▁neongelb	-11.6967
▁prahl	-11.6967
▁saust	-11.6967
Jazz	-11.6967
Spanien	-11.6967
pfanne	-11.6967
zuschlagen	-11.6967
▁Henna	-11.6967
▁Hochzeitsfoto	-11.6967
▁Match	-11.6967
▁Notebook	-11.6967
▁Reinigungs	-11.6967
▁Seetang	-11.6967
▁Solo	-11.6967
▁Toast	-11.6967
▁grinde	-11.6967
▁knietief	-11.6967
▁matsch	-11.6967
▁normal	-11.6967
auptsä	-11.6967
▁Nacken	-11.6967
Farbstiften	-11.6967
Goalie	-11.6967
▁Chinese	-11.6967
▁Dusche	-11.6967
▁Happen	-11.6967
▁Kopie	-11.6967
▁Matsch	-11.6967
▁Steinstufen	-11.6967
bagger	-11.6967
▁Hör	-11.6967
▁Kino	-11.6967
▁Maulesel	-11.6967
▁Stepp	-11.6967
▁gehören	-11.6967
▁Bierflaschen	-11.6967
▁Kapuzenjacke	-11.6967
▁Pedal	-11.6967
▁erwischen	-11.6967
Frucht	-11.6967
▁Brat	-11.6967
▁Enkel	-11.6967
▁Kunstmuseum	-11.6967
▁Küchentheke	-11.6967
Piercing	-11.6967
▁Leitung	-11.6967
▁Wohnmobil	-11.6967
▁hark	-11.6967
▁Ernte	-11.6967
bull	-11.6967
▁geduldig	-11.6967
▁Truppe	-11.6967
▁aufgemalt	-11.6967
▁Dampf	-11.6967
▁Insekt	-11.6967
▁Werbetafel	-11.6967
▁rasen	-11.6967
▁stutz	-11.6967
▁fehl	-11.6967
gekauft	-11.6967
▁Deere	-11.6967
▁grob	-11.6967
▁Kunsthandwerk	-11.6967
▁Badesachen	-11.6967
▁prüfen	-11.6967
▁Flanellhemd	-11.6967
▁Kokosnüsse	-11.6967
▁Staubwolke	-11.6967
▁nahöstliche	-11.6967
töpfe	-11.6967
▁Dorfbewohner	-11.6967
▁Essensverkäufer	-11.6967
▁Tuba	-11.6967
▁Hafenbecken	-11.6967
▁Kühlbox	-11.6967
▁Talent	-11.6967
arena	-11.6967
stufe	-11.6967
▁stramm	-11.6967
▁Meeresufer	-11.6967
▁angezeigt	-11.6967
undschaft	-11.6967
▁Knieschützer	-11.6967
▁Kurs	-11.6967
▁Kombi	-11.6967
▁Notenständer	-11.6967
▁wirbt	-11.6967
▁Country	-11.6967
feder	-11.6967
▁Laubbläser	-11.6967
▁Verwend	-11.6967
play	-11.6967
lugt	-11.6967
▁Notizbuch	-11.6967
▁Küchentisch	-11.6967
▁großartige	-11.6967
▁Gummistiefel	-11.6967
IN	-11.6967
▁Verkehrsmittel	-11.6967
▁Umschlag	-11.6967
▁Wäscheleine	-11.6967
▁Seh	-11.6967
▁Barriere	-11.6967
▁Kleinbus	-11.6968
▁Prüfung	-11.6968
▁kuschel	-11.6968
▁Lego	-11.6968
▁Müllbeutel	-11.6968
▁Pelzmantel	-11.6968
höhe	-11.6968
▁Wohnhaus	-11.6968
▁Laubhaufen	-11.6968
▁Schuhputzer	-11.6968
▁eingegraben	-11.6968
▁Action	-11.6968
▁Spinnrad	-11.6968
▁schließen	-11.6968
▁Flohmarkt	-11.6968
▁Treppengeländer	-11.6968
▁Bauprojekt	-11.6968
▁Taucherbrille	-11.6968
▁Heim	-11.6968
▁enthält	-11.6968
▁Wohnwagen	-11.6968
▁Protestschild	-11.6968
▁verschmierte	-11.6968
▁streiten	-11.6968
ädt	-11.6968
abgelassen	-11.6968
Grundschulkinder	-11.6968
dlen	-11.6968
▁Vorhang	-11.6968
ausflug	-11.6968
▁Jogginghose	-11.6968
▁Boxkampf	-11.6968
Court	-11.6968
▁Blut	-11.6968
▁Waage	-11.6968
▁versorg	-11.6968
▁Windjacke	-11.6968
▁Schulbus	-11.6968
runne	-11.6968
▁Plastikflasche	-11.6968
▁Rückhand	-11.6968
laufbahn	-11.6968
▁lunger	-11.6968
▁bestimmte	-11.6969
▁Fond	-11.6969
personal	-11.6969
▁hügelige	-11.6969
▁Lesen	-11.6969
ettungsschwimmer	-11.6969
▁Wäschekorb	-11.6969
▁Marine	-11.6969
▁künstlerische	-11.6969
▁Festzug	-11.6969
live	-11.6969
▁Ausblick	-11.6969
stocher	-11.6969
▁Feuerleiter	-11.697
wanderweg	-11.697
▁Sonnenhut	-11.697
▁sägen	-11.697
▁Hinterteil	-11.697
▁Zune	-11.697
▁Einheimische	-11.697
▁geduckt	-11.697
▁Straßenlampe	-11.697
▁dös	-11.697
▁Dunking	-11.697
▁Glasflasche	-11.697
geknöpft	-11.697
▁verstreut	-11.697
▁Stadtviertel	-11.697
uniformen	-11.697
▁Atem	-11.697
Jump	-11.6971
▁Hühner	-11.6971
▁gähnt	-11.6971
▁Haarnetz	-11.6971
▁Einzel	-11.6971
▁Frisch	-11.6971
boarder	-11.6971
▁Rückenschwimmen	-11.6971
▁Bestellung	-11.6972
Down	-11.6972
haut	-11.6972
▁Von	-11.6972
▁Löcher	-11.6972
▁gekreuzt	-11.6973
▁getackelt	-11.6973
▁Basketballwurf	-11.6973
▁hier	-11.6973
gegangen	-11.6973
▁verspritzt	-11.6973
▁Uniformierte	-11.6973
▁Holzkiste	-11.6973
▁Marsch	-11.6973
▁beschnüffelt	-11.6973
▁Barren	-11.6973
Briefkasten	-11.6973
▁Pub	-11.6973
▁Schwung	-11.6973
▁Akt	-11.6974
▁Spielzeugpferd	-11.6974
▁Bustier	-11.6974
▁Feuerwehrwagen	-11.6974
▁bewachsen	-11.6974
ranst	-11.6974
▁Eisskulptur	-11.6974
streut	-11.6974
▁Darstell	-11.6975
boy	-11.6975
▁erhebt	-11.6975
▁abwärts	-11.6976
▁Blumentopf	-11.6976
▁bellen	-11.6976
▁Meerwasser	-11.6976
▁Steinwand	-11.6976
▁Maultier	-11.6976
▁Backware	-11.6976
▁Radfahren	-11.6977
▁Schuhgeschäft	-11.6977
▁Gemüsemarkt	-11.6977
▁Wanderung	-11.6977
▁bewach	-11.6977
▁befreit	-11.6977
▁Farm	-11.6978
anke	-11.6978
▁wind	-11.6978
▁Steingebäude	-11.6978
▁herauf	-11.6978
▁Latzhose	-11.6978
Bron	-11.6979
▁Holztür	-11.6979
rünette	-11.698
▁ausgef	-11.698
▁Holzrampe	-11.698
▁Stammes	-11.698
▁Alltag	-11.698
▁Straßenschild	-11.698
▁Sportplatz	-11.6982
▁gewaschen	-11.6982
▁darau	-11.6982
▁kauer	-11.6982
kko	-11.6982
▁zusammengebaut	-11.6983
▁Anlage	-11.6983
▁Offizier	-11.6983
▁SpongeBob	-11.6983
▁behinderte	-11.6983
▁typische	-11.6983
▁tägliche	-11.6983
▁verdienen	-11.6983
▁Tintenfisch	-11.6983
▁Sportspiel	-11.6984
▁Pulver	-11.6984
▁Basketballplatz	-11.6984
Truck	-11.6985
▁Armband	-11.6985
erbrot	-11.6985
ampel	-11.6986
▁Holzstück	-11.6986
▁Spüle	-11.6986
▁Bauarbeiterhelm	-11.6986
ierende	-11.6987
▁Misch	-11.6987
▁Schneehügel	-11.699
▁ausgefallene	-11.699
▁Besucher	-11.6991
▁Lenker	-11.6991
▁Blumenfeld	-11.6992
trupp	-11.6992
▁hinunterfährt	-11.6993
▁Piraten	-11.6993
▁Mich	-11.6994
▁befördert	-11.6994
▁Beifahrer	-11.6994
▁Jeansrock	-11.6994
▁Chirurgen	-11.6994
▁Tour	-11.6995
▁musizieren	-11.6996
▁Medaill	-11.6997
▁Luftsprung	-11.6998
tvolle	-11.6998
▁wischen	-11.6999
▁Fire	-11.6999
▁stemm	-11.7
▁herunterzu	-11.7
▁verbringt	-11.7001
▁Werkzeuge	-11.7001
▁Bal	-11.7002
eburtstagskuchen	-11.7003
▁Hosentasche	-11.7005
▁Fußballplatz	-11.7006
Industriegebäude	-11.7007
▁Trage	-11.7007
▁Magazin	-11.7011
▁Krieg	-11.7012
▁Sooners	-11.7012
▁Raster	-11.7012
wählen	-11.7012
▁Keller	-11.7013
▁Krü	-11.7013
▁goldgelbe	-11.7016
▁stürmische	-11.7016
▁gern	-11.7017
▁Lichter	-11.7017
▁Wasserschlauch	-11.7018
lebt	-11.702
bergab	-11.7021
▁bä	-11.7021
lader	-11.7021
szenerie	-11.7022
fon	-11.7026
▁Kopfball	-11.7031
▁herausragen	-11.7032
▁Ja	-11.7036
▁pflanz	-11.7037
▁drängel	-11.704
▁bewer	-11.704
▁gestric	-11.7042
▁Schweißer	-11.7044
▁vorwärts	-11.7051
▁Hot	-11.7051
aße	-11.7054
▁Live	-11.7054
▁nacheinander	-11.7054
schmiert	-11.7058
rück	-11.7066
▁ausgelegt	-11.7067
pfer	-11.7067
▁bevölkert	-11.7075
Wh	-11.7079
▁Bre	-11.7081
▁Gitarrespieler	-11.7084
▁Reh	-11.7091
▁Hebe	-11.7092
▁Rotes	-11.7097
▁Schießen	-11.7103
▁Papp	-11.7108
▁zugedeckt	-11.7113
▁Tra	-11.712
▁Spinn	-11.7126
▁vorbeilaufen	-11.7134
bow	-11.7138
▁plansch	-11.7144
▁Hu	-11.7171
▁sollen	-11.7181
ndern	-11.7183
▁Fahrradgeschäft	-11.7184
ufällig	-11.7188
Afroamerikanerin	-11.7244
berg	-11.7258
inierte	-11.7264
anten	-11.7265
AM	-11.7274
▁lande	-11.7283
hy	-11.7291
▁angemalt	-11.7302
heruntergefallen	-11.7314
▁umgedreht	-11.7316
▁Inderin	-11.7356
bietet	-11.7362
▁Last	-11.7367
▁Hack	-11.7385
▁tackel	-11.7386
▁ernte	-11.7403
ox	-11.744
▁Busse	-11.7443
▁Kekse	-11.7446
▁Rennhunde	-11.7446
▁Ford	-11.7455
▁verbundene	-11.7467
▁künstliche	-11.748
▁Kenn	-11.7509
▁Tort	-11.7511
fisch	-11.7519
oße	-11.7523
▁hängende	-11.7558
alma	-11.7579
▁handge	-11.7597
▁fallende	-11.7649
▁Har	-11.7663
Frauenvolleyball	-11.7678
Do	-11.7682
liegende	-11.7696
▁Anzieh	-11.7712
dium	-11.7719
▁Retr	-11.7724
▁kl	-11.7757
▁falsche	-11.7786
Arbeitsplatz	-11.7795
▁breit	-11.7824
▁verschwommen	-11.7832
▁Tu	-11.7867
ond	-11.787
ußballspiel	-11.7893
ulkan	-11.7897
▁Pul	-11.79
▁einzigartige	-11.7923
netz	-11.7938
▁Strei	-11.7939
anische	-11.7949
gekle	-11.7958
altestelle	-11.7967
opf	-11.801
Cart	-11.8021
luft	-11.8037
gefallene	-11.8043
▁Blasinstrumente	-11.8097
▁grinsende	-11.8109
▁prächtige	-11.8148
▁förmlich	-11.8228
▁tätowiert	-11.8296
▁bessere	-11.8333
gelenk	-11.8333
▁wenige	-11.8351
welle	-11.8354
letterausrüstung	-11.843
onder	-11.8454
back	-11.8578
Akkordeonspieler	-11.8584
▁Sei	-11.8586
▁abgele	-11.8667
▁Pfann	-11.8671
spielerinnen	-11.8685
wend	-11.8769
spielerin	-11.884
otte	-11.8937
▁afro	-11.8953
messe	-11.905
▁Chan	-11.9118
hilf	-11.9127
eift	-11.9149
eucht	-11.9191
▁Rund	-11.9199
reitet	-11.9201
▁verschwommene	-11.9208
▁unglückliche	-11.9229
▁Cl	-11.9256
hängt	-11.9343
▁Lei	-11.935
gemacht	-11.9389
parcours	-11.9408
raußen	-11.9459
hängen	-11.9484
ora	-11.9491
▁üppige	-11.9497
equi	-11.9517
▁besondere	-11.9517
▁Kal	-11.9596
bringen	-11.9618
führenden	-11.9641
▁Plan	-11.9658
spritzen	-11.9673
ski	-11.9683
abine	-11.9724
▁Asiatisch	-11.9726
▁vierte	-11.975
elfer	-11.9778
zäh	-11.9794
▁Kil	-11.9808
off	-11.9824
angehörige	-11.9829
ütze	-11.988
▁kor	-11.9897
fort	-11.9917
▁Pol	-11.9931
rheb	-11.9939
gedeckte	-11.9943
stätte	-11.9945
▁Gedenk	-11.9945
schüler	-11.9956
ateinamerikan	-11.997
▁beigefarben	-11.9974
treiben	-11.9995
fällig	-12
Sandplatz	-12.0009
▁je	-12.0024
stimmung	-12.003
ierung	-12.0043
gebilde	-12.0074
▁lan	-12.0074
urbane	-12.0085
▁leuchten	-12.0099
sagt	-12.0109
schreib	-12.0114
▁organ	-12.0118
▁träg	-12.0121
achi	-12.0122
radfahrer	-12.0124
▁Skateboardfahre	-12.0133
▁Schutzweste	-12.0137
▁Laterne	-12.014
▁Hinterbeine	-12.0143
▁Toilette	-12.0143
ollie	-12.0144
▁Gläser	-12.0145
▁gepunktete	-12.0145
▁hellgrüne	-12.0145
▁Turnschuhe	-12.0147
▁habe	-12.0151
▁alber	-12.0156
▁arme	-12.0157
▁Ware	-12.0157
Car	-12.0168
▁Sandale	-12.0171
▁Urlaub	-12.0193
saal	-12.0194
tatue	-12.0194
freie	-12.0195
geschoben	-12.0197
▁Rollerblade	-12.0201
vollständig	-12.0201
Turnier	-12.0201
▁Short	-12.0203
isierte	-12.0204
ügen	-12.0204
wänden	-12.0204
wettkampf	-12.0204
zuhören	-12.0205
Armee	-12.0205
Texas	-12.0205
zeigt	-12.0206
klaren	-12.0206
putzen	-12.0207
Klasse	-12.0207
Video	-12.0207
Fest	-12.0207
füttert	-12.0208
Arena	-12.0208
gefüllt	-12.0208
Plakat	-12.0208
Bahnsteig	-12.0208
Bekleidung	-12.0208
Unter	-12.0208
getragen	-12.0209
Must	-12.0209
Wettkampf	-12.0209
Lkw	-12.0209
Overall	-12.0209
Flugzeug	-12.0209
Maschine	-12.021
Uniform	-12.021
trinken	-12.021
Ski	-12.021
Tasche	-12.021
Schaukel	-12.021
städtische	-12.021
Boot	-12.021
Kunststück	-12.021
spricht	-12.021
Schwimmbecken	-12.021
trägt	-12.021
Musik	-12.0211
hohen	-12.0211
Kopf	-12.0211
Weiß	-12.0211
Bahnhof	-12.0213
Lauf	-12.0213
Rock	-12.0213
gräbt	-12.0214
Eis	-12.0215
Wel	-12.0217
haften	-12.0218
Ball	-12.0218
▁Punk	-12.0219
reise	-12.0219
ühlt	-12.022
Mann	-12.022
▁Rugbyspiel	-12.0226
▁Tennisspiel	-12.0231
▁stürm	-12.0232
▁Afro	-12.0237
▁Pirat	-12.0237
▁Motorradrenn	-12.0239
▁Tennisschuh	-12.024
stände	-12.0241
▁Kelle	-12.0243
▁Passant	-12.0244
▁Industrie	-12.0245
▁kahlköpfige	-12.0246
▁Afrika	-12.0249
▁interagier	-12.0251
gelbes	-12.0254
▁Fir	-12.0257
ünden	-12.0261
▁Wartungs	-12.0266
gehängt	-12.027
professionell	-12.027
thek	-12.0272
körper	-12.0273
polizist	-12.0274
▁Zauber	-12.0275
ierend	-12.0275
▁bastel	-12.0276
ländische	-12.0277
itzern	-12.0277
klammert	-12.0278
▁Pro	-12.0279
rückt	-12.0281
▁feg	-12.0282
▁strick	-12.0282
link	-12.0283
brot	-12.0284
▁Latz	-12.0287
▁Bären	-12.0287
ilden	-12.0288
▁Absatz	-12.0289
axi	-12.0289
▁langärm	-12.029
drücken	-12.0292
schlossene	-12.0292
stäben	-12.0293
▁Kirmes	-12.0295
▁interess	-12.0296
burg	-12.0296
▁Karussel	-12.0297
twa	-12.0297
händler	-12.0298
riseur	-12.0298
stadt	-12.0298
mäher	-12.0298
beutel	-12.0299
club	-12.0299
schriebene	-12.0299
▁Bowl	-12.0299
senkt	-12.0299
▁Zi	-12.0299
Schlagman	-12.0299
östliche	-12.0299
kappe	-12.0299
▁Riesen	-12.0299
flieger	-12.0299
lucht	-12.0299
wirtschaft	-12.0299
lötz	-12.0299
wald	-12.0299
▁Bäcker	-12.0299
▁Rummel	-12.0299
▁Schwar	-12.03
▁Woll	-12.03
Pinguin	-12.03
koffer	-12.03
eisenbahn	-12.03
▁Neoprenanz	-12.03
bühne	-12.03
kurv	-12.03
produkte	-12.03
ärmeligen	-12.03
beamte	-12.03
brocken	-12.03
strümpfe	-12.03
bewa	-12.03
bläser	-12.03
fried	-12.03
student	-12.03
▁Bürger	-12.03
uschel	-12.03
▁Schmied	-12.03
stift	-12.03
schwarm	-12.03
▁Boogie	-12.03
▁synchron	-12.03
artoffel	-12.03
äß	-12.03
Kitty	-12.03
▁Wurzel	-12.03
Amerika	-12.03
▁hispan	-12.03
modell	-12.03
xtrem	-12.03
▁Agility	-12.03
▁Arcade	-12.03
▁Heimatland	-12.03
▁Text	-12.03
Barbecue	-12.03
Boy	-12.03
Fäustlingen	-12.03
Juweliergeschäft	-12.03
Kreuzfahrtschiff	-12.03
Leuchtreklame	-12.03
Light	-12.03
Twister	-12.03
aktivität	-12.03
album	-12.03
aliforni	-12.03
anhänger	-12.03
apparat	-12.03
astellfarben	-12.03
ausstattung	-12.03
berdachung	-12.03
brenner	-12.03
buggy	-12.03
bänken	-12.03
einrichtung	-12.03
fleisch	-12.03
fließen	-12.03
gemälde	-12.03
gitarrenähnliche	-12.03
häuschen	-12.03
höhle	-12.03
kippt	-12.03
krümmt	-12.03
kulisse	-12.03
kulturelle	-12.03
lephant	-12.03
marathon	-12.03
mbiente	-12.03
objektiv	-12.03
ogaübung	-12.03
ootsanlegestelle	-12.03
packung	-12.03
podest	-12.03
quetscht	-12.03
rchitekt	-12.03
rchäolog	-12.03
schläuche	-12.03
spaziergang	-12.03
stöpsel	-12.03
teppich	-12.03
uadbike	-12.03
uadraten	-12.03
vogel	-12.03
xponat	-12.03
zahn	-12.03
zapfen	-12.03
ängstigt	-12.03
örderband	-12.03
▁Abfälle	-12.03
▁Apotheke	-12.03
▁Arkade	-12.03
▁Aschenbahn	-12.03
▁Beisammensein	-12.03
▁Beobachter	-12.03
▁Berlin	-12.03
▁Besteck	-12.03
▁Blondine	-12.03
▁Boje	-12.03
▁Broad	-12.03
▁Bühnenauftritt	-12.03
▁Cafeteria	-12.03
▁Camcorder	-12.03
▁Canyon	-12.03
▁Chefkoch	-12.03
▁Chinatown	-12.03
▁Corgi	-12.03
▁Cupcake	-12.03
▁Delfin	-12.03
▁Donuts	-12.03
▁Doppel	-12.03
▁Dragster	-12.03
▁Drahtseil	-12.03
▁Einzelhandel	-12.03
▁Eiskrem	-12.03
▁Elasthan	-12.03
▁Element	-12.03
▁Ellenbogen	-12.03
▁Explosion	-12.03
▁Fahrgast	-12.03
▁Feinkost	-12.03
▁Festumzug	-12.03
▁Fließen	-12.03
▁Flugbegleit	-12.03
▁Flöße	-12.03
▁Fotoshooting	-12.03
▁Frankreich	-12.03
▁Frosch	-12.03
▁Föhn	-12.03
▁Galerie	-12.03
▁Gastronomiebe	-12.03
▁Golfschläger	-12.03
▁Gottesdienst	-12.03
▁Grube	-12.03
▁Gyro	-12.03
▁Gärtner	-12.03
▁Hahn	-12.03
▁Heimwerker	-12.03
▁Hochdruckreinig	-12.03
▁Hollister	-12.03
▁Holzfäller	-12.03
▁Hängegleiter	-12.03
▁Interessantes	-12.03
▁Internet	-12.03
▁Irgendein	-12.03
▁Jalousie	-12.03
▁Jongleur	-12.03
▁Jonglier	-12.03
▁Kartoffelchip	-12.03
▁Keramik	-12.03
▁Kirchenchor	-12.03
▁Klettergurt	-12.03
▁Kliff	-12.03
▁Kontrabass	-12.03
▁Korbleger	-12.03
▁Kultur	-12.03
▁Küchenarbeits	-12.03
▁Landwirt	-12.03
▁Laternenpfahl	-12.03
▁Leichtathletik	-12.03
▁Leitplanke	-12.03
▁Lolli	-12.03
▁Luftmatratze	-12.03
▁Löschfahrzeug	-12.03
▁Meeresstrand	-12.03
▁Megaphon	-12.03
▁Mickey	-12.03
▁Mosaik	-12.03
▁Moschee	-12.03
▁Muffin	-12.03
▁Münztelefon	-12.03
▁National	-12.03
▁Ollie	-12.03
▁Paddelboot	-12.03
▁Papierteller	-12.03
▁Pappteller	-12.03
▁Parkettboden	-12.03
▁Pelikan	-12.03
▁Pflege	-12.03
▁Prozession	-12.03
▁Rüschen	-12.03
▁Sauna	-12.03
▁Schlammpfütze	-12.03
▁Schlüssel	-12.03
▁Schnappschuss	-12.03
▁Schnüre	-12.03
▁Schnürsenkel	-12.03
▁Schottenr	-12.03
▁Serviette	-12.03
▁Shopping	-12.03
▁Skelett	-12.03
▁Softdrink	-12.03
▁Sonnenaufgang	-12.03
▁Spirituosen	-12.03
▁Sprünge	-12.03
▁Stachel	-12.03
▁Steindenkmal	-12.03
▁Stroboskoplicht	-12.03
▁Tabak	-12.03
▁Tastatur	-12.03
▁Toyota	-12.03
▁Treffen	-12.03
▁Trägershirt	-12.03
▁Töchter	-12.03
▁Ukulele	-12.03
▁Unkraut	-12.03
▁Unterlagen	-12.03
▁Vegas	-12.03
▁Vergrößerungsgl	-12.03
▁Verwunde	-12.03
▁Vorschlaghammer	-12.03
▁Wasserpfütze	-12.03
▁Wochenmarkt	-12.03
▁Wohnhäuser	-12.03
▁Zahnspange	-12.03
▁Zeigefinger	-12.03
▁Zirkus	-12.03
▁Zugabteil	-12.03
▁Zweck	-12.03
▁attackieren	-12.03
▁ausführt	-12.03
▁baumbestandene	-12.03
▁belegte	-12.03
▁beruhigt	-12.03
▁brennt	-12.03
▁britische	-12.03
▁buddel	-12.03
▁buschige	-12.03
▁chirurgische	-12.03
▁dramatisch	-12.03
▁durchnässt	-12.03
▁eingeschaltete	-12.03
▁entscheiden	-12.03
▁erkundet	-12.03
▁erscheint	-12.03
▁erschöpft	-12.03
▁erstaun	-12.03
▁erörter	-12.03
▁extravagant	-12.03
▁feierliche	-12.03
▁fremdländische	-12.03
▁frischgebackene	-12.03
▁föhnt	-12.03
▁gebräunte	-12.03
▁geeignete	-12.03
▁gefertigt	-12.03
▁geschwungen	-12.03
▁getraut	-12.03
▁gewebte	-12.03
▁gewinnt	-12.03
▁gewundene	-12.03
▁gigantische	-12.03
▁glatte	-12.03
▁glättet	-12.03
▁gruselige	-12.03
▁hausgemachte	-12.03
▁herzförmige	-12.03
▁hingesetzt	-12.03
▁hochspringen	-12.03
▁italienische	-12.03
▁lebendige	-12.03
▁lässig	-12.03
▁lümmel	-12.03
▁neonfarbene	-12.03
▁patriotische	-12.03
▁pelzige	-12.03
▁projiziert	-12.03
▁präsentieren	-12.03
▁purpurrote	-12.03
▁qualmt	-12.03
▁rechteckige	-12.03
▁reibt	-12.03
▁schottische	-12.03
▁schubsen	-12.03
▁schwitzt	-12.03
▁schöpft	-12.03
▁skaten	-12.03
▁stoppen	-12.03
▁transportieren	-12.03
▁unterirdische	-12.03
▁veranstalte	-12.03
▁verborgen	-12.03
▁verdreckte	-12.03
▁verregnete	-12.03
▁verrichtet	-12.03
▁verschlungene	-12.03
▁verschwitzt	-12.03
▁verteidigt	-12.03
▁verwahrloste	-12.03
▁vierbeinige	-12.03
▁vornübergebeugt	-12.03
▁wundervolle	-12.03
▁wütend	-12.03
▁zerlumpte	-12.03
eifrig	-12.03
rnstein	-12.03
system	-12.03
▁Abenteu	-12.03
▁Abfluss	-12.03
▁Doppeldeckerbus	-12.03
▁Erinnerung	-12.03
▁Mixer	-12.03
▁Ninja	-12.03
▁Orgel	-12.03
▁Tamburin	-12.03
▁arrangier	-12.03
▁aufgewühlte	-12.03
▁behandelt	-12.03
▁bergauf	-12.03
▁grasbedeckte	-12.03
▁kräftig	-12.03
▁mollige	-12.03
▁patrouillier	-12.03
▁schäbig	-12.03
▁signier	-12.03
▁ängstlich	-12.03
Farbspr	-12.03
Verbindung	-12.03
köpfen	-12.03
ograph	-12.03
selungs	-12.03
verkaufsstand	-12.03
zapft	-12.03
▁Abdeckung	-12.03
▁Astronauten	-12.03
▁Aufnahmestudio	-12.03
▁Aussichtspunkt	-12.03
▁Bereitschaft	-12.03
▁British	-12.03
▁Buntstift	-12.03
▁Burka	-12.03
▁Business	-12.03
▁Champagner	-12.03
▁Gebäudeeingang	-12.03
▁Headset	-12.03
▁Käfer	-12.03
▁Latexhandschuh	-12.03
▁Pferderücken	-12.03
▁Prinzessin	-12.03
▁Problem	-12.03
▁Rassel	-12.03
▁Ritual	-12.03
▁Salon	-12.03
▁Samurai	-12.03
▁Schlittenhunde	-12.03
▁Schrott	-12.03
▁Sicherungsseil	-12.03
▁Silber	-12.03
▁Taille	-12.03
▁Tonstudio	-12.03
▁Umarmung	-12.03
▁Wok	-12.03
▁absolvier	-12.03
▁aufregende	-12.03
▁ausstreckt	-12.03
▁bittet	-12.03
▁coole	-12.03
▁darum	-12.03
▁fleißig	-12.03
▁hätte	-12.03
▁majestätisch	-12.03
▁pfirsichfarben	-12.03
▁spannen	-12.03
▁stattfinden	-12.03
▁strömen	-12.03
▁verbeug	-12.03
▁wirbeln	-12.03
▁zielen	-12.03
agle	-12.03
bücher	-12.03
▁Esswaren	-12.03
▁Flach	-12.03
▁Irokesenfrisur	-12.03
▁Maurer	-12.03
▁Mega	-12.03
▁Sonnenanbeter	-12.03
▁Spruchbänder	-12.03
▁Stäbe	-12.03
▁Verkleiden	-12.03
▁ausgelassen	-12.03
▁hacken	-12.03
▁lebende	-12.03
▁prakti	-12.03
▁schlachtet	-12.03
▁schnitzen	-12.03
▁tauchen	-12.03
▁wichtige	-12.03
aggon	-12.03
bewohner	-12.03
fügt	-12.03
geblieben	-12.03
lehrer	-12.03
spurige	-12.03
zusammenpassende	-12.03
▁Barbie	-12.03
▁Freiwillige	-12.03
▁Fußbälle	-12.03
▁Gepäckstücken	-12.03
▁Hochzeitstag	-12.03
▁Island	-12.03
▁Kartoffeln	-12.03
▁Lakers	-12.03
▁Pilz	-12.03
▁Ritter	-12.03
▁Weizen	-12.03
▁drauf	-12.03
▁finden	-12.03
▁furcht	-12.03
▁grell	-12.03
▁weht	-12.03
Hippie	-12.03
uskeln	-12.03
▁Batter	-12.03
▁Panda	-12.03
▁Zementmischer	-12.03
▁geblockt	-12.03
▁Biergläsern	-12.03
▁Pappkarton	-12.03
▁Sumpfgebiet	-12.03
▁Wii	-12.03
▁betreut	-12.03
▁gewandt	-12.03
▁heranrollen	-12.03
▁teure	-12.03
▁tex	-12.03
▁Gleich	-12.03
▁Rentier	-12.03
▁Voll	-12.03
Ohio	-12.03
bruch	-12.03
näuel	-12.03
▁Filmset	-12.03
▁Schnellboot	-12.03
▁erklettert	-12.03
perücke	-12.03
▁Frack	-12.03
▁Nahrung	-12.03
▁englische	-12.03
pumpe	-12.03
▁Küstenlinie	-12.03
▁glätten	-12.03
▁Eng	-12.03
▁Kapuzenteil	-12.03
▁Plattenspieler	-12.03
▁Schwän	-12.03
▁sagen	-12.03
erobern	-12.03
▁Metallrohr	-12.03
▁angestr	-12.03
▁beugen	-12.03
clown	-12.03
eibliche	-12.03
zwanzig	-12.03
▁Amish	-12.03
▁Gewächshaus	-12.03
▁Latten	-12.03
▁erinner	-12.03
laib	-12.03
▁Pritsche	-12.03
▁Schmerzen	-12.03
▁blutende	-12.03
▁Freiluftkonzert	-12.03
▁Wanderstöcke	-12.03
▁moos	-12.03
Feuerwerkskörper	-12.03
Hüpf	-12.03
▁Rampenlicht	-12.03
vorführung	-12.03
äkelt	-12.03
▁Paddle	-12.03
▁Erdbeere	-12.03
▁Gesichtsschutz	-12.03
▁Notfall	-12.03
umhang	-12.03
lyer	-12.03
sperrt	-12.03
▁Spritzwasser	-12.03
schuld	-12.03
▁testen	-12.03
lapp	-12.03
▁Schneeflocke	-12.03
▁Abschleppwagen	-12.03
▁Korken	-12.03
▁Küchenboden	-12.03
▁riech	-12.03
▁Cir	-12.03
▁Collegestudent	-12.03
▁unscharfe	-12.03
▁Puma	-12.03
▁Tandem	-12.03
heruntergelassen	-12.03
▁Schön	-12.03
▁Totenkopf	-12.03
▁Vierergruppe	-12.03
nstert	-12.03
▁Fechtwettkampf	-12.03
▁Hero	-12.03
▁Schutthaufen	-12.03
▁Naturprodukte	-12.0301
▁Fertig	-12.0301
▁Medizinische	-12.0301
▁Transportmittel	-12.0301
▁quadratische	-12.0301
▁außergewöhnlich	-12.0301
▁Drahtzaun	-12.0301
▁konkurrier	-12.0301
▁vielfältige	-12.0301
▁Friseursalon	-12.0301
▁Rollkoffer	-12.0301
▁diverse	-12.0301
▁Jogginganzug	-12.0301
▁herausgeputzt	-12.0301
Play	-12.0301
bissen	-12.0301
Geburtstagsfeier	-12.0301
▁Blutdruck	-12.0301
▁Halstücher	-12.0301
▁Diashow	-12.0301
▁Engelskostüm	-12.0301
▁Limo	-12.0301
▁Unterarm	-12.0301
▁massier	-12.0301
▁angeln	-12.0301
erbsen	-12.0301
▁meditiert	-12.0301
▁Steaks	-12.0301
speist	-12.0301
Five	-12.0301
▁Mittelpunk	-12.0301
▁Rummelplatz	-12.0301
▁Picknickbank	-12.0301
▁Toten	-12.0301
▁Werferhügel	-12.0301
▁Bauchtänzer	-12.0301
▁Einsatzkräfte	-12.0301
▁Meereswelle	-12.0301
▁zerkleinert	-12.0301
▁Eierkuchen	-12.0301
▁backen	-12.0301
Klötze	-12.0301
krüge	-12.0301
nudel	-12.0301
▁Bühnenlicht	-12.0301
▁Sparring	-12.0301
▁Zehen	-12.0301
Touch	-12.0301
▁Minne	-12.0301
dwirtschaftliche	-12.0301
▁Bügel	-12.0301
▁Linse	-12.0301
albnackte	-12.0301
▁Kunstprojekt	-12.0301
zange	-12.0301
Talkie	-12.0301
▁scherz	-12.0301
lären	-12.0301
▁Polizeiauto	-12.0301
▁leisten	-12.0301
▁rodel	-12.0301
▁Würstchen	-12.0301
orld	-12.0301
ulente	-12.0301
angestellte	-12.0301
jenige	-12.0301
▁Abfall	-12.0301
▁Audi	-12.0301
▁Laderampe	-12.0301
▁Schlammgrube	-12.0301
▁Schuljunge	-12.0301
▁Theaterstück	-12.0301
gewinkelt	-12.0301
▁Sprühdose	-12.0301
▁Rockkonzert	-12.0301
▁Mustang	-12.0301
ON	-12.0302
▁Asphaltstraße	-12.0302
▁Zucker	-12.0302
▁Brand	-12.0302
▁Sonnenhüte	-12.0302
▁süd	-12.0302
▁Herbsttag	-12.0302
▁Sonnentag	-12.0302
runzelt	-12.0302
schrank	-12.0302
▁Musikfestival	-12.0302
▁Soda	-12.0302
▁Spät	-12.0302
▁Vorderrad	-12.0302
▁herausgestreckt	-12.0302
▁Transportwagen	-12.0302
▁Weihnachtszeit	-12.0302
▁Plastikrutsche	-12.0302
▁untergehende	-12.0302
▁Sattelzug	-12.0302
▁spi	-12.0302
umrandet	-12.0302
▁VW	-12.0302
marsch	-12.0302
▁Bassist	-12.0302
▁Pfau	-12.0302
▁entdeckt	-12.0302
▁Müllhaufen	-12.0302
▁Plastikbecher	-12.0302
▁eingelassen	-12.0302
▁Weinflasche	-12.0302
▁Taschenlampe	-12.0302
urchschnittlich	-12.0302
▁gemähte	-12.0302
geklappte	-12.0302
▁nachgemachte	-12.0302
oamerikaner	-12.0302
ough	-12.0302
▁Spieß	-12.0302
▁Tarnmuster	-12.0302
▁riss	-12.0302
▁Ballontier	-12.0302
▁Tunika	-12.0302
▁Gartenwerkzeug	-12.0302
▁angeschaut	-12.0302
omet	-12.0303
▁Gruppenfoto	-12.0303
▁würz	-12.0303
▁herabhängen	-12.0303
Münzfernsprecher	-12.0303
▁Haube	-12.0303
▁Gitarrenspieler	-12.0303
schatte	-12.0303
▁Kürbisfeld	-12.0303
fordert	-12.0303
aufdruck	-12.0303
berschlag	-12.0303
▁Fra	-12.0303
▁BMW	-12.0303
▁Brustkorb	-12.0303
stillt	-12.0303
▁Ausland	-12.0303
▁beschreib	-12.0303
▁eisige	-12.0303
▁Werk	-12.0303
▁bespritzen	-12.0303
ukett	-12.0304
▁Polizeifahrzeug	-12.0304
▁rette	-12.0304
Stunde	-12.0304
▁Imbissstand	-12.0304
startet	-12.0304
▁dreirädrige	-12.0304
▁Obstkarren	-12.0304
▁abzufangen	-12.0304
▁Hinterrad	-12.0304
▁Ahorn	-12.0304
▁Schildkappe	-12.0304
▁Sense	-12.0304
termin	-12.0304
▁hochgeschobene	-12.0304
IG	-12.0304
▁Gruppenbild	-12.0304
taucher	-12.0304
▁Plastikstuhl	-12.0304
▁Insasse	-12.0305
▁Seesack	-12.0305
▁Hindernisse	-12.0305
▁Deli	-12.0305
▁Gefährt	-12.0305
▁Skistöcken	-12.0305
▁Teppichboden	-12.0305
South	-12.0305
▁Automat	-12.0305
grenzt	-12.0305
▁Füll	-12.0305
▁Bahnarbeiter	-12.0305
▁Abschlag	-12.0305
▁Masc	-12.0305
film	-12.0305
▁Jet	-12.0305
▁Oben	-12.0306
▁Seilrutsche	-12.0306
▁Skimboarde	-12.0306
pool	-12.0306
▁Tackl	-12.0306
unfall	-12.0306
▁ignoriert	-12.0306
▁darstellt	-12.0306
sachen	-12.0306
▁Haarsalon	-12.0306
▁Ju	-12.0306
▁Drachenkostüm	-12.0306
▁Los	-12.0306
▁Puder	-12.0307
▁Eisläufer	-12.0307
zone	-12.0307
KE	-12.0307
▁Farn	-12.0307
▁Metallgeländer	-12.0307
▁gebadet	-12.0307
▁nachdenklich	-12.0308
schuss	-12.0308
▁Metallschüssel	-12.0308
MA	-12.0308
▁Fußballnetz	-12.0308
▁Bücherei	-12.0308
▁Spielzeuglaster	-12.0308
▁Wandtafel	-12.0308
lstreifen	-12.0309
▁Stuhlreihe	-12.0309
▁gedreht	-12.0309
▁Geländemaschine	-12.0309
▁aufbäumende	-12.0309
kuppe	-12.031
▁Bowlingspieler	-12.031
▁Musikstück	-12.0311
▁besteigen	-12.0311
▁rastet	-12.0311
▁Kochmütze	-12.0311
▁Stadtgebiet	-12.0311
▁Kochjacke	-12.0311
▁Spielautomaten	-12.0311
▁Hab	-12.0312
▁Gartenstühlen	-12.0312
▁Sprungtritt	-12.0312
▁Haustier	-12.0312
▁zusammengerollt	-12.0312
gebastelte	-12.0312
röt	-12.0313
strom	-12.0313
▁Rinde	-12.0313
gesehen	-12.0315
ßten	-12.0315
aku	-12.0315
▁versetzt	-12.0315
▁Sportteam	-12.0316
▁Hundeschlitten	-12.0316
chublade	-12.0316
▁Side	-12.0316
▁Gast	-12.0316
▁verläuft	-12.0316
▁Fensterbank	-12.0316
▁Rest	-12.0317
▁Zeltplatz	-12.0317
▁Kaffeetisch	-12.0317
▁Blumendruck	-12.0317
▁Dia	-12.0317
▁unbe	-12.0318
▁DS	-12.0318
▁Port	-12.0318
Cabrio	-12.0318
▁bevorstehende	-12.0318
arbeitung	-12.0319
igan	-12.0319
▁hochzuheben	-12.0319
▁gestürzt	-12.0319
▁errichten	-12.0319
▁hochgehalten	-12.032
▁Cad	-12.032
▁Schülerinnen	-12.032
▁Regenjacke	-12.032
▁Blickfeld	-12.032
▁Sonnenblume	-12.0321
▁Marktstraße	-12.0321
▁Kauf	-12.0321
würfel	-12.0322
▁Baseballplatz	-12.0322
▁Bodyboard	-12.0322
▁Binde	-12.0322
▁Bergwand	-12.0322
wechsel	-12.0322
▁Spritz	-12.0324
ugenschein	-12.0324
▁eingehüllt	-12.0324
zusammengedrängt	-12.0325
▁Maus	-12.0325
▁Zauberer	-12.0325
itar	-12.0326
▁Lederkleidung	-12.0326
▁hellrosafarbene	-12.0327
Verkehrspolizist	-12.0327
▁Radweg	-12.0327
▁Big	-12.0327
▁Windel	-12.0328
▁Gemüsestand	-12.0328
▁ernste	-12.0328
ity	-12.0328
▁Fau	-12.0329
▁Bahnschiene	-12.0329
▁Pant	-12.0329
▁Zugfahrt	-12.0329
ransparente	-12.0329
▁Ladengeschäft	-12.033
Jim	-12.033
oble	-12.0331
usschnitt	-12.0331
▁Verkleidung	-12.0331
▁Holzgebäude	-12.0332
▁kostenlos	-12.0332
▁Eisstand	-12.0332
ufer	-12.0333
▁Treppenhauses	-12.0333
▁abgelegt	-12.0333
▁Polizeiuniform	-12.0333
ussel	-12.0334
kinder	-12.0335
▁Kö	-12.0336
ändert	-12.0336
▁Straßenstand	-12.0338
▁Biene	-12.0339
▁schweißen	-12.0339
▁Fach	-12.0339
▁Spielzeugzug	-12.0341
▁Steinweg	-12.0342
▁Schuluniform	-12.0342
ählen	-12.0343
▁Glocke	-12.0343
▁Anor	-12.0344
▁Glasur	-12.0344
ial	-12.0345
inkt	-12.0345
lligen	-12.0347
▁Viertel	-12.0349
igung	-12.0349
▁Wanderin	-12.035
katze	-12.0352
Hochstart	-12.0352
▁Schiffes	-12.0352
▁Fü	-12.0353
▁Straßenmusikant	-12.0354
raffe	-12.0354
▁rohe	-12.0354
lipper	-12.0355
▁Designer	-12.0355
▁entschlossen	-12.0359
▁Handgriff	-12.0359
agel	-12.0364
▁verlie	-12.037
gesprüht	-12.0379
Schwimmflügel	-12.0379
getre	-12.038
▁wälzt	-12.0381
▁verhafte	-12.0382
wühlt	-12.0386
duell	-12.0392
▁Pä	-12.0396
▁Sanität	-12.0396
reiten	-12.0401
▁Schwimmring	-12.0402
▁Gartenarbeit	-12.0429
duckt	-12.043
leckt	-12.0438
Dance	-12.0446
▁Baugerät	-12.0453
▁wild	-12.0455
tcher	-12.0455
Basketballspiele	-12.0465
▁Arbeitstag	-12.0465
gesagt	-12.0495
Grand	-12.0507
ruppig	-12.0511
wickelt	-12.0514
▁Weide	-12.0516
▁danebensteh	-12.0523
▁organisier	-12.0526
Spenden	-12.0529
Pian	-12.0531
Pho	-12.0536
gehört	-12.0536
▁Anku	-12.0543
▁schü	-12.0544
itat	-12.0545
zubereit	-12.0553
wall	-12.0557
▁Alp	-12.0563
ynchronschwimmer	-12.057
ungsvoll	-12.058
▁Del	-12.0588
▁blo	-12.0594
astet	-12.0604
▁kreisch	-12.0608
Probe	-12.0609
▁Latein	-12.0641
ilitärangehörige	-12.0643
▁tiefblaue	-12.0645
▁winkend	-12.0664
▁orangefarben	-12.0675
ängel	-12.0681
▁kunstvoll	-12.0717
▁vermisch	-12.0717
welt	-12.072
IS	-12.0733
hlt	-12.0751
▁ni	-12.077
▁Fernseh	-12.0772
flank	-12.0773
abhängen	-12.0778
▁interessant	-12.0807
FC	-12.081
▁Lea	-12.0813
gesägt	-12.0847
▁Wasserspritze	-12.0859
fliegen	-12.0894
▁Boa	-12.0939
stiegs	-12.0948
EL	-12.0954
eys	-12.0975
▁beginnende	-12.0979
▁Scho	-12.1027
▁niedrig	-12.1056
kysurf	-12.1058
gedrückt	-12.113
▁besonder	-12.1149
berführung	-12.1152
▁üppig	-12.1173
▁komisch	-12.118
▁Wasserstrahl	-12.1226
▁schreibend	-12.13
färbt	-12.1318
low	-12.134
▁Gu	-12.1372
▁wer	-12.1422
Baseballteam	-12.1448
inkauf	-12.1481
fliegt	-12.1553
▁Metallto	-12.1587
No	-12.1679
▁Zent	-12.1711
▁hellhäutig	-12.1759
ktisch	-12.1778
etzen	-12.183
ody	-12.1939
▁erhöht	-12.1966
Range	-12.2127
▁Metallarbeite	-12.2135
▁vorübergeh	-12.215
Free	-12.2182
▁spanisch	-12.2201
▁grünblau	-12.2217
Pain	-12.2238
▁Pep	-12.2277
oldaten	-12.2278
Eisenbahnschiene	-12.2292
▁irgendein	-12.2297
etzten	-12.2374
esso	-12.2463
▁Nu	-12.2468
▁Deutsch	-12.2505
▁wunderschön	-12.2543
schling	-12.2579
▁übersät	-12.2601
▁traditionell	-12.2623
führung	-12.2644
▁sonn	-12.2676
▁besser	-12.2744
Trockner	-12.2801
weite	-12.2835
dler	-12.2835
▁gese	-12.2958
ssiv	-12.2988
▁schütte	-12.3032
▁prächtig	-12.312
▁Blasinstrument	-12.312
▁indisch	-12.3311
▁Pull	-12.3438
▁vornehm	-12.3461
fußball	-12.3461
iegelt	-12.3468
isenbahnschienen	-12.3523
▁scheu	-12.3559
▁zuguck	-12.3562
aiteninstrumente	-12.3599
▁Spac	-12.3628
ckchen	-12.3629
stützen	-12.3633
▁falsch	-12.3651
▁Lebensmittellad	-12.3667
▁tröste	-12.3846
strahlen	-12.3948
▁Aufstell	-12.3963
Sky	-12.4175
onische	-12.419
▁gehol	-12.4206
▁unterstütz	-12.4218
▁schön	-12.422
▁Keks	-12.4288
▁Rennhund	-12.4291
schienen	-12.4293
inirock	-12.4303
ernsehbildschirm	-12.4446
▁Klub	-12.4449
▁weiblich	-12.4462
▁Kleidungsstück	-12.4496
streit	-12.467
ival	-12.477
rainingsgerät	-12.4841
liebte	-12.4868
▁Brü	-12.492
spannt	-12.4934
wickel	-12.4954
absperrung	-12.4976
immer	-12.4996
äuser	-12.4998
vertrete	-12.5051
schleppen	-12.5087
▁gesp	-12.5096
zufangen	-12.511
viertel	-12.5112
▁Pfote	-12.5137
▁Zitrone	-12.5137
▁Inlineskate	-12.5139
▁wetteifer	-12.5139
bäume	-12.514
▁Masse	-12.514
stöcke	-12.5142
▁Einkaufstüte	-12.5144
▁Wolke	-12.5144
▁Tomate	-12.5145
▁Knöpfe	-12.5147
▁Röcke	-12.5148
▁Räder	-12.5149
▁Socke	-12.5149
▁Drache	-12.5149
▁Schwei	-12.515
▁Lehr	-12.5154
▁Hüt	-12.5158
▁pro	-12.5158
▁Prä	-12.5168
▁tätowier	-12.518
▁blicke	-12.5189
▁Bahngleis	-12.5197
prächtige	-12.5197
Krieg	-12.5199
Sooners	-12.5199
Magazin	-12.52
Aufkleber	-12.5202
Kämpfer	-12.5202
▁beeindrucken	-12.5202
Basketballkorb	-12.5202
Rasenmäher	-12.5203
Schrift	-12.5203
Spielzeugauto	-12.5203
raft	-12.5203
sorg	-12.5204
▁Pflanz	-12.5204
Geländefahrzeug	-12.5205
gepflasterte	-12.5205
binden	-12.5205
Staubsauger	-12.5205
Feuerwehrauto	-12.5207
Frisur	-12.5207
Präsentation	-12.5207
gleitet	-12.5207
liegt	-12.5207
Stunt	-12.5207
Banner	-12.5207
Sandwich	-12.5207
Figur	-12.5208
Hotel	-12.5208
Kiste	-12.5208
Show	-12.5208
Lager	-12.5208
Linie	-12.5208
fasst	-12.5208
beißt	-12.5209
silbernen	-12.5209
Make	-12.5209
Kampf	-12.5209
schießen	-12.5209
Studenten	-12.5209
Röcken	-12.5209
paddelt	-12.5209
bewegt	-12.521
gießt	-12.521
Clown	-12.521
Cowboy	-12.521
Strecke	-12.521
Steinen	-12.521
Lastwagen	-12.521
Laptop	-12.521
Badehose	-12.521
Einkaufswagen	-12.521
Stil	-12.521
Fahrzeug	-12.521
Stand	-12.521
Trick	-12.521
starrt	-12.521
Eimer	-12.521
Badeanzug	-12.521
Sweatshirt	-12.5211
chore	-12.5211
Rampe	-12.5211
Pool	-12.5211
schwimmt	-12.5211
blonde	-12.5211
Familie	-12.5211
Pullover	-12.5211
Gesicht	-12.5211
Kamera	-12.5211
Pferd	-12.5211
Bühne	-12.5211
Hintergrund	-12.5211
Wasser	-12.5211
Nummer	-12.5211
Kappe	-12.5212
abend	-12.5212
Art	-12.5214
leeren	-12.5215
Loch	-12.5215
Buch	-12.522
▁musizier	-12.5236
organis	-12.5237
ändigen	-12.5237
▁Chirurg	-12.5238
▁Labrado	-12.5239
▁Kolleg	-12.5239
▁erledig	-12.5239
▁Nachricht	-12.5242
▁Einkäufe	-12.5243
▁Süßigkeit	-12.5243
▁Elefant	-12.5243
lichkeiten	-12.5244
▁Männe	-12.5245
▁reagier	-12.5247
▁Sec	-12.5247
▁kosten	-12.5249
▁wäh	-12.5251
▁Spül	-12.5256
▁Kontroll	-12.5259
hüllte	-12.526
▁burgunder	-12.526
riftet	-12.526
▁Hilf	-12.526
▁Eck	-12.5261
betriebs	-12.5262
ürfel	-12.5265
reizt	-12.5266
prüf	-12.527
gestaltet	-12.5271
quert	-12.5272
creme	-12.5274
agiert	-12.5275
▁beförder	-12.5276
streu	-12.5277
pistole	-12.5277
▁Wasserspreng	-12.5278
gespann	-12.5278
▁Bandmitglied	-12.5278
▁Absperr	-12.5278
Monitor	-12.5278
tücher	-12.5278
▁Maschendraht	-12.5283
kontroll	-12.5284
▁Brief	-12.5285
öcken	-12.5286
ffel	-12.5287
öchern	-12.5287
▁leh	-12.5287
ribüne	-12.5289
▁Holzsta	-12.5289
leuchtet	-12.529
zuklettern	-12.5291
▁befrei	-12.5291
attraktion	-12.5292
asketball	-12.5292
▁Jugend	-12.5292
egrenz	-12.5293
▁Seg	-12.5293
rädrige	-12.5294
dress	-12.5295
chwertern	-12.5295
bemalung	-12.5295
chiedsrichter	-12.5296
andalen	-12.5296
holfen	-12.5296
plattform	-12.5296
▁Tunik	-12.5296
▁Pfa	-12.5297
strauß	-12.5297
ätzchen	-12.5297
▁irgendw	-12.5297
exikanische	-12.5297
▁Führ	-12.5297
▁Bürgerstei	-12.5297
▁erfor	-12.5297
gänger	-12.5298
wundert	-12.5298
ügel	-12.5298
konzert	-12.5298
triebs	-12.5298
▁buckel	-12.5298
laterne	-12.5298
▁wahr	-12.5298
winkel	-12.5298
opfbedeckung	-12.5298
lohmarkt	-12.5298
aterial	-12.5298
ernrohr	-12.5298
ammer	-12.5298
unststück	-12.5298
triebene	-12.5298
ockey	-12.5299
aarschnitt	-12.5299
rogramm	-12.5299
ction	-12.5299
ufgeregte	-12.5299
eparatur	-12.5299
awaii	-12.5299
▁Würst	-12.5299
brochen	-12.5299
indernis	-12.5299
ittert	-12.5299
itarrist	-12.5299
lfass	-12.5299
▁Karo	-12.5299
ountry	-12.5299
Mou	-12.5299
▁medit	-12.5299
ervieren	-12.5299
eschäftigt	-12.5299
formation	-12.5299
arbietung	-12.5299
▁Metzger	-12.5299
assade	-12.5299
nägel	-12.5299
▁Gäs	-12.53
börse	-12.53
versuch	-12.53
▁Medizin	-12.53
▁Elektro	-12.53
▁Flanell	-12.53
Dekoration	-12.53
angebot	-12.53
egnet	-12.53
kittel	-12.53
willig	-12.53
▁Blechbl	-12.53
▁berüh	-12.53
hölzer	-12.53
▁Sprüh	-12.53
▁Hartholz	-12.53
▁Mexi	-12.53
tattoo	-12.53
heimnis	-12.53
▁Press	-12.53
eduldig	-12.53
chleuder	-12.53
▁Aqua	-12.53
▁Sumpf	-12.53
karton	-12.53
prenger	-12.53
Terri	-12.53
picknick	-12.53
reiht	-12.53
▁Calvin	-12.53
▁Lecker	-12.53
▁Multi	-12.53
frisur	-12.53
kanister	-12.53
▁Benzin	-12.53
▁Irokesen	-12.53
▁Selbst	-12.53
▁Souvenir	-12.53
finster	-12.53
pfiff	-12.53
wässerungs	-12.53
▁Alphabet	-12.53
▁Atlanta	-12.53
▁Baltimore	-12.53
▁Chemikalie	-12.53
▁Coffee	-12.53
▁Gebirgs	-12.53
▁Juwel	-12.53
▁Kosmetik	-12.53
▁Pokemon	-12.53
▁SWAT	-12.53
gekrönt	-12.53
imbiss	-12.53
stylisti	-12.53
▁Blümchen	-12.53
▁Challenge	-12.53
▁Company	-12.53
▁Defens	-12.53
▁Dollar	-12.53
▁Hufeisen	-12.53
▁Infield	-12.53
▁Kirschblüten	-12.53
▁Pingpong	-12.53
▁flipp	-12.53
▁glü	-12.53
▁größten	-12.53
▁gärtner	-12.53
▁kamera	-12.53
Birthday	-12.53
Equipment	-12.53
Gießkanne	-12.53
Interview	-12.53
Küchenutensilien	-12.53
MCA	-12.53
Mehrfamilienhaus	-12.53
OME	-12.53
Plüschtierpreise	-12.53
Propeller	-12.53
Sehenswürdigkeit	-12.53
Shrit	-12.53
Spielzeuggitarre	-12.53
Stabhochspringer	-12.53
Stones	-12.53
Ticket	-12.53
anorama	-12.53
athlet	-12.53
aufensterbummel	-12.53
beauftragte	-12.53
blüte	-12.53
break	-12.53
bögen	-12.53
ckz	-12.53
darsteller	-12.53
dimensionierte	-12.53
elsteine	-12.53
fabrik	-12.53
fässer	-12.53
gebirge	-12.53
geschehen	-12.53
glaublich	-12.53
gyptische	-12.53
hildren	-12.53
hrfurcht	-12.53
itrine	-12.53
kamerad	-12.53
katessen	-12.53
kolonne	-12.53
kronen	-12.53
kunstwerk	-12.53
köche	-12.53
kühler	-12.53
lympioniken	-12.53
löffel	-12.53
maskottchen	-12.53
mikroskop	-12.53
milienmitglieder	-12.53
munikationsgerät	-12.53
ngstreckenläufer	-12.53
nkränze	-12.53
nöchelt	-12.53
ollschuhlaufende	-12.53
ollywood	-12.53
ologi	-12.53
ooping	-12.53
opilot	-12.53
pedal	-12.53
porträt	-12.53
präsentation	-12.53
rojektorleinwand	-12.53
runzelnd	-12.53
sbehörde	-12.53
sbuffet	-12.53
schbombe	-12.53
spaß	-12.53
sponsert	-12.53
srael	-12.53
tablett	-12.53
teilnehmer	-12.53
teleskop	-12.53
tensilien	-12.53
tfahrgelegenheit	-12.53
trampelt	-12.53
transporter	-12.53
tschaft	-12.53
tätig	-12.53
uddhistische	-12.53
uerflöte	-12.53
ungsbetrieb	-12.53
unterlage	-12.53
uperheldenkostüm	-12.53
versammlung	-12.53
zäunen	-12.53
zäunung	-12.53
üdostasi	-12.53
▁Abdeckplane	-12.53
▁Abwehrspieler	-12.53
▁Akrobaten	-12.53
▁Amputierte	-12.53
▁Angebot	-12.53
▁Angehörige	-12.53
▁Antiquitäten	-12.53
▁Arbeitnehmer	-12.53
▁Armbanduhr	-12.53
▁Asphaltbelag	-12.53
▁Auditorium	-12.53
▁Außenbord	-12.53
▁Barhocker	-12.53
▁Barrikade	-12.53
▁Baumgrenze	-12.53
▁Bodybuilder	-12.53
▁Boutique	-12.53
▁Brasilien	-12.53
▁Brezeln	-12.53
▁Brokkoli	-12.53
▁Bulldo	-12.53
▁Burrito	-12.53
▁Bögen	-12.53
▁Chevrolet	-12.53
▁Cocktails	-12.53
▁Converse	-12.53
▁Curling	-12.53
▁Dackel	-12.53
▁Davidstern	-12.53
▁Delphin	-12.53
▁Detail	-12.53
▁Diagramm	-12.53
▁Didgeridoo	-12.53
▁Dojo	-12.53
▁Donnerstag	-12.53
▁Dudelsäcke	-12.53
▁Durag	-12.53
▁Dünen	-12.53
▁Edelstahl	-12.53
▁Ehepaar	-12.53
▁Eidechse	-12.53
▁Eiffelturm	-12.53
▁Eingeborene	-12.53
▁Einkaufsbummel	-12.53
▁Eiskunstläufer	-12.53
▁Empanadas	-12.53
▁Entertainer	-12.53
▁Entscheidung	-12.53
▁Eröffnung	-12.53
▁Espresso	-12.53
▁Express	-12.53
▁Factory	-12.53
▁Fahrbahn	-12.53
▁Fairway	-12.53
▁Farbwalze	-12.53
▁Fernsehkamera	-12.53
▁Feuchtgebiet	-12.53
▁Feuerhydranten	-12.53
▁Flannel	-12.53
▁Fleece	-12.53
▁Fliegenfischen	-12.53
▁Folklore	-12.53
▁Formalitäten	-12.53
▁Forschungs	-12.53
▁Fotovorlage	-12.53
▁Foyer	-12.53
▁Francisco	-12.53
▁Frisör	-12.53
▁Fußspuren	-12.53
▁Fähigkeiten	-12.53
▁Gebetsteppich	-12.53
▁Gebrauch	-12.53
▁Gebüsch	-12.53
▁Gefälle	-12.53
▁Geistliche	-12.53
▁Gestalt	-12.53
▁Gewalt	-12.53
▁Gewebe	-12.53
▁Gewichthebe	-12.53
▁Gleitschirm	-12.53
▁Glück	-12.53
▁Glühbirne	-12.53
▁Grafik	-12.53
▁Grouch	-12.53
▁Großeltern	-12.53
▁Großvater	-12.53
▁Grundstück	-12.53
▁Güter	-12.53
▁Handmixer	-12.53
▁Hantel	-12.53
▁Hauseingang	-12.53
▁Heckklappe	-12.53
▁Heineken	-12.53
▁Herbstlaub	-12.53
▁Hijab	-12.53
▁Hipster	-12.53
▁Holzscheit	-12.53
▁Holzstäbe	-12.53
▁Hulk	-12.53
▁Hälfte	-12.53
▁Hündin	-12.53
▁Interesse	-12.53
▁Italien	-12.53
▁Jagd	-12.53
▁Jesus	-12.53
▁Jäger	-12.53
▁Jüngere	-12.53
▁Kakteen	-12.53
▁Kanada	-12.53
▁Kandidat	-12.53
▁Kartengeber	-12.53
▁Katzenbabies	-12.53
▁Kaugummi	-12.53
▁Kaugummiblase	-12.53
▁Kebabs	-12.53
▁Kiesstrand	-12.53
▁Kinderfahrräder	-12.53
▁Kipplast	-12.53
▁Kirschbäume	-12.53
▁Kolonial	-12.53
▁Konditor	-12.53
▁Krankenpfleger	-12.53
▁Kräuter	-12.53
▁Kunstartikeln	-12.53
▁Kunststofftasse	-12.53
▁Langlauf	-12.53
▁Langläufer	-12.53
▁Laufstall	-12.53
▁Lederschuhe	-12.53
▁Legosteine	-12.53
▁Lehnstuhl	-12.53
▁Lineal	-12.53
▁Liveauftritt	-12.53
▁Longboard	-12.53
▁Luxuswa	-12.53
▁MacBook	-12.53
▁Martini	-12.53
▁Meißel	-12.53
▁Metallbauwerk	-12.53
▁Mohikaner	-12.53
▁Monument	-12.53
▁Mulch	-12.53
▁Muslim	-12.53
▁Needle	-12.53
▁Neujahrs	-12.53
▁Niko	-12.53
▁Nonnentracht	-12.53
▁Nägel	-12.53
▁Ordner	-12.53
▁Osterei	-12.53
▁Palmwedeln	-12.53
▁Papagei	-12.53
▁Pappschachtel	-12.53
▁Patriot	-12.53
▁Pavillon	-12.53
▁Pferch	-12.53
▁Pferdefuhrwerk	-12.53
▁Pickel	-12.53
▁Portrait	-12.53
▁Presslufthämmer	-12.53
▁Rasiermesser	-12.53
▁Reagenzgläser	-12.53
▁Reaktion	-12.53
▁Refle	-12.53
▁Regenguss	-12.53
▁Regierung	-12.53
▁Reifenspur	-12.53
▁Rennsport	-12.53
▁Ribbon	-12.53
▁Ringkämpfer	-12.53
▁Risiko	-12.53
▁Rollhockey	-12.53
▁Sarong	-12.53
▁Sauerstoff	-12.53
▁Schaffner	-12.53
▁Scheune	-12.53
▁Schließfächer	-12.53
▁Schnabel	-12.53
▁Schneidbrett	-12.53
▁Schnurrbärten	-12.53
▁Schraubenzieher	-12.53
▁Schreien	-12.53
▁Schränk	-12.53
▁Schuhputzstand	-12.53
▁Schweinefleisch	-12.53
▁Schöpf	-12.53
▁Scooby	-12.53
▁Scrabble	-12.53
▁Seahawks	-12.53
▁Seminar	-12.53
▁Series	-12.53
▁Sessellift	-12.53
▁Shampoo	-12.53
▁Signal	-12.53
▁Slum	-12.53
▁Souschef	-12.53
▁Spaghetti	-12.53
▁Spezial	-12.53
▁Spielkonsole	-12.53
▁Sportfans	-12.53
▁Sprecher	-12.53
▁Stadtplan	-12.53
▁Stoppschild	-12.53
▁Streethockey	-12.53
▁Streikschildern	-12.53
▁Stretching	-12.53
▁Stromleitungen	-12.53
▁Sträuchern	-12.53
▁Styroporbecher	-12.53
▁Sushi	-12.53
▁Sweat	-12.53
▁Tambour	-12.53
▁Terminal	-12.53
▁Trampelpfad	-12.53
▁Transformator	-12.53
▁Tribal	-12.53
▁Trinkgeld	-12.53
▁Trio	-12.53
▁Truth	-12.53
▁Tätigkeiten	-12.53
▁Tümpel	-12.53
▁Umkleide	-12.53
▁Umriss	-12.53
▁Unternehmer	-12.53
▁Untertasse	-12.53
▁Urinal	-12.53
▁Vegetation	-12.53
▁Verdächtige	-12.53
▁Vorgesetzte	-12.53
▁Vorräte	-12.53
▁Vorspeise	-12.53
▁Völker	-12.53
▁WAR	-12.53
▁Wahrzeichen	-12.53
▁Weitsprung	-12.53
▁Wikinger	-12.53
▁Winkel	-12.53
▁Wischmob	-12.53
▁Wissenschafts	-12.53
▁Zange	-12.53
▁Zehenspitzen	-12.53
▁Zeltplane	-12.53
▁Ziffer	-12.53
▁Zigeuner	-12.53
▁Zugwaggons	-12.53
▁Zuhörerschaft	-12.53
▁Zwiebel	-12.53
▁Zwischen	-12.53
▁abfallenden	-12.53
▁abgeschirmte	-12.53
▁abgestorbene	-12.53
▁abwischt	-12.53
▁aktiv	-12.53
▁alkoholische	-12.53
▁alltägliche	-12.53
▁altertümliche	-12.53
▁anspruchsvolle	-12.53
▁applaudieren	-12.53
▁applaudiert	-12.53
▁attackiert	-12.53
▁aufgespießte	-12.53
▁aufreizende	-12.53
▁aufzufallen	-12.53
▁ausdruckslos	-12.53
▁ausgetrocknete	-12.53
▁bauschige	-12.53
▁behaarte	-12.53
▁beinhaltet	-12.53
▁bekannte	-12.53
▁benötigt	-12.53
▁beruhigen	-12.53
▁beseitigen	-12.53
▁bezaubernde	-12.53
▁brasilianische	-12.53
▁braucht	-12.53
▁chinesiche	-12.53
▁dominiert	-12.53
▁duneklhaarige	-12.53
▁eingebuddelt	-12.53
▁entsorgt	-12.53
▁entsprechende	-12.53
▁entwirren	-12.53
▁erfolgreich	-12.53
▁erklären	-12.53
▁erzielt	-12.53
▁festzuhalten	-12.53
▁flexible	-12.53
▁flussabwärts	-12.53
▁folkloristische	-12.53
▁frequentierten	-12.53
▁frisst	-12.53
▁fühle	-12.53
▁gebra	-12.53
▁gedämpfte	-12.53
▁geerntete	-12.53
▁gehäutete	-12.53
▁gekräuselte	-12.53
▁gelangweilt	-12.53
▁gelaunt	-12.53
▁gelockte	-12.53
▁gemächlich	-12.53
▁gepanzerte	-12.53
▁gesattelte	-12.53
▁geschlungen	-12.53
▁herrscht	-12.53
▁himmelblaue	-12.53
▁hingefallen	-12.53
▁holländische	-12.53
▁händchenhaltend	-12.53
▁inspirier	-12.53
▁installiert	-12.53
▁internationale	-12.53
▁interviewen	-12.53
▁islamische	-12.53
▁kennzeichnet	-12.53
▁klatschnass	-12.53
▁koreanische	-12.53
▁kreativ	-12.53
▁könnte	-12.53
▁leuchtorange	-12.53
▁manövrieren	-12.53
▁multi	-12.53
▁mürrisch	-12.53
▁natur	-12.53
▁natürlich	-12.53
▁olivgrüne	-12.53
▁origin	-12.53
▁ostasiatische	-12.53
▁perfekte	-12.53
▁plaudern	-12.53
▁provisorisch	-12.53
▁qualmende	-12.53
▁rausgeworfen	-12.53
▁restliche	-12.53
▁riesengroße	-12.53
▁salutier	-12.53
▁schattenhafte	-12.53
▁schnüffeln	-12.53
▁schubst	-12.53
▁schwebende	-12.53
▁schwierige	-12.53
▁schäumende	-12.53
▁sendet	-12.53
▁speisen	-12.53
▁spezielle	-12.53
▁sprudel	-12.53
▁sternförmige	-12.53
▁steuern	-12.53
▁strahlt	-12.53
▁technische	-12.53
▁trabenden	-12.53
▁tragbare	-12.53
▁töpfert	-12.53
▁verbirgt	-12.53
▁verwitterten	-12.53
▁vietnamesische	-12.53
▁wagemutige	-12.53
▁wasserdichte	-12.53
▁wattierte	-12.53
▁weitläufige	-12.53
▁wünschen	-12.53
▁zeitgenössische	-12.53
▁zerbricht	-12.53
▁zerklüftete	-12.53
▁zerzaust	-12.53
▁zitronen	-12.53
▁zöger	-12.53
▁ärztliche	-12.53
▁Bistro	-12.53
▁Budweiser	-12.53
▁Castro	-12.53
▁Steinhäuser	-12.53
▁verboten	-12.53
Künste	-12.53
ahrstuhl	-12.53
antworte	-12.53
ative	-12.53
exam	-12.53
gleichmäßig	-12.53
kündig	-12.53
ontainer	-12.53
pavill	-12.53
rommlern	-12.53
verschmutz	-12.53
▁Alaska	-12.53
▁Aluminium	-12.53
▁Antwort	-12.53
▁Auswirkung	-12.53
▁Belag	-12.53
▁Bohnen	-12.53
▁Bonbon	-12.53
▁Böschung	-12.53
▁Cheese	-12.53
▁Diskus	-12.53
▁Erfrischung	-12.53
▁Ganzkörper	-12.53
▁Gasgrill	-12.53
▁Gurke	-12.53
▁Liebe	-12.53
▁Luftballontiere	-12.53
▁Lutscher	-12.53
▁Notenblättern	-12.53
▁Offizielle	-12.53
▁Oliven	-12.53
▁Pfauenkostüm	-12.53
▁Pianist	-12.53
▁Regenschrim	-12.53
▁Rockstar	-12.53
▁Schnellimbiss	-12.53
▁Seifenwasser	-12.53
▁Session	-12.53
▁Sonntag	-12.53
▁Sperrholz	-12.53
▁Styl	-12.53
▁Tanzschritt	-12.53
▁Treib	-12.53
▁Ventilator	-12.53
▁Verzierung	-12.53
▁Wimpern	-12.53
▁Ziegelpflaster	-12.53
▁Zivil	-12.53
▁Zuckerrohr	-12.53
▁Zuggleise	-12.53
▁abgetrennt	-12.53
▁adrett	-12.53
▁angeseilt	-12.53
▁atemberaubend	-12.53
▁auspackt	-12.53
▁bepackt	-12.53
▁chaotische	-12.53
▁dahingleite	-12.53
▁dokumentier	-12.53
▁drapier	-12.53
▁düster	-12.53
▁eingefroren	-12.53
▁erhellt	-12.53
▁erkennbar	-12.53
▁ermöglich	-12.53
▁exzentrisch	-12.53
▁filetier	-12.53
▁gewellt	-12.53
▁hungrig	-12.53
▁identifizier	-12.53
▁kultivier	-12.53
▁nötig	-12.53
▁predi	-12.53
▁primitiv	-12.53
▁saftig	-12.53
▁schief	-12.53
▁schlürf	-12.53
▁schmuddelig	-12.53
▁schwule	-12.53
▁sprühen	-12.53
▁trug	-12.53
▁verzehr	-12.53
▁waagerecht	-12.53
▁wackelig	-12.53
▁äußer	-12.53
▁überrascht	-12.53
▁übrig	-12.53
Wahlkampf	-12.53
esprech	-12.53
fächer	-12.53
nttäusch	-12.53
prungschanze	-12.53
regung	-12.53
visiert	-12.53
wältig	-12.53
wärmt	-12.53
ydrauli	-12.53
▁Angst	-12.53
▁Anruf	-12.53
▁Bastel	-12.53
▁Clownsnase	-12.53
▁Fantas	-12.53
▁Fäden	-12.53
▁Hochzeitskuchen	-12.53
▁Jury	-12.53
▁Kapitäns	-12.53
▁Lebkuchenh	-12.53
▁Manager	-12.53
▁NER	-12.53
▁Ocean	-12.53
▁Pfeffer	-12.53
▁Prince	-12.53
▁Putz	-12.53
▁Sesamstraße	-12.53
▁Slalom	-12.53
▁Stacheldraht	-12.53
▁Statur	-12.53
▁Stewardess	-12.53
▁Tatort	-12.53
▁dehnen	-12.53
▁gestylt	-12.53
▁schmoll	-12.53
▁testet	-12.53
▁vertieft	-12.53
Ausstattung	-12.53
nzeile	-12.53
okus	-12.53
▁Amerikanische	-12.53
▁Fingerspitzen	-12.53
▁Garnelen	-12.53
▁Holzsteg	-12.53
▁Hopper	-12.53
▁Miniröcke	-12.53
▁Panzer	-12.53
▁Story	-12.53
▁ausgewählt	-12.53
▁schulterlange	-12.53
▁unterschreibt	-12.53
▁westliche	-12.53
▁überwacht	-12.53
lympi	-12.53
trumpf	-12.53
glu	-12.53
rakete	-12.53
reinigungs	-12.53
schleier	-12.53
▁Benzinkanister	-12.53
▁Campen	-12.53
▁Gebilde	-12.53
▁Hitze	-12.53
▁Kehr	-12.53
▁Lanzen	-12.53
▁Mobil	-12.53
▁Schaumstoff	-12.53
▁Tarnfarben	-12.53
▁Thai	-12.53
▁Visier	-12.53
▁Wasserlache	-12.53
▁gebacken	-12.53
▁toben	-12.53
▁verkünde	-12.53
▁wehende	-12.53
▁überlegt	-12.53
Campus	-12.53
Energi	-12.53
Manöver	-12.53
igital	-12.53
kombi	-12.53
▁Araber	-12.53
▁Kenia	-12.53
▁Münz	-12.53
▁dargestellt	-12.53
▁magere	-12.53
▁verfallene	-12.53
Stripe	-12.53
dding	-12.53
kutsche	-12.53
röhr	-12.53
verdient	-12.53
vieh	-12.53
▁Biersorte	-12.53
▁Chemie	-12.53
▁Eisenstange	-12.53
▁Kettenkarussell	-12.53
▁Kornfeld	-12.53
▁Lunch	-12.53
▁Schottenröcken	-12.53
▁beschließen	-12.53
▁kuppel	-12.53
▁positioniert	-12.53
▁Schuppen	-12.53
▁Stromkreise	-12.53
▁olive	-12.53
▁sausen	-12.53
▁schrill	-12.53
quamarin	-12.53
▁Arbeitswesten	-12.53
▁besichtigen	-12.53
gesackt	-12.53
hmallow	-12.53
▁Justi	-12.53
▁Livekonzert	-12.53
▁Schlafsäcken	-12.53
▁Siegerpo	-12.53
ACE	-12.53
Ballsport	-12.53
Clog	-12.53
▁Centr	-12.53
▁Lampenmast	-12.53
▁Springreite	-12.53
▁Tresen	-12.53
▁gesprenkelt	-12.53
▁synchronisierte	-12.53
geschichtete	-12.53
▁Geschwister	-12.53
▁Planken	-12.53
▁Showgirl	-12.53
▁russische	-12.53
AGA	-12.53
Hello	-12.53
Keep	-12.53
berry	-12.53
ffnete	-12.53
gewiesen	-12.53
kupier	-12.53
leistung	-12.53
rüpp	-12.53
▁Dachshund	-12.53
▁Harlem	-12.53
kanne	-12.53
▁Bericht	-12.53
▁Bootsfahrern	-12.53
▁besorgt	-12.53
▁pausier	-12.53
▁Boogieboard	-12.53
▁Garden	-12.53
▁Hebebühne	-12.53
▁Themen	-12.53
▁blinzel	-12.53
▁feuchte	-12.53
▁vertrau	-12.53
▁Hirsch	-12.53
▁Parkuhr	-12.53
krug	-12.53
rgeld	-12.53
▁Center	-12.53
▁Ethn	-12.53
▁Defensiv	-12.53
▁Stump	-12.53
▁privat	-12.53
geblich	-12.53
laubt	-12.53
▁Friedensschild	-12.53
▁Mexiko	-12.53
▁Umzugswagen	-12.53
„	-14.1408
q	-14.1409
Z	-14.141
